#version: 0.2
k u
a n
e l
i n
Ġ n
e n
Ġ u
b a
t h
w a
i s
Ġ k
l a
y e
Ġ i
o n
Ġ e
z i
Ġ ku
h a
l e
y o
g a
Ġ a
y a
s i
k h
w e
l u
l o
m a
Ġu ku
k a
p h
o ku
Ġn g
el a
z a
l i
Ġ I
s e
d a
u n
Ġ o
k o
Ġk w
d i
m b
th i
el e
z e
is a
b o
y i
Ġku n
b an
u m
t o
Ġ in
b e
t s
an a
kh o
e s
e r
an d
i le
h o
k e
Ġ wa
z in
Ġ ba
Ġ U
Ġk wa
Ġuku ba
Ġkw i
Ġ ye
â Ģ
m i
b u
Ġ s
th a
en i
p ha
Ġkun ye
Ġn a
Ġ ya
Ġ N
Ġn e
el i
el o
u lu
is i
en g
z o
h la
on a
th e
b en
f un
Ġ yo
Ġu m
Ġn ga
an g
in i
v a
t u
t a
t i
is e
in g
o m
h i
x a
Ġ K
is o
k an
Ġe zi
ĠI si
Ġng oku
w o
n g
c a
an e
w u
Ġ (
s a
Ġ en
Ġ A
r a
Ġa ba
t e
r e
Ġ l
Ġk a
Ġ S
d e
w en
q a
kh e
an ga
ile yo
r o
Ġk we
th u
Ġ lo
d o
h u
Ġ y
Ġ m
Ġ si
Ġ ze
se ben
q u
Ġ z
Ġkwa ye
Ġ zi
mb i
Ġn j
r i
2 0
an i
on ke
c e
l ela
t y
ph e
Ġa ma
Ġyo ku
Ġng e
Ġ le
d la
k wa
Ġng o
m ba
. .
Ġ E
Ġe zin
m p
Ġ B
h e
th o
k ha
kh ulu
Ġ 1
Ġ C
Ġ M
Ġ we
on g
f a
kan ye
l wa
in a
Ġn o
u s
k i
Ġa ban
Ġ be
Ġk o
Ġ za
Ġo kanye
Ġu n
d lela
Ġ âĢ
m e
h l
x o
k ileyo
Ġi i
is wa
d wa
o r
b i
g q
f um
ph u
lu ng
Ġ w
Ġ L
Ġi in
es ha
Ġn oku
Ġ isi
Ġ la
ts ha
Ġe m
c i
an t
Ġ eli
b on
m an
ts h
Ġ li
Ġ P
k wen
w i
Ġ Y
ĠU ku
da wo
ĠN g
m o
x esha
Ġku ba
en e
Ġ W
ph i
el wa
w eni
u la
Ġn di
c o
h lo
20 1
ph o
n ga
p a
f i
in ga
Ġi zi
Ġk e
Ġ oku
in zi
Ġ ma
Ġ T
en t
phe z
b ha
p o
b ona
b h
g u
Ġe si
m n
âĢ Ŀ
t er
Ġ O
c h
h lu
on i
an da
el ela
d u
v i
Ġnj eng
a r
0 0
s h
Ġe ku
oku ba
in e
Ġi mi
q o
in t
Ġs a
j a
kh u
e ka
pha ka
o ko
and la
seben z
s u
gq i
zin to
e ho
U ku
z we
v e
Ġ -
Ġng en
el ele
s o
en a
is h
Ġlo ku
Ġ xa
s in
.. .
eho va
ĠI n
v u
Ġ se
g e
Ġ el
Ġ lu
f u
pha mbi
ant si
a l
Y ehova
Ġ F
Ġ D
el we
hi xo
Ġz oku
ga ma
Ġl we
b un
n tu
t ya
Ġka khulu
ĠâĢ ľ
h le
w ana
Ġko dwa
Ġ 2
T hixo
Ġ "
Ġo lu
ya ka
c ha
g c
en za
v el
ph and
qa la
c k
fun a
I n
Ġ b
Ġ zo
ku n
Ġ 201
en z
fun eka
ĠK u
on o
x ho
w an
M a
Ġ yi
Ġ G
on ga
Ġ /
ti on
fum ana
k ile
j i
mb o
c u
Ġ H
Ġaban tu
Ġuku ze
k qu
s t
l isa
g o
d lu
S i
phez ulu
ph um
hla ba
k we
o l
Ġ R
a m
ban tu
th eng
âĢ Ļ
y u
kwa zi
Ġu ya
j e
seben zi
Ġya kho
phaka thi
Ġng u
ph ela
la wu
q in
z u
i l
an di
Ġn to
we yo
Ġu bu
kqu bo
l and
y an
ise ben
Ġi m
Ġ is
k ela
f o
th anda
f an
f ana
phand le
ma li
ele kileyo
dla lo
Ġin to
n i
q hu
b ini
kwen za
Ġkw in
Ġ c
Ġ 3
the tha
Ġa ku
y ana
d er
Ġl wa
l eni
= "
q on
on e
p ro
ja lo
Ġku m
l elo
en ze
hla la
m andla
ty enz
n a
hlo bo
ha mba
e t
Ġ ban
sebenz isa
g i
el elo
b ho
Ġ wen
Ġe s
Ġku funeka
q h
kan i
lu le
Ġk oku
mb u
k elo
qin ise
ĠW a
bona ka
Ġku ku
ph antsi
Ġ Z
c in
ang e
b hu
phambi li
ts ho
seben za
p e
u r
. âĢĿ
el ana
u ku
k ele
Ġem va
ha yi
Ġnj e
Ġ f
ga ba
be ka
Ġ |
Ġa pho
Ġn om
Ġn d
k on
da la
mb e
ĠM a
v um
kh i
ang o
b he
m in
mp a
en zi
Ġya se
ce da
Ġi zinto
m va
Ġe z
Ġ the
ong o
Ġngen xa
Ġz onke
l ing
kh ona
vel iso
un i
a t
z wa
lu nga
Ġo f
z ela
1 0
Ġ on
t wana
Ġnga yo
Ġa man
do da
Ġ 5
r t
q ela
l in
Ġw oku
le yo
Ġin dlela
es u
x ha
Ġ bu
kh us
Ġ zin
ts hi
Ġ J
is we
xho bo
Ġe za
ong e
1 9
ba la
ĠC a
sin o
Ġn en
phez u
w ele
x e
Ġ and
c wa
s hi
th wa
th and
ĠU m
wu le
Ġum ntu
f e
mn ye
en d
Ġy onke
v ela
Ġ wo
Ġuku ya
Ġy in
âĢ Ķ
en ga
r y
m en
Ġnga phandle
Y esu
ku lu
x i
hl an
K U
Ġi ya
v er
Ġ p
wan o
y in
ĠB a
tsh in
Ġ 4
N g
o o
Ġn da
K u
b ela
se tyenz
the tho
Ġ eng
thu ba
z isa
un g
Ġe ya
b eni
Ġin g
Ġu Yehova
l y
Ġya ye
bon isa
k isa
ĠK wa
su ka
ta t
zi ma
r is
lwa zi
b iso
Ġngo ko
s ha
k iso
kon zo
Ġ >
Ġng um
B hayi
m kani
Ġma lunga
X a
I S
ku mbi
elele yo
h t
Ġkwi i
Ġku phela
Ġo ko
Ġna ma
gu qu
Ġo m
Ġy en
on do
k w
Ġ phakathi
to o
ĠS i
Ġ V
Ġin t
ĠNg oku
fum ane
r h
ane thi
Ġya khe
um i
ĠL e
o lo
kha ya
ang ona
Ġwa ye
) .
bh ile
Ġu M
l w
Ġna ba
A N
ĠUku ba
n ye
Ġn i
fun d
Ġ Â
fun da
di ban
yi le
o dwa
Ġ bo
thi le
Ġi xesha
Ġ 20
S a
Ġ ben
E L
i ka
zin ye
Ġnga ma
ene yo
Ġne e
y eli
Ġezin inzi
q i
Ġku ma
Ġk om
Ġ ...
lo ko
U m
ba lule
Ġa yi
Ġku kho
me ko
ĠIsi T
tha tha
z wi
Ġ '
. +
i d
c inga
i g
hlaba thi
b el
I N
f ri
bo mi
Ġu Thixo
min yaka
Ġnjeng oko
Ġka ku
kh on
Ġun ga
Ġng om
u l
s hu
ĠN di
t ra
Ġk an
Ġen ga
Ġngoku ba
ph in
q e
k elela
m veliso
Ġwa thi
Ġ po
z antsi
Ġnj ani
kha wule
Ġs oku
Bhayi bhile
ze kelo
Ġs ta
hlu k
ha mb
hla wu
1 2
f ane
p i
Ġwa m
Ġ to
j eng
y anga
te d
Ġkw isi
l is
Ġne zi
ban i
Ġwa khe
bonaka la
Ġe y
ĠâĢ ĺ
ele yo
Ġnjeng e
kh an
Ġ du
int oni
1 5
ts a
dla li
Ġen ye
, +
Ġwa kho
Ġk okuba
da ba
ya ma
Ġyoku ba
Ġkwi in
setyenz iswa
v o
lung u
p s
m is
g ra
ĠN ga
ko si
cin ci
Ġku ye
za l
i r
ka mp
b hi
1 1
âĢ ľ
c hi
ĠK odwa
phum o
w ane
dla la
c om
on d
Ġba khe
Ġa bo
Ġi ing
ti c
Ġ +
Ġi mali
ela yo
zi wa
Ġin dawo
lawu lo
Ġye si
fa zi
Ġdu r
la s
ka yo
n e
r es
t ye
ca c
mb ini
B a
q ha
p u
fan elekileyo
fane kiso
g anga
cwa di
hluk eneyo
" >
P a
Ġi be
tya la
Ġs o
S e
Ġ .
kh ang
Ġsta rt
khawule za
en ye
Ġu bun
w ang
ga m
en du
Ġku yo
su ku
xa ki
zi mba
Ġkaku hle
Ġm o
Ġb onke
Ġuku n
Ġ de
Ġ 6
p p
ph el
ĠCa sino
o ma
y is
Ġa pha
q es
Ġ anga
ĠY a
Ġku ya
yi thi
ĠâĢ ĵ
s ter
Ġne en
Ġk h
1 3
fan ele
Ġnge xesha
Ġko ko
ph eleleyo
di yo
kamp ani
I si
v an
gc ina
1 4
Ġku le
ĠNg oko
Ġba ya
zin i
Ġwa se
ze ka
Ġu thi
m fun
th eni
ban da
l elwa
m ini
m er
z ulu
r u
l we
xa biso
w w
Ġ an
Ġ mi
A ma
ish ini
w der
c t
ban g
z ana
es t
h en
Ġku lo
E N
b ile
1 8
iseben zi
Ġ phantsi
k wi
qa ku
we bhu
a ma
zi yo
tat too
M i
l l
ca la
tha thu
Ġu kwenza
qh elekileyo
Ġba be
r an
M o
Ġlo o
Ġyo m
fun di
la la
a d
li leyo
ris tu
Ġa ka
ĠI i
L e
r ha
y wa
c tion
X ho
1 6
k cu
el wano
hl ang
ĠA ma
en xa
y ela
ĠO ku
gq ina
Ġo bu
Ġaku kho
I i
ĠIsi S
e w
ĠIsi K
re e
ta l
Ġ Xa
ĠA ba
kan ga
u sa
Ġya m
Y u
D a
Y o
00 0
wang c
phe pha
n d
) ,
men te
ra yeli
yi phi
Ġin ga
Ġu ng
Ġ1 0
l ele
fri ka
Ġu za
Ġe mi
ling an
U N
Ġ Q
z ele
mpa wu
k is
Ġne mi
Ġuku suka
Ġna m
Ġum sebenzi
Ġza bo
Xho sa
1 7
Si rayeli
Ġkw en
Ġku be
q ana
in o
Ġye thu
ban ye
Ġnga ba
Ġo wa
Ġum n
hlan je
sebenz isi
Ġiin t
Ġi li
Ġnoku ba
wi mi
ganga tho
Ġ d
Ġ ca
l ine
Ġkwa khona
in ye
phu ma
p er
ĠIsi C
lu la
w un
Ġa be
ise ko
Ġs ele
Ġ phambi
ka zi
Ġu funa
Ġnga kumbi
phi la
Ġwa ba
to r
b isa
za yo
Ġ re
mb ulu
2 6
x t
s s
l anga
, âĢĿ
theng i
th um
ĠY e
5 0
Ġn t
Ġla kho
Ġya ma
Ġkun jalo
Ġ 7
is elo
c wangc
Ġku thi
Z i
Ġ $
d le
Ġ1 9
qon da
Ġezin ye
N di
Ġ 0
Ġa wa
vi diyo
f t
t ri
Ġza kho
Ġi za
ve ki
qhu beka
Ġu Yesu
Ġ da
ĠI in
fi ka
y ona
va ka
O N
Ġen kulu
th ini
Ġpo wder
int anethi
Ġ 8
u t
ku kho
c hu
on wa
er e
m ele
H A
Ġ ,
se m
c elo
r en
o k
ĠK e
g en
Ġle si
gam sh
d um
A B
s en
Ġngoku khawuleza
j ongo
Ġo mnye
Ġne si
ty wa
h an
Ġkwa ma
s ta
the th
n o
ĠR e
Ġzi ya
qu ka
K ristu
Ġu lu
enzi we
e ko
lung is
y ina
Ġba ka
fana yo
k elele
on yana
3 0
th un
fun do
ĠNg o
lung ileyo
Ġuku fumana
ĠD e
banda kan
cin ane
ko lo
sa sa
k el
ulu mente
da tha
si thi
a lo
Ġkwi mi
t es
Ġ r
lawu la
qana ba
j onga
te tho
ĠK wi
l ise
Ġ th
a s
Ġngen dlela
Ġ 9
z andla
lo o
ban e
ce do
) ;
b ele
kwen ene
lw ini
Ġa m
an o
Ġf or
Ġkwe zi
Ġndi ya
Ġ phezu
land elayo
b le
om e
balule kileyo
Ġba kho
ona si
Ġba se
li we
ban zi
Ġkwin dawo
sh umi
theng isa
Ġku bo
l el
ĠÂ £
k isi
man ye
Ġi mp
Ġli ka
ga qo
g ca
vi de
bh onasi
Ġkh ona
er s
y s
2 4
z elo
l weni
Ġ Ð
phaka m
L i
Ġu mb
ĠN a
o u
e d
Ġkwi zi
N a
Ġaban inzi
el eli
r d
Ġ isa
ka cha
Ġen t
Ġba m
un da
Ġsi ya
U M
l an
kcu kacha
y ango
ĠC o
and elo
Uku ba
Ġ &
Ġwa za
Ġa si
z ange
Ġy ena
Ġe ma
Ġeza hlukeneyo
w uni
Ġkwe si
Ġz en
ha la
khus ele
phand o
fa ka
sa yithi
y ing
Ġa zi
y eni
Ġya bo
is ana
Ġlo m
Ġi gama
C a
Ġle yo
Ġkuku ba
Ġkwa ba
Ġngo kwa
o ya
eng iso
khe the
k ca
ĠS a
Ġng eli
kho si
s us
kwen zeka
O KU
Ġla khe
Ġa mandla
x elo
man zi
w n
L a
ĠI zi
c ing
yan iso
Ġaban ye
Ġ =
A r
Ġe M
Ġna se
q wa
Y i
Ġ pa
ht t
i ke
m ent
c ula
Ġ t
tshin tsha
Ġen d
phu hl
Ġku we
g un
Ġm na
i t
tsh ane
ku ba
thand o
o s
2 5
g we
Ġkwa khe
L E
b um
in yaka
v en
tha ba
ang oku
T H
e b
khang ela
enzi wa
khu tha
qon do
L u
Ġ [
Ġn dlela
qe qes
d we
Ġwe si
Ġw om
co ko
phu la
an isa
Ġla se
za thu
th elo
e si
za ma
ĠU n
c es
do lo
ise tyenz
mn tu
Ġze thu
Ġa s
khe tha
di a
va van
m s
khi wo
j ong
ban twana
lu m
Ġun oku
fo wuni
fu tshane
A D
gqi bela
Ġw onke
Ġu be
phin da
endu lo
li ziyo
ts hu
Ġezi fana
Ġya ba
bi zwa
g le
Ġen tsha
Ġwen a
ĠM o
khan ya
ĠL o
kh ula
vum ela
lo bo
Ġe bu
Ð ¾
ji kele
Ġu bomi
ĠN angona
enze ka
y en
s ho
ba li
ĠP o
Ġna bo
q wen
g x
Ġ ha
l enye
mo to
fumane ka
bha la
ca m
Ġ h
isi weyo
ka lo
lung isa
k ra
âĢ ¦
ĠE mva
mpa hla
an ye
the mba
ts uku
Ġkwe e
ce d
f ono
th enga
Ð µ
ci d
2 3
l d
i c
Ġl onke
M e
phe fum
ĠN gaba
Ġngo kwe
K a
R a
Ġi N
H a
la hle
bang ela
ĠKwa ye
iseben zisa
lin d
p an
fa yile
2 1
s on
xho lo
I M
qinise kisa
N ge
Ġkwa bo
t ing
th ela
Ġezin ga
Ġye e
U S
r in
m u
se s
bandakan ya
20 0
h ina
P o
d ing
L A
l wan
a ko
j o
Ġ phambili
Ġku zo
ca l
y ise
dlu lileyo
k elwe
la ck
Ġkwa ku
mi dlalo
ĠA frika
Ġimi dlalo
Ġin kqubo
Ġna ye
k xa
xi bel
mba lwa
hla beni
2 2
ĠS e
Ġu ze
Ġka Yehova
I zi
Ġezi mbini
m anga
Ġu lwazi
Ġu yi
y isa
l iswa
Ġnge en
xe ko
Ġno bu
zal wana
c ho
rh ulumente
eng e
wa ka
ĠN G
tsh ini
A ba
Ġ201 8
Ġu ye
Ġ201 9
ĠS lo
je k
Ġ {
l iso
I in
v ula
kha tha
bon e
Ð °
z el
y enza
Ġ20 0
ĠN o
Ġu ma
Ġn dawo
r k
phum elela
sa se
the mb
m on
ĠL i
gu mbi
/ /
Ġza ma
k r
bu zo
th ele
Ġs in
f f
Ġu N
Ġel in
fi kelela
thum ela
diban isa
ya thelo
Ġ }
l ang
N gqina
s ini
kho yo
: //
hlan u
Ġ pro
F a
ĠH a
Ġ g
k elwa
lu ntu
on yaka
ĠB on
xa lenye
Ġe yi
In t
ĠE n
ci ph
ĠKu ba
gamsh elana
hl eli
el el
Ġnge si
Ġe zo
Ġna yiphi
oo gle
Ġ onke
lwan yana
x u
Ġyin to
Ġ1 2
c andelo
Ġkan ye
jek thi
or t
x h
Ġnam hlanje
Ġng es
Ġn angona
elwe yo
sus ela
tsa pho
Ġa se
Ġkw eli
u to
mp i
Ġza se
Ġzo m
e xt
bho la
Ġnt oni
Ġen e
' s
Ġsa se
pha wu
Ġze e
un d
Ġiin dlela
ĠT o
A S
Ġya yo
pha tha
l wimi
cha za
Ġye zi
Ġu kwa
qinise kileyo
Ġs isi
Ġ co
vel isa
Ġkwa kho
ce bo
Ġya yi
da lo
ona l
Ġe be
m ela
Ġza khe
N go
Z I
Ġ tattoo
mo ya
mbulu lo
Ġa wu
htt ps
Ġaban twana
N gaba
c ela
Ġu the
bu la
cwangc iso
ga zi
Ġyoku qala
Yu da
hlawu mbi
Ġlu la
ĠM e
Ġun yana
L o
E S
Ġu zi
kun ye
Ġ ong
gqi bo
Ġk onke
Ġngoku pheleleyo
w anga
po si
Ġezin t
za li
er i
E K
Ġku ka
ĠY i
C o
ĠU ni
lo g
s el
Ġne zinye
mi hla
ya lelo
li c
. âĢĻ
w el
m vu
A n
ĠP ro
mb ula
Ġnga phambi
Ġizi xhobo
gi di
le ka
G a
ĠL a
in di
Ġl wen
kxa so
R e
l ini
Ġng qo
or d
U n
mp u
kha wun
4 0
Ġeli de
onge za
er a
tho mbo
th we
iso mbululo
ĠF a
Ġum dlalo
ĠIsi A
Ġnga phezu
ent la
khus ela
t yi
fund isa
sh ishini
W a
Ng oku
khawun ti
Ġnga phakathi
Ġbe thu
Ġuku zi
J a
G e
X O
I B
si a
i li
gc in
l ish
et ro
2 8
o le
Ġwa y
bh an
tshi lo
D A
m eli
ĠU KU
mba li
Ġ201 7
Ġu ba
webhu sayithi
ing u
r l
ise ka
Ġ1 5
Ġkun ga
re a
Ġe sin
jeng oko
Ġs inga
Ġkun i
ya zi
gc isa
ĠA n
Ġ xesha
be r
c y
2 7
Ġi zin
or g
m isa
kho lo
ĠWa thi
Ġwa ma
Ġlo wo
In dlela
H e
c ro
res s
n olo
q ho
and le
hla zi
ww w
W A
Ġon line
theth weni
Ð ¸
hl anga
s is
xho me
ĠP a
P h
o kwenzeka
Ġna yo
ph end
kan ani
ĠNg e
bu za
Ġ1 1
j wa
un gu
S o
Ġe se
EL A
d ini
Ġem hlabeni
m isebenzi
in do
ha gamshelana
Y E
b ing
mb ono
shi ya
ĠB lack
Ġ di
li de
kela yo
wu lo
G oogle
un ga
x elela
phu cula
c ono
Ġu A
Ġen di
ĠE zi
Da vide
Ġa ye
Ġkwe en
Ġnga phezulu
mbu zo
xhome ke
ho qo
Ġi z
kha sino
on t
ng ena
lung ele
ja ck
Ġba bo
ri ke
Ġkwiin dawo
Ġn es
ciph isa
l ong
Ġaman inzi
Ġ zinto
ĠZ i
j ani
ro id
ĠK a
la yo
c he
w s
phend ula
w ini
iseben za
ĠS ta
gra m
om dla
el anga
hla za
Ġnj alo
Ġo k
bon elela
g ena
oku qala
Ġim isebenzi
2 9
en zo
yu ka
Ġs om
Ġkun ge
b ra
pha thi
en to
Ġim inyaka
6 0
qhu ba
x he
ca ka
Ġmo bile
Ġn anga
d y
Ġesi thi
V i
Ġ X
k iswa
Ġka lo
lung elo
Ġ onga
Ġwe thu
y ani
Ġo o
k eli
Ġuku mkani
Ġ ph
Ġ andi
d inga
li weyo
qon d
. âĢĶ
ĠI mi
r om
Ġka Thixo
mba zana
w ela
Ġaba dlali
K wa
Ġu sebenzisa
Ġ1 3
Ġi qela
Ġama xesha
ig ht
Ġ do
xo lo
Ġo bun
is ela
hlu ko
Ġr hoqo
T he
Ġzi ka
khusele ko
tsh wa
Ġla ma
ĠT ra
h lwa
T h
Ġ â
Ġ phezulu
Y O
Ġm fono
hamb isa
qa leni
F unda
mb ane
eng u
l isi
x hen
z on
w elo
î Ļ
ben e
and u
îĻ Ł
zi thi
Ġ îĻŁ
N ga
Ġna ku
Ġm e
ta thu
qwa las
ĠT he
Ġnga thi
s he
bi za
ĠIsi Ma
is elwa
ĠS o
Ġ1 8
l on
K H
s ele
ĠE li
da weni
I P
se r
Ġba ye
khethe kileyo
an iso
be ke
t an
ĠE ku
Ġi di
k weni
Ġuku sebenza
ro phu
Ġi f
kca zo
bel eni
cu lo
kh we
li ti
K wi
A M
ce biso
Ġban ga
t r
ĠU M
t ter
Ġkun okuba
Ġin oku
ĠNg enxa
yu re
ĠB e
Ġ fun
Ġda ta
ga s
ĠI N
Ġsa kho
pha th
en te
Ġba thi
f or
eng qondo
xhen xe
kun dla
Ġom khulu
um elelo
H ome
Ġe bo
I mi
Ġye en
Ġ fa
Ġk ang
Ġama bini
Ġku wo
is wano
Ñ Ĥ
Ġu tshilo
Ġ ela
o t
Ġu S
u ka
kha di
mfun o
g ane
Ġyo ko
il l
li le
si on
me hlo
hlo ko
Ġe N
lisa yo
ha mbo
x ulu
th int
O ku
i ty
Ġezin tsha
hlo phe
ch ane
qa lisa
b isi
m fa
c el
Ġze zi
si bini
ĠYe zandla
Ġku de
theng isi
Ġ1 4
Ġkwa yo
hla le
3 3
Ġba zi
mer a
Ġwa bo
tha the
ang ela
pro jekthi
th er
" .
kun ceda
phakam ileyo
the the
qa le
Ġa kho
khu pha
Ġwen za
l elwe
Ð ½
es he
Ġm ntu
dolo phu
thand wa
si ka
T a
khutha za
Ġ ho
Ġo yi
gqi beleni
z ise
wa re
ĠIn tetho
cha pha
land ela
d en
d lel
Int anethi
z enze
Ġuku yi
u ba
pha ya
Ġze si
Ñ ģ
and isa
P S
Ġngo kwenene
Ġiin dawo
Ġi thi
Ġba za
Ġ hayi
Yu rophu
Ġyo bu
ĠIsi N
di di
gqi ba
le s
xhe ba
Ġnjeng o
li lo
Nge si
nd roid
y ini
e e
Ġu hlobo
ĠK un
yi li
uni ve
u ro
ph ondo
bu yis
Ġ201 6
Ġzin ga
U ni
le zo
lingan iselo
Ġa ya
cac ileyo
Ġnjeng om
lu hlu
j onge
L O
gqi th
hlawu la
Ġi thuba
Ġimi hla
ĠIsi P
Ġnge zi
Ġsa khe
q esha
Ġy enza
lind ele
gun ya
Ġin ani
ĠSlo ts
gqi b
Ġng anye
in d
Ġel u
rh we
Ġ #
Ġb y
m m
le t
ya me
ro u
xha sa
B ha
Ġngo bu
Ġb oku
Ġku thetha
v un
fi ke
N o
thaba tha
pa la
xa xheba
ĠBlack jack
zu zu
g n
Ġu kwazi
hlu kileyo
1 00
d lo
Ġku yi
Ġlwa kho
S A
Ġ *
ng e
Ġnga lo
Ġngoku n
Ġloku ba
zu lwini
Ġ ang
tya lo
ĠO n
Ġy intoni
and leni
ĠY intoni
Y intoni
Ġe sa
Ġin gaba
o us
phin de
yo ku
Ġba ba
K ha
Ġ ise
unive sithi
Ġama doda
phefum lo
ca li
fun de
Ġs is
i i
we r
Ġuku tya
mn yama
Ġlesi Xhosa
r g
pro fe
ta li
ĠD i
p la
chu le
F UN
P ro
onwa bisa
Ġ1 7
gane ko
S E
Ġkalo ku
ĠKu kho
k s
ĠU ya
Ġaba fundi
D i
Ġu s
Ġyo u
tu re
ts he
khon zi
I sa
c an
vavan yo
fo to
Ġii mveliso
Ġaban ga
the thi
B u
Ġs u
ĠA kukho
mfun eko
Ġn ang
ish ino
w eli
C AD
Ġ ji
w in
Ġku za
Ġuku susela
si mbi
Ġi datha
Ġkw enza
Ġsi ka
ka la
3 5
Ġezin kulu
Ġ ga
ĠI ng
Ġy anga
ĠUku ze
gc wele
ĠK U
ĠN da
Ġi ye
wa ri
le m
8 0
P i
khu ph
ze r
Ġi Bhayibhile
ĠQ hagamshelana
hla s
Ġaman zi
Ġl en
J am
Ġ1 6
Ġw i
bho kisi
ĠBon us
Ġe khaya
ch we
Ġnga mnye
Ġkwa m
khulu le
ĠN d
an u
g qa
h ane
Ġna we
y elwa
mn andi
le y
zi we
ri ya
I C
Ġye khasino
ĠâĢ ¢
phum e
gqi rha
ĠI Bhayibhile
tshin tsho
ĠNdi ya
Ġey ona
hamb elana
A frika
po lisa
xibel elwano
Ġza ba
: :
i me
mi tha
phaka de
Ġwa ya
ar d
c on
Ġku bu
at too
Ġkuba lule
k eni
tion s
Y er
mpi lo
Ġuku sebenzisa
fun i
Ġ201 4
ku mkani
mp yu
Ġin doda
g y
Ġngoku banzi
cebo ok
ĠR a
N t
m v
za mo
Ġwen ze
cam ango
Ġuku nga
q welo
Ġezi li
Ġngom hla
ha m
ri c
la r
hla li
khe tho
so loko
Ġa t
ti ve
k to
x in
Ġ elo
Ġk anga
Ġa l
Ġa ze
ĠA bantu
I ng
Ġ1 00
Ġili zwe
qu la
ke t
mbu tho
A L
ty hi
Ġ ta
Ġm hlawumbi
so ft
lo mo
j iswa
Ġezin tathu
sin d
Ġin dlu
ti onal
o zi
tsha to
Ã ©
Ġezin gama
Ġn zima
tsh ona
Ġoku n
k ise
pha za
Ġnga se
I LE
Ġizi phumo
Ġc om
ra l
is eni
Y a
Ġi kho
phu lo
ĠU nga
dle ko
a khawunti
Ġ ana
Ġm n
and o
lawu li
Ġum zekelo
kh ono
bon elelo
di ma
ĠY o
Ġ201 3
B h
J o
Ġku Yehova
the mbe
kwen kwe
ban ga
la m
in inzi
e zi
Ġngoku qinisekileyo
t on
3 6
kwa kha
B o
di o
phu pha
Ġeku beni
ta ba
diban a
fum ene
' ,
4 5
h ini
y d
Ġji kelele
Ġuku thi
Ġna kwi
onga meli
ĠB i
p y
ma hla
am andla
t ele
Ġkun oku
ĠÂ »
h lungu
Ġkun g
Ġku qala
Ġuku funda
ya lezo
G IS
sa pho
C hi
ha mbe
Ġne eng
sha yina
kh un
G en
Ġnge e
chi tha
thi we
Ġon oku
um kani
kha mera
Ġum thetho
qa bane
ci al
ish ishini
mb eni
bonakala yo
Ġum zimba
ig h
Ġa r
D e
Ġ2 4
s wa
Ġnga bantu
c wele
T o
en dawo
Ġen daweni
lum ko
O M
S I
kho kelo
vu ma
ĠD a
pu ma
Y A
Ġe fanelekileyo
usa lem
phu cu
ph y
bon wa
thanda yo
xhomeke ke
Ġkw el
hlang an
le r
Ġu Ma
theng iswa
Ġel inye
Ġe thile
posi t
Ġe vela
z onwabisa
Ġku quka
f ile
Ġiint lobo
xulu m
Ġlwe e
y we
Ġna thi
P ha
Q u
to mbazana
uku mkani
c we
E M
xha si
o f
ant ya
I D
Ġulu hlu
Ġ v
ĠI s
Ġem n
li zwe
bh in
ster one
zenze kelayo
j ini
E R
sha re
ĠU S
y isi
Ġkw enzeka
r on
z elwa
Ġ tha
Ġsi za
ĠU bu
khang ele
Ġna banye
Ġum hlaba
Ġzo bu
Ġolu n
ys te
ko mo
Jam ani
ran s
phum elele
Ġa thi
Ġfun ction
Ġna bantu
Ġ va
khon k
ci mbi
Ġii mpawu
f in
vu le
Ġa kun
Ġwa zi
p r
zu zo
Ġimp endulo
ole zwe
Ġngoku thi
ĠF ree
G u
mp endulo
Ġlo bu
ĠT e
M zantsi
lung ile
lang aniso
hlaba thini
ĠYa ye
long wane
si te
ant se
vum e
la si
ya m
un do
Ġngoku sebenzisa
kho lelwa
g ht
s ond
Ġaba be
ge t
po zithi
Yer usalem
ph ele
Ġ te
Ġbe si
za lwa
tsho longwane
wen dwe
ar t
z weni
ant oni
Ġa li
Ġn an
o d
Ġuku dlala
um ba
t yo
sin do
3 4
Ġe fanayo
ing qi
bhe kis
qo qo
Ġ hlobo
Ġezin e
Ġngeli xa
and ela
mb ona
bh enge
shu ma
Ġen gama
Ġum fazi
khon za
Ġngoku nga
Ġu fumane
is t
mp e
Ġezi mbalwa
fa ke
za la
chwe ph
I V
ban dla
Ġs okuba
E mva
_ _
Ġiin daba
qu lo
is hi
ya wo
z elelo
le ko
y l
bu lala
j w
q onga
pa pa
Ġloku qala
land eli
zi phi
mo d
Ġin e
Ġbu ka
E li
nolo ji
mp umelelo
Ġc on
si pala
zin ga
ro l
Ġum dla
kha la
wulo s
q ulu
p to
Ġuku setyenziswa
ĠC ha
Ġ201 5
v us
Ġe phezulu
ĠB u
c s
Ġna zo
me phu
à ¤
sh ishino
m thetho
Ġa khe
Ġo onyana
Ġun ako
U R
Ġkwa kunye
Ġ ane
wu di
k ana
p en
r us
el l
ye ke
ven kile
shu shu
Ġkwe mi
9 9
k wan
r ho
fun e
fa kwe
se si
I T
Ġ2 5
Ġ bona
j en
Ġy ona
ĠC om
Ġezi phambili
Ġ3 0
Ġf ree
Ġth ina
Ġaba thengi
a ba
Ġe balulekileyo
ce ba
zu ku
m zekelo
si ty
Ġen o
j in
mbo lo
k ongeza
Pa wulos
to sterone
Ġwe b
B A
n et
s ing
Ġla m
ol oni
Ġl in
ni ka
d es
qa lelo
Ġi bhonasi
3 7
dlel wane
Ġkwe xesha
P H
Ġs en
ã ĥ
T i
qh ele
pu ta
ĠN ew
Ġun o
Ġe thi
er o
thi wa
co ca
Ġi meko
Ġnj enga
es s
.âĢĿ âĢĶ
ziwa yo
Ġku bantu
ko dwa
Ð »
sebenz ise
isa yo
balule ke
zi ko
ye za
qhu bi
t lo
Ġu si
and e
en ti
Ġkwe zinye
lung elel
thu thu
ph endu
Ġu phando
ĠIsi F
ty ho
ca r
phuhl iso
c ts
Ġe x
! !
Ñ Ģ
caka za
ca le
Ġ bi
Ġezi lungileyo
Ġnd inga
Ġumn twana
Ġ20 20
c re
Ġnga phambili
Ġ he
Ġlu ka
Ġkwin qanaba
Ġwi th
j ol
ĠIsi H
ph elo
kh wa
lungis elela
bi kho
y on
kho mpyu
Ġili zwi
lwa yo
yi ka
Ġle thu
z ona
kr ele
B ukumkani
to mbi
Ġkwe zo
Ġku theni
Ġzi be
ty we
Ġeli phezulu
Mi cro
f er
qeqes hi
ze midlalo
ng cakaza
po liti
um ana
ĠR o
Po st
t ch
Yi puta
Ġuku bona
or k
Ġza m
Ġim veliso
. "
Ġa lu
Ġama zwi
C h
Ġi xabiso
ĠIsiT a
Ġ one
hi li
Ġend lwini
Uni ted
Ġaba fazi
3 2
K hu
ĠDe posit
Ġin gq
Ġaba sebenzisi
Ġeli khulu
P re
s r
phel eni
Ġzoku beka
en dlela
ĠNg u
hla lu
be ko
Ġba ku
W E
xulum ene
lung iswa
Ġtha t
r s
Ġama zwe
Ġisi celo
T e
Ġnjeng okuba
l oni
tu r
Ġu kwen
Ġun e
? âĢĿ
R om
da de
gq we
mb on
vu zo
3 1
Ġin coko
ti ki
chane kileyo
y iswa
z enza
y ele
ĠKwa khona
thu thi
z elela
G A
g on
gc ine
ĠIsiC hi
Ġez ise
ke tho
Ġkang ang
ĠU Yehova
Ġum oya
zo bo
Ġel ing
7 0
c ine
g in
la y
hlu ka
go lide
Ġku Thixo
eli ka
Ġm an
inga tha
b ileyo
Ġkw int
vum elwano
fe ze
N kosi
funeka yo
Ġu Yo
pa ti
bhe tri
bu ya
is weni
Ġum gangatho
Ġnj l
Se ben
khonk co
q un
fun yan
o li
Ġnga zo
R oma
Ġuya zi
m vo
Ġi ku
b y
an ti
Ġen oku
Ġnen dlela
Ġuku gcina
fin der
Ġla ba
qwen o
Ġkw an
lo t
khulu lo
g h
Ġse si
ng en
guqu la
khe thi
re kho
ani a
Ġiin konzo
; +
da ta
anga phambili
Ġngo ba
w tlo
mfun do
sr cid
wtlo cale
lule ko
/ "
qoqo sho
jin eli
q ong
tic le
ĠM ar
nga ba
mb elelo
A uto
C hina
se M
tsha bala
s isi
lo ck
U K
Ġkwi minyaka
ĠT h
Ġwoku qala
th ana
fum anisa
f ani
ce de
ga kanani
bi li
b elana
ku dala
lu nye
Ġsi be
s ela
Ġ2 1
Ġ fi
ĠG a
Ġkube kho
Ġbe ku
bha lo
di ya
Ġwa yo
bho zo
mis elo
o gra
di um
Ġngu bani
f om
Ġiin kcukacha
Ġiin kqubo
Ġim ini
sem thethweni
ĠB o
lish umi
Ġi vidiyo
wu la
Ġngo suku
o id
ĠU K
Ġama khulu
m kela
Ġu thando
zin g
Ġwa yi
Ġkwi hlabathi
ta ta
Ġ isetyenz
Ġndi za
p ti
n cedo
the thwa
kcu beko
en ce
Ġama gama
N angona
co ce
eli zwe
ĠN e
ty hini
shi ci
3 8
ĠS er
Ġli zwe
Ġe ban
T ext
ĠNgoko mzekelo
Ġaman qaku
tshin tsh
Ġel ung
qeqes ho
Ġli ya
C ha
Ġuku hamba
tic s
khu mbula
thanda thu
4 4
Ġu Y
Ġkw is
ĠIsi E
ĠE x
A C
Ġnge mi
Ġzo mbini
p le
el elwa
qho sha
ĠIn t
Ġe S
t t
Ġa re
O S
ĠIin daba
xo xo
a yo
l wana
Ġe B
Ġa d
ĠT i
lawu lwa
Ġeng ena
Ġin konzo
Ġimi fanekiso
khu mbu
kw andisa
Ġezi thile
Ġkubalule kile
ma il
fa kwa
xe ba
t wini
Ġban oku
201 9
Ġeku qaleni
Ġku fumana
Ġebo mini
vide o
u se
ma rike
ver sity
hl and
un du
Ġel ine
ta ka
cing e
p te
ha re
ĠK oloni
al l
ts o
Ġing qalelo
Ġ fu
pho sa
gcin wa
Ġze en
Ð º
Ġum xholo
bhan ki
Ġu K
mis ele
Ġnge mihla
kele yo
Ġezi yi
khus elekileyo
B i
Ġkwi xesha
u p
li a
sebenza yo
la pho
pha the
is ele
ĠIsi U
zin dlu
Ġum fanekiso
z iso
Ġnoku n
u b
Ġe hlabathini
ĠG e
ma s
Ġaba yi
M S
T S
x elele
us t
tat es
Ġiing xaki
ĠP h
Ġkun okwenzeka
Ġn kqubo
Z A
e f
de be
ni ke
Ġlwa ma
g ula
ĠS t
ĠJ o
Ġyo kwenza
ye ka
Ġ$ (
. )
Ġi bha
U L
ĠN jengoko
Ġye zo
l en
ĠA ndroid
enz elwe
Ġ :
Ġi S
Ġba yo
ent engiso
qha gamsh
etro s
ta mbo
khi wa
khun dla
T V
k elelo
ze kel
Ġye N
ph andi
se be
mb ha
ling ana
m el
y n
Ġkwi N
Ġom tsha
shuma yela
ĠE si
9 0
Ġar ticle
Ġo phezulu
xha la
ĠC h
x y
bum ba
bu yela
hlang ana
Ġuku fikelela
ft ware
Ndi ya
di bene
indo ws
F ran
bu tho
Ġ2 2
ĠT a
ko m
ca leni
Ġba ma
Ġawa ye
Ġel ula
z wana
th en
bonaka li
kca zelo
mb isa
M ar
te yu
ĠH e
ĠA r
ku m
yi lo
ĠIn dlela
q he
thint ela
Ġuku khanya
ry pto
N AB
Ġezi phezulu
Ġza yo
andu va
an to
Ġeli thi
hlu la
Ġo r
bhin qa
d in
l ane
rhwe bo
h n
Ġe yo
phel ileyo
Ġisi xhobo
Ġ5 0
E ng
U B
ĠJ a
zi mbeni
T O
x anduva
Ġsa ma
Ġezin oku
IS O
Ġubu dala
wa y
at ing
A l
zi l
Ġun inzi
Ġem ininzi
bun zima
Sa se
tsha la
Ġ isebenza
ise kileyo
Ġye mi
ti a
Ġ ishishini
ku ma
vum ele
Ġa za
bh ere
cac iso
da ka
ĠS tates
Ġa y
am u
la mbo
Ġuku m
je ct
si gn
qe qesha
3 9
an je
Ġuku thetha
Ġ ani
Ġna lo
ta r
Ġnga loo
Ġama thuba
zekel iso
v eni
ĠL u
Ġba ze
xo ki
b elo
âĢ ĭ
isi we
wu phi
fu du
K h
dum iso
Ġiin tsuku
ĠN jeng
Ġi t
Ġu Davide
Ġu khetho
z eni
Ġum hla
Ġ gi
ĠA ku
tye bi
thun ywa
Ġn ina
201 7
balule kile
I ing
bonaka le
yu sa
on ti
Ġng onyaka
Ġu rl
Ġsin oku
let te
do cid
Ku kho
k ro
Ġel inga
guqu lelo
Ġun cedo
zi la
be tha
Ġeku n
Ġz on
cha s
ondo lo
Ġi bonisa
q anda
Ġu bha
phath iswa
kqu bela
gqib eleleyo
Ġba yi
Ġimi buzo
w andle
N e
Ä ±
201 8
p t
zi phatha
Ġnga bo
fund isi
Ġok okuba
p ter
R o
ĠIsi M
Ġeku gqibeleni
ĠKu theni
Ġi b
ula yi
bonaka lisa
in s
Ġkwa bantu
qu e
ĠKu funeka
I tali
th weni
I s
ĠW e
ĠU Yesu
qhu beke
Ġn angoku
funa yo
mis ela
Ġnga le
Ġm usa
Ġe pheleleyo
tho ba
Ġ ti
ĠP ar
ku luleko
on de
Ġn on
Ġku bonakala
c ina
f fi
Ra shiya
gqith is
L we
es is
tha li
Ġu Sa
" ).
vi ous
Ġeya yi
ĠI ing
Ġe dlulileyo
mb ela
ba se
Ġanga ma
Ġi M
yin to
Ġkulo o
n u
bon ise
Ġoku nga
lu mini
go sa
wen za
ul ti
U T
kha li
in in
ban jwa
ish umi
p ort
in te
o mbolo
Ġku se
di le
tha thwa
an s
âĢ ¢
tsh anje
Ġisi gqibo
Ja pan
Ku theni
lw andle
Ġu B
ĠT attoo
Ġnga phantsi
.âĢĿ +
Ġaba zi
R i
z oku
Ġwa s
Ġno o
ĠNG OKU
Ġi phepha
ca tshu
gc wa
C ar
m g
ph ile
Ġkw ing
ĠC on
lin ye
profe ti
pte mba
Ġi B
er bi
ĠS u
ĠIn ter
Ġyoku n
C om
U nga
ri t
ki yo
ty an
ĠOn line
vi ew
d wendwe
Ġn antoni
Ġama va
E T
zi leyo
Ġyin dlela
y elwe
Ġezi vela
qo kelela
to ry
Ġla bo
ĠE we
ji thali
Ġ eni
Ġng ent
ĠC ity
pa thi
hlo la
qon de
6 5
ĠC hina
Ġez is
Ġin xaxheba
Ġyen ye
es o
Ġye yona
sin ye
C O
P A
T hu
c um
ke ka
da m
Ġne N
Ġno ko
Ñ ĥ
ce ta
bha ka
sen oku
v ele
ku de
thi xo
Ġno M
Ġu se
qa qa
b indi
tha mbo
fi hla
wi tter
bha liweyo
Ġin kampani
bu cala
ri a
H O
Ġ bantu
ca st
tattoo s
bho di
hla mba
am hlanje
ma rt
Ġlwa khe
re di
Ġ2 3
qwalas ela
kw in
ph on
Ġmi hla
z is
en iso
ĠIn dawo
oni a
7 5
ga lelo
Ġing xelo
ĠKu ya
H la
ca tion
kun zi
di li
po st
ĠIsiT shayina
Ġu fumana
m eni
Ð¾ Ð
mb er
bu lela
qes h
el elwe
onge zel
TH I
Ġ bon
ba mb
mpa zamo
l s
Ġi cala
u a
Ġubun zima
Ġku lula
Ġii meko
el eni
phula phu
U bu
h lela
thun yelwa
Ġu tshintsho
D I
ck s
phakam isa
hland lo
c er
y ane
ph anda
c le
lo liwe
q ingatha
eng xaki
dla lweni
Ġnd in
Ġbo m
ĠWa ye
qha mo
kun ika
st an
E n
dlu la
of isi
ha wu
mod eli
Ġin kxaso
Ġuya kwazi
Ġn yaka
O L
phe the
han jiswa
Ġe kwa
d li
we b
Ġn inga
ro ad
kwenkwe zi
Ġ cha
Ġis andla
mpe mbelelo
E si
y isebenzisa
khu phela
lingan isa
q ina
Ġuku qinisekisa
201 6
xin zelelo
gqi tha
th an
wu li
Ġlwa ba
K odwa
Ġin ike
Ġm eko
gwe bo
Ġkwi lizwe
qo bo
Ġing xaki
politi ko
Ġkwi meko
Ġzi ye
ĠP i
vu ya
ri l
anda rin
K o
ĠI S
Ġent le
Ġi tyala
Ġkwe thu
Ġezint le
chweph eshe
ĠK o
ĠK ristu
fi kelele
cu r
Ġkwin dlela
Yo hane
buyis ela
Ġu P
l iswe
v es
d onga
da lwa
gx inin
th andi
Ġi te
Ġzi zi
entla lo
Ġiin dleko
jong ene
d leni
qu a
ako bi
Ġe me
Ġsi ye
tsha t
ng oku
q um
re d
t ro
Ġwa tsho
Ġf rom
! âĢĿ
ĠO ko
sebenz isana
ĠTra in
Ġuku qonda
Ġama thathu
ma ma
zuku lwana
Ġlu ya
rha fu
Ġ iso
ing s
ĠF i
Ġwa kwa
gu e
ou th
d eni
go zi
c ra
an jalo
ty elela
ĠUni versity
Ġinga kumbi
N ew
Ng oko
khethi weyo
Ġzi za
tya mbo
bhe ja
Ġe fana
Ġku hlala
" ,
gx ina
yste m
j u
Ġ x
Ġbe zi
man ani
Ġne ent
tsha ba
ini ke
G rike
li phi
khu tshwa
Ġna ko
201 5
Ġizin dlu
Ġka mva
ĠL ight
Ġku bandakanya
W e
g er
E s
Ġnga ye
he tha
su kela
Ġwe e
Fa cebook
ban j
Ġ 000
sel ula
ba l
K e
i zi
Ġlwe si
Ġelung ileyo
l li
se tyhini
yi weyo
g xo
ko lweni
es ter
Ġsi zi
Ġma li
Ġma ka
vela phi
r hu
w on
Ġna le
ĠA banye
ĠY ork
Ġda ting
A R
Ġku si
Ġa bu
Ġya bantu
Ġey enza
m l
ba lo
kh en
ci a
ongezel elweyo
un a
ko kh
tha mo
Ġen inzi
rl s
Ġba ben
ri d
sh in
qo lo
phila yo
Ġne zinto
Ġ phi
r m
el ani
IS A
banda kanye
Ġung um
bo mvu
man qaku
kw angoku
es h
Ġaba dala
ch ine
ung qu
Z ulu
in n
Ġo zi
Ġkun a
funyan wa
lu phi
ĠK W
Ġi y
p es
ve mba
hlazi ywa
ĠP ha
an k
ts al
ILE YO
kh umba
4 7
zin yo
He bhere
Pre vious
ho w
es a
Ma teyu
ces s
S u
qa m
Ġem zimbeni
h ulumente
Ġu li
Ġe so
Ġzi i
hla leni
Ġnge thuba
. ,
ba bini
s ti
Ġi hlabathi
e m
ĠSa seM
thembe kileyo
ĠSaseM andarin
s iseko
ĠIsiS lo
Ġ ra
Ġo ya
di jithali
Ġaba sebenzi
ye r
Ġwa wu
- -
si mi
Ġph antse
pan ish
Ġe ye
ĠZ onke
Ġ tra
Ġya lo
Ġzoku hamba
EL O
mfa zwe
thand e
ĠiN kosi
Ġn qaku
Ġin yaniso
ĠB est
Ġndi yi
zele ka
Ġbaka Sirayeli
4 6
Ġza bantu
Ġaka zange
ĠA fri
ĠUni ted
thanda za
ungqu thela
el isa
Ġuku thatha
bu hlungu
bon i
Ġsa m
cha zwe
Ġint liziyo
4 8
Ġu hambo
ro r
Ġowa ye
P HA
Ġ ona
zi le
ana m
E ku
g qu
s eleyo
Ġe ba
Ġngoku fanelekileyo
ĠN oko
xho ba
ba ck
thand ana
Ġa c
gqi be
Ġ2 8
Ġm ini
hl weni
Ġu lawulo
qwen ela
ime yile
ã Ĥ
Ġ Ã
men ts
enze ke
ĠIsi D
u be
T y
eng o
la yis
Ġezi qhelekileyo
k er
Ġu lwimi
ph one
ĠU Thixo
g us
wo rk
Ġkun zima
sa zi
Ġz is
Ġlika Thixo
ĠW eb
Mo ses
Ġa mehlo
Ġkuba kho
el u
ra tes
Ġka bini
S h
âĢ ĺ
eb ru
K O
k y
Ġ go
Ġnga mandla
ĠuM o
Y univesithi
y ena
Ġkwi zinto
ogra phy
fum an
Ġkwel inye
di tyan
Ġama waka
dlu lis
Ama zon
Ġo za
jeng e
a u
Ġn ani
Ġku la
Ġkw isa
gas ti
E D
Ġya ku
hu ma
Ġku M
sta gram
ĠNga phandle
ke thi
seben ze
ced isa
ph eli
Ġ bun
Ġez isi
Ġeng e
Ġkaku bi
ĠO lu
pha thwa
ra m
n t
ma r
ph an
Ġama lungu
fund iso
ĠSlo t
ma l
ma tshini
Ġaba zali
su sa
ĠeM zantsi
ĠK h
Ġubun gqina
Ġngeen dlela
Ġi ba
Ġi mpahla
bu l
N d
x we
er al
Ġngoku zenzekelayo
n y
ri es
co in
d ana
Ġe kha
lu e
Ġna bani
Ġeku pheleni
thwa lo
o bu
Ġel and
phaza m
Ġs onke
Ġko bu
ĠMo bile
B e
Ġe t
Ġyo ur
Ġm sebenzi
ce bisa
tor s
Ġnge zinto
fun yen
gc ono
eka yo
Ġlwa bo
ĠIsiS erbi
qond iso
Ġle e
d ish
Ġkun e
Ġs ing
la pha
ĠF or
vi d
lu s
ch nolo
ĠBon isa
Z E
Ġama qela
N C
Ġu tsho
Ġku zi
ĠIsi L
fa zwe
Ġla yo
ci phe
i in
Ġya mandla
chapha zela
Ġye hlabathi
ise mba
Ġeli zayo
qinise kiso
lel eni
catshu lwa
li zi
ts ing
fa yili
Ġen ze
Ġza zi
Ġkw enye
Ġya zo
uro pe
Ġsi te
Ġi zandla
diban o
s enza
Ġaba zalwana
vi l
hlanga be
p ress
g s
F i
Ġyoku hlala
ren tshi
tsing iselo
Ġng on
qhele kanga
, "
hla lo
Ge or
se fu
Ġz anga
ĠP re
kun jalo
uku ba
Ġsi yi
ĠE zinye
ĠC ar
isetyenz iswa
kokh eli
tu s
lungis elelo
Ġnga wo
ĠE nye
vi a
ĠYe hlabathi
Ġng elo
thanda zo
Ġes andleni
Ġiing u
las s
Micro soft
n twana
Ġnga manye
anga lisayo
a mp
s ine
Ph one
Ġi bi
ĠH igh
yd ro
fi li
c or
thele kiswa
l eli
yi m
ĠIsi Qu
Ġ gu
kwen ziwa
Ġizi mvo
Ġ2 7
9 8
ph un
p or
Z a
Ĥ ¬
k noloji
6 6
Ġngoku lula
Ġi video
wa yo
ĠA l
uba i
Ġsi ze
Ġnjenge si
ĠE ng
mp ela
Ġ @
Ġzi in
fu phi
Ġu Pawulos
ĠIsi B
ĠSi ya
ĠR i
nge kho
Ġimi thetho
thiwe khi
Ġukwen zela
Ġeme hlweni
bing eleli
Ġndi ku
ling o
z enz
el ung
qu lelo
lumini um
x webhu
Ġum phefumlo
tho bela
Ġeku funeka
Ġne zo
ta la
ĠZ a
Ġkun yaka
xa b
Ġkwin kqubo
A T
tha thi
bh en
kto bha
Ġin cwadi
Ġ2 6
k onge
Ġkwe zinto
Ġlwe thu
cac isa
tes tosterone
khulule kile
ing eleli
ĠK or
w ona
y weni
ba thi
th ango
Ġy int
Ġlwa se
Ġu phawu
th in
a la
ent ley
anu wari
O R
Ġngoku cacileyo
gi a
ku lung
en daba
Ġyo M
Ġiin cwadi
vel isi
ĠG u
ef s
Ġama Ngqina
hl oni
sin ceda
ĠD ating
an ce
Ġu kholo
si hlanu
Ġm veliso
bo dy
hla mbulu
mbe wu
t si
Ġng cono
Ġun yango
ur k
xha m
Ġu rhulumente
xo ko
ĠV i
Ġu y
Ġisi zathu
tsh iswa
ulu la
Ġezi zi
ban a
Ġel ina
Ġo l
vel iswa
Ġeza ma
UN YE
w onke
bu ze
ta file
Ġuku thenga
te c
ish wa
chu a
K ho
bo ka
Ka pa
Ġuku bonisa
âĢĿ ,
Ġkuma zwe
I Z
un e
bha lwe
Ġn ange
dla le
Ġayi kho
ĠIsiT s
Ġ )
Ġi ka
Ġben ga
i khaya
l ani
jong ana
Ġu lwa
kho kelela
ke d
ĠY enza
vaka lelwa
undo qo
A kukho
Ġ ro
sa ba
o yile
Ġes inga
Ġkuthi wa
Ġva r
Ġe qhelekileyo
mva ka
khan kan
man o
gi tal
ĠUm zekelo
Ġ ty
tsa la
Ġkwe minyaka
gq o
l enze
Ġ2 9
ba i
D o
Y e
Ġngoku kodwa
Ġza zo
Ġu T
Ġezi khoyo
bhi yo
Ġulu ntu
Ġy on
Ġes is
li ma
ile ta
Ġlwe zi
mb ileyo
ĠIsiK i
Ġn cwadi
Ġe thu
sasa zo
ĠSta dium
Ġu cinga
vu ka
ke y
Ġi fowuni
ra y
man tombazana
ji ka
Ġnd andi
zal ise
Ġii mfuno
FUN DA
ang ena
xibel elana
Ġkunge kho
g es
Ġ ono
ini ka
yu li
ĠIsiS wa
vavan ya
Ġelu hlaza
a st
d us
s we
Ġn ceda
Ġzen u
qu le
c ket
shi ye
rou lette
li ver
phaka ma
iseben zise
ganga thweni
Ġu khuseleko
Ġba funa
Ġo kwe
eng um
qh elo
Ġng ona
ĠA d
ra zil
ĠC hi
ar ch
s entla
Ġngum ntu
Ġu E
Ġo ma
Ġo mn
Ġben ze
jikele za
qa ba
Ġyoku gqibela
Ġes ing
Ġez weni
il li
Ġnd ing
htt p
mvaka lelo
ĠZ e
khompyu tha
b s
won ye
k ing
Ġya le
S ele
Ġi bhola
.. ..
Ġkan ti
( );
ter s
papa sh
p in
Ġngoku qhelekileyo
Ġii yure
lo gi
Ġyoku sebenza
Ġnge zantsi
bhi leni
R E
Ġ hi
ĠI bali
yen si
st r
Ġubun cinane
ĠK we
Ġzin oku
KH O
9 6
Ġo funa
ĠW i
ĠKu le
Ġemi bini
9 5
a ku
olo mon
Ġyesi bini
sase C
k ona
Ġu khethe
elo si
Ġlika Yehova
O r
ĠF unda
ebru wari
Ġn ent
G Q
Ġu H
la th
tho mbe
k lasi
Ġe hamba
setyenz iselwa
E B
Ġ ge
Ġe caleni
M A
Ġy ent
Ġii mpahla
fu ma
qond weni
L ung
el s
xa bisa
Ġun di
la te
khu tsh
fo ma
z anga
I L
qu i
lizi yweni
xoko zelo
Ġuku za
un ge
pro pathi
phon on
Ġe Yerusalem
Ġbe e
bra ham
N i
wa zi
us o
Ġii bhonasi
Ġkwen u
khuph iswano
Ġna wo
Ġeli tsha
sebenz iswano
Ġc rypto
is ile
Ġkwa lo
bun gqina
Ġkwi webhusayithi
Ġen cinci
ni kelo
m ileyo
Ġinto mbi
Ġkwa zo
ĠNg okuba
kis ha
Ġngu Thixo
I int
Ġezin gena
qo ph
Ġngu ye
ĠM na
phuhl isa
E x
H D
Ã ¼
kel elwa
Ġkw enziwa
Bhayi bhileni
yan iseka
ĠKwa ku
z elwe
Ġin zuzo
ri an
Ġ5 00
5 00
zi weyo
ka li
Ġ201 2
Ġban i
Ġe T
C y
Ġ tu
f ileyo
Ġsa si
Ġeland elayo
Ġoku lungileyo
ond on
hlas elwa
Ġa phezulu
Ġy ing
to ld
be mi
j elo
ĠK ung
Ge o
4 2
Ã §
Ġu qa
qinise ka
road cast
m y
m eleyo
Ġnj en
vu yo
wn s
a ch
l ondolo
Ġu G
qu qu
Ġaban e
Ġndi m
land s
qulu n
Ġuku phucula
Ġs lot
khu phe
ĠTo p
lung anga
Ġw an
N gu
ba le
ti tshala
el ane
Ġye B
Ġmo ya
ĠUn oku
ka de
Ġben za
bula wa
z eli
Ġn eng
Ġem dlalweni
ĠAn di
a c
z ane
ma lunga
ph elele
Ġi ze
qa thango
Ġngo xa
Ġndi funa
A bantu
7 7
Ġuku nika
gqwe tha
4 3
cac ile
thu ke
wel onke
n kqubo
c ri
f es
Ġu ko
Ġuku fa
mv elo
phathe kayo
r and
Ġe ze
Ġubu so
bang elwa
C C
ĠN i
kan ti
Ġukun ciphisa
t le
ty iswa
end le
Ġth is
ele ko
Ġsi mahla
themb iso
p pa
zi va
Ġa yina
xo wa
Ġu D
is u
Ġum yalelo
min ye
Ġnezi xhobo
Ġuku lawula
ĠN AB
Ġl inga
Ġyi le
yan zel
SE O
Ġum gca
d om
bha pti
Ġngen yanga
K umkani
Ġngoku the
Ġyoku zonwabisa
yan isweni
Li zwi
Ġngona phakade
d lele
q endu
ĠA ir
bala seleyo
Ġnges andla
M P
da s
ĠIsiK ir
on s
kto p
pha la
ĠE yona
K E
M an
Ġukun ceda
lahle kelwa
A ndroid
d one
Ġu bone
ĠE ye
Ġezi fanelekileyo
ng ciphe
ĠF umana
ĠKwa thi
Ġuku va
Ġii fayile
Ġis isombululo
vule kileyo
" ;
N ext
k oku
Ġuku bu
qhu tywa
Ġ} );
Ġye zinto
d s
Ġa ben
ĠA s
Ġaba hlobo
Ġnda wonye
lo w
Ġs hare
chi za
Ġint loko
Ġidi pozithi
si c
tsh isa
pu b
Ġnga linye
Ġe Yurophu
Ġezi balulekileyo
Ġkan cinci
si thathu
ar th
zer bai
Â Ń
Ġi moto
ban inzi
re en
Ġz ange
ĠIn to
4 1
E we
Ġa pp
Ġndi thi
n er
Ġi T
vum i
chas ene
â Ĩ
Ġ pe
Ġu sebenzise
Ġin kqubela
Ġc an
gcin we
Â «
ena ku
bum n
ĠuMo ses
qoph iso
5 5
lindele ke
el wimi
and ula
Ġndi ye
l ana
qin ileyo
ka thi
ko keli
Ġsi ku
Ġna bantwana
Ġngu M
dibene yo
y ang
in to
yi yo
Ġs ine
zo lo
qa kra
seben zini
E C
Ġna mandla
ulu ng
tshu ku
z isi
ang eli
ĠIsi O
Se ptemba
Ġe bizwa
Ġku s
Ġlu n
M veliso
mbona kalo
Ġye fowuni
te mp
fa ma
Ġkuku thi
b ong
Ġkanga ka
Ġuku hlala
hl on
Auto CAD
fi hlo
Ġkunge khona
K A
bha li
thum ele
Ġi khadi
kun ene
lan zi
M elika
Ġi qhosha
Ġin jongo
Si tyhi
Ġku thatha
Ġin xalenye
ng o
201 4
Lu ka
Z O
Ġs el
N A
Ġngo kwen
Ġisi qe
Ġeku sebenz
IN G
Ġha ve
ha i
Ġaba tsha
Ġaban gama
ĠP la
J anuwari
g xa
z an
Ġku mn
mi c
Ġz okuba
mpu ma
u d
Ġ fo
U KU
Ġyo kwenene
ty u
qhu be
tywa la
H o
I F
ï ¼
fund iswa
Ġfu thi
si an
bha lwa
Ġ jo
Ġo se
ĠA nd
xu be
to li
E zi
P C
thaba the
post ile
Ġp la
c ted
Ġin dima
Ġya thi
fu tha
ĠLe d
gc ini
le ji
ma rk
Ġum bala
Ġaman ye
Ġaman yathelo
Ġeban twini
hi ya
Ġeng u
qhubeka yo
ha she
Ġuku tshintsha
n am
Ġwo bu
m ile
Ġizi celo
P ress
Ġza wo
ke the
art in
ĠFa cts
Ġn eli
kho wudi
hen te
d is
ma zi
Ġeli fanelekileyo
dum ileyo
mo ri
Ġuku ngena
Ġngo kwan
C D
Ġesin ye
Ġbuka Thixo
P he
Ġng xaki
fun eko
lan u
Ġku setyenziswa
bhe dlele
Ġkh angela
cur ren
( '
t d
Ġ Ċ
khulu la
tiki ti
chnolo gy
Ġ ver
EL E
uni thi
Ġyen u
âĢ¦ âĢ¦
Ġu p
ĠI M
Ġkwa banye
Ġint anethi
Ġngeli thi
: "
Ġngoku gqithis
ar hente
Ġsa ba
fu the
iseben ze
fili mu
tshuku mo
Ġint lawulo
Ġkom hlaba
Ġkangang okuba
w ina
in oku
en er
yo M
Ġkwi int
ĠMa tshi
ĠLi ve
Ġl ang
Ġama Sirayeli
y int
in k
Ġku kunceda
P hu
ĠIsiMa la
ing o
Ġeli thile
kele kile
tshin tshe
Ku ba
Ii mpawu
sasa za
Ġe G
bing elelo
t se
Ġi the
on ka
Ġs ho
In stagram
AN G
ĠI midlalo
ĠIsi Ngesi
Ġ3 1
Ġngama zwe
4 9
c ele
Ġolu nga
stan bul
kulung wane
T U
mba la
Ġyi mi
Ġba kwazi
sasa zwa
o kanye
Ġe phakamileyo
Ġe khethekileyo
ma shumi
Ġze mi
V A
le kele
ĠI sa
Ġna luphi
Ġin ika
mi ya
va l
Ġl on
ĠIn kqubo
Ð¸ Ð
Ġaba phandi
Ġyin dawo
ch ange
k okuqala
man y
Ġizi fundo
zu zwana
el li
ri e
anam hlanje
lu ncedo
ĠUku n
fanele kile
phula phula
chapha zele
Ġ vi
un tu
ĠHa yi
__ __
Ġngen ye
AN D
dlu layo
oo k
Ġuku velisa
um e
qana wa
cwangc isa
a se
v in
gu lane
jol iswe
b ongo
hlang u
8 8
Ġw ona
bho khwe
funyen we
Ġya ying
jen jalo
Ġi C
bon iswa
ol d
guqu lwa
ĠBi ography
0 9
f ini
Ġi P
fun o
he d
hl we
eshe ya
hlalu tyo
Ġkw ent
Ġz ona
Ġk ho
tywa yo
Ġuku qala
ca ma
Ġkwa wo
Ġne za
ta beni
Ġii m
Ġesi kolweni
N konzo
m thethweni
Ġu R
Ġa kwa
Ġwen u
yin yaniso
Ġuma tshini
Ġu thetha
un t
kan e
Ġne xesha
v d
ty ana
Ġwe mi
khu lisa
sta tion
Ġngokwan eleyo
Ġu yise
Ġbe en
bhe di
Oku landelayo
Ġn xa
ĠRe view
hlazi ya
Kwa ye
s te
Ġuku dala
In dawo
T es
z iswa
m hlophe
O T
kh ange
M puma
Ġngoku zi
ĠM usa
phel isa
qhe ke
0 5
si ko
Ġuku khusela
ĠU bun
Ġesi khulu
lingan iswa
Ġebu suku
tsha ta
thwa la
ĠLe a
andu lo
qh el
khi qi
done sia
ĠO mnye
zerbai jani
E nye
kwa bo
Ġezin cinci
Ġom hle
Ġkw angaphambili
H LA
Ġku bonisa
land ele
xha swa
ĠUn inzi
i lo
Ġsi funa
Rom an
Ã ¶
Ġe zulwini
kho lwa
Ġeya hlukileyo
jikele zayo
Ġku bona
ra w
Ġn doda
Ġku sen
Ġbe sithi
s sa
ca phu
ĠP e
ĠI t
mi ti
isi thi
ĠNga phezu
ceta te
Ġk ha
Ġa yo
Ġyo luntu
ro a
ĠY onke
gu bo
Mo re
Ġaka yi
cho ol
liver e
p ri
u ma
Ġkwi ing
ĠMa chine
for m
ĠNew s
Ġi fayile
t en
Ġaba bini
ku misa
za ku
k en
Ġne z
Ġngo lu
ter oid
W indows
se kelwe
phath elele
ĠY OKU
V C
Ġw okuba
Ġ get
Ġu thathe
U A
e chua
p las
ĠI zinto
kho boka
ĠC or
bum e
amu weli
Ġe the
or ld
Ġeli hle
tur n
D L
Ġuku khangela
ĠU L
Ġma si
Ġu qinise
Ġum tshato
Ġnga ko
Ġkwi cala
elung elo
un u
ty elwa
Ġizi lwanyana
Ġolu khulu
Ġ> >
Ĭ Ĥ
Ġo kwa
Ġneen dlela
thuke zi
8 6
Ġ veki
Ġum dlali
yi ki
Ġyoku gcina
oni c
ĠIsiA zerbaijani
rom o
0 7
Ġi qabane
manga lisayo
: ?
J onga
ĠI bhonasi
Th eng
5 6
Ġuku beka
phum la
mail to
D XO
F www
F finder
P er
a https
â ĬĤ
F e
N jengoko
Ġ phandle
Ġuku jonga
Ġen om
Ġnjeng oku
Ġubu khulu
Ġam ane
Ġi khaya
ĠG cina
oo d
Ġubun gakanani
A d
Y enza
Ġnga phaya
v is
ka tha
Un told
hlangabe zana
Ġw ill
Ġesin oku
ĠIsiQu echua
el elana
va le
9 7
t is
ng eni
g an
khi we
Ġ4 0
ko mfa
theng e
qakra za
, âĢĻ
ban o
ĠL td
Ġli be
mo ti
cha in
Isa ya
Ġu bani
j oni
Ġu sa
ha li
ra de
s inga
Ġe khoyo
Ġen cinane
tho tho
ic an
konge zelela
Ġi lungelo
kosi kazi
Ã Ń
Ġo lo
ile r
ĠIsi Ba
khu ba
Ġd is
bu rg
ĠC ent
Ġna wuphi
iso loko
hl elo
po wder
In kqubo
Y akobi
Ġba hlala
co l
qhu bela
Ġngokun jalo
D es
ze ch
Ġzoku n
yame zela
Ġkanga kanani
tshin tshwa
kisa yo
el in
Ġem an
Ġem sebenzini
ĠY oku
Ð° Ð
m es
ga log
rd s
H T
wa yini
q ungquthela
is ti
ĠA mer
ð Ł
lu si
li ty
Ġii foto
In donesia
Ġey enziwe
um p
Ġun i
i ti
Ġaba landeli
AN C
x wa
Ġezi lishumi
ĠIsi Lu
ca lu
ci ma
mbon iso
rekho di
0 6
Ġwa wa
Ġzi quka
Ġezin o
qi qo
v ing
ti p
la li
Ġkom nye
Da tshi
Ġingq ondo
ĠIsiSwa hili
di za
Ġkun ceda
Ġun a
Ġndi zi
Ġu Si
Ġs t
re am
ĠO kanye
Ġha s
Ġya wo
Ġimi gaqo
Ġ phaya
âĢ ĵ
hlu lo
N da
bo lic
Ġin ter
Ġu mbuzo
Ġi yi
tsal ane
Ġm dlalo
shi p
Gen esis
U ya
Ã ¡
yi we
ta ly
Hla bathi
Ġo lung
Ġs h
ona kalo
Ġu hla
Ġna manye
GQ IB
lo ad
am es
qa bileyo
fu l
Ġ... ]
Ġi bu
ĠI m
xi co
Ba wo
ĠD o
qh inga
ly the
Ġnang oko
d an
Ġin yama
er ika
bon iso
Ġbon us
S t
Ġku sebenza
Ġun ike
Ġb eli
zulu lwazi
Le vi
kr ini
b eli
Ġiin jongo
phendu le
ku ku
ta in
Ġla kwa
ĠEli tsha
? âĢĶ
Ġ j
Ġn ini
om nye
ce p
qi thi
bon iswe
cha zwa
l ango
Ġa khawunti
Ġbe be
Ġw ani
pes enti
Geor gia
p li
Ġe e
kh noloji
ban go
Ġnge mpumelelo
ĠRe al
q we
da l
Ġgi rls
Ġi gazi
Ġngoku bhekis
qa tha
khusele kile
Ġuma hluko
ti fike
Ġma zwi
coko la
jol ise
F ebruwari
j enga
Ġu qale
Ġin k
Ng enxa
) :
0 1
x enye
in ya
th yl
ong wa
ar y
c cess
Ġla wo
Ġso ftware
Ġung u
T attoo
i a
s y
Ġnase ku
Ġe phambili
Ġku tsho
hu shu
wa l
kho hlo
Ġle en
f fu
Ġwa ku
u bu
Ġu J
wa bo
Ġin kulu
tu dio
re et
pp er
Ġwa si
Ġem angalisayo
thatha ka
Ġkangang oko
Ġye s
ĠF ran
La wulo
Ġo wen
xhomeke ka
Ġu xolo
an qa
ĠB ill
Fa ro
Ġya kwa
co ma
ru ity
pheli yo
A pp
W ord
Ġu vavanyo
Ġ= =
phun ye
Ġno t
fuma das
Ġubu de
Ġnges ondo
P R
Ñ ı
mb uso
fi l
thetha yo
coce kileyo
t onga
us tra
rm one
ĠI ngaba
Ġs ina
Ġs enze
Ġnd and
Ġukwa kha
( "
K han
Ġwa lo
ĠM hlawumbi
vi li
Ġp re
Ġezili qela
L C
ga zini
lock chain
ba mba
Ġuku bheja
ĠA uto
is iseko
we dish
hl wele
tho le
po t
Ġ" /
Ġaman ani
vaka lisi
âĢĭ âĢĶ
redi t
Ġn ango
Sa thana
Ar c
b re
za me
Mi zekeliso
yenza yo
ty hu
Ġ" /"
ĠIsiT urk
Ġweb site
ol tip
Ġim in
ris t
Ġi hlala
om o
tsh ela
le x
ja x
Ġkum dlalo
cing o
tr ong
Ġ$( ".
Ġshare Text
phe phe
ĠPo wer
ced isi
Ġ ele
Ġezi za
hlo lis
Ġuma ma
Ġu hlala
Ġi bali
Ġe bonakalayo
ha mbi
Ġna kwe
Ġum vuzo
Ġezi mbi
U C
p re
ĠU thi
ini an
bh sayithi
one y
ĠE urope
Ġiin kampani
Ġnoku sebenza
Ġzoku sebenza
Ġp m
ĠKa Yehova
mel wane
ĠB it
Ġno bun
Ġun yaka
Bh ulu
yo lo
Se ction
f eni
ĠI gama
ban ika
ĠU N
ng u
ll s
Q A
ta yile
am s
unga ry
Ġyi yo
ffu ser
F ree
la mano
Ġe mbi
ĠU mntu
ĠC ol
der s
Ġnom hlaba
oma tshini
Ġezama hala
Ġwa yen
kh wen
Ġba li
ĠM ic
ĠL oo
go wuli
ĠBa y
c ti
el d
Ġzoku qala
D u
g ent
en oku
Ġkwi qela
Ġze N
Ġngo M
ono bumba
xi ba
Ġyen dawo
pati al
T E
ca wa
ul l
k ini
tsha tyala
Ġsa yo
5 8
s wele
um o
Ġum yalezo
ta ble
Ġesi phezulu
kun kuma
end leko
c ent
is elwe
Ġuku sa
zu ko
Ġbo bu
EN ZA
khumbu le
0 8
Ġe P
ko lelo
hu thukezi
Ġsi m
ph ulu
se se
Ġwa li
Mo ya
ĠIsiP huthukezi
th on
Ġkwa manzi
ĠN ext
Ġsoku qala
onwa bo
n yaka
Ġngo Lwe
Ġku dala
yi la
Ġkwa kukho
re ole
ĠS tra
ĠF o
lin de
ĠMe yi
Ñ Į
Ġk hu
thandwa yo
7 6
f ra
th ulu
ĠK hu
pe yin
hluk ana
R I
m ka
Ġ http
le si
phuhl iswa
3 00
Â »
Ġkwa manye
ĠK hawu
me dia
yan zele
ĠBa ya
in ter
ĠI xesha
Ġama Kristu
bun g
Ġnen to
ili p
ku hlaleni
Ġku lungile
Ġkw ang
hla thi
Ġkwe datha
thu tho
V a
ĠNga loo
I zinto
b eng
Ġizi cwangciso
Si ya
Ġf e
Ġku funa
Ġum zi
Ġ gqitha
tha thwe
vi ce
kon wa
khi lo
IS EK
el ise
in ise
Ġe funa
Ġa wun
yi fumana
Ġna mnye
phe ka
Ġbe za
qon di
Ġan oku
V D
m vume
Ġze zo
Se be
vaka lisa
bandakan ywa
roa tia
oku mkani
ĠA pha
ur key
h we
lo r
ro g
ĠâĢ Ķ
mo zulu
In ter
ĠIi mpawu
or way
Ġzin e
Sityhi lelo
Ġimi yalelo
h y
Ġuku ng
fun wa
Ġen jalo
Ġy eng
Ġun ayo
AN I
t we
Ġu kwandisa
Ġngokwa kho
dili ya
ngciphe ko
s ana
li ck
be kwa
kra inian
sond ela
Ġy enziwe
Ġm inyaka
ch an
T ha
l one
p il
Ġ gama
Ġu funde
da pter
Ġyoku fumana
Ġizi gqibo
andi pha
lule ka
Ġok okuqala
C on
is elwano
qa phela
Ġoku khulu
lahle ka
bonakali yo
n di
y us
Ġne zin
Ġezin zima
Ġnen dawo
phucu lwa
201 3
IM I
Chi ppa
7 8
i mi
Ġi gumbi
Ġnge enxa
ĠE zemidlalo
bha lisa
t ana
Ġi thetha
van yo
Ġaba se
Ġsa bo
ongo ma
qong qo
W i
Â ł
è ª
com e
So cial
ĠMic ro
K un
ban de
Ġubu dlelwane
J uni
Q IN
èª ŀ
is s
khu mbuzo
guqu ka
SI G
va la
Ġm u
Ġna ziphi
Ġezin ge
ĠSer ver
Ġ qu
ra s
pro gram
IN dumiso
ms anqa
tyi we
vus elela
Ġn kqu
Ġm g
me si
Ġeng cono
Ġumb on
b in
an isi
Ġe phelileyo
Ġama lungelo
201 2
Ġlwa m
ĠQ u
mbulu la
Q hagamshelana
b we
phulaphu li
Ġkwii meko
Ġyoku thengisa
Uku ze
cha ze
chi the
Ġa ll
kwen ze
fu ba
Ġolu nye
cwe cwe
ro ss
Ġngase mva
ona te
Ġama hlanu
ĠP ri
Ġeya dlulayo
Gen eral
' ...
Ġu L
Ġkwi phepha
vi e
Ġubu chule
jikele ze
Ġi bhokisi
Ġba fumane
Ġka Sirayeli
ĠJ ulayi
ĠS outh
Ġndi be
jikele zo
A si
Ġwoku gqibela
D ubai
kh ondo
F umana
F docid
li mi
Ma tshi
zu za
na tional
Ġuyi lo
AM A
U LA
Ġi webhusayithi
kh wela
kho sini
Ġba bu
Ġya y
khulu lwa
Ġw on
Ġkan jalo
ĠAfri ca
Cy ril
Ġizi bonelelo
ĠIn kampani
ge si
x es
ha t
Ġye moto
xa ke
yan o
ster oid
Ġmi dlalo
manga liso
P e
R A
Ġa kana
Ġuku faka
Ġkwe N
Ġlwe en
sesi kweni
Ġ https
kh uni
Ġka rhulumente
Ġsi mele
us in
Ġaku yi
Ġend leleni
chaphazele kayo
. [
s eni
el inye
Ġyoku zi
ĠF ruity
Ġngama xesha
ĠIsiC reole
s ondo
Ġe suka
se arch
zo dwa
Ġzi hlala
ĠW o
ĠNgoku qinisekileyo
hamb eni
Ġemi thathu
w anda
Ġe thetha
Ġum sebenzisi
kha si
Ġli phela
kun i
cre en
Ġni ya
gxinin isa
Ġty pe
Ġimi zuzu
dlu le
Ġum ele
Ġze hlabathi
Uku n
ĠZ o
R us
ĠIsi Xhosa
ĠEku beni
g wa
theng wa
shu wa
G o
Ġi bhetri
Ġuku khula
sa yi
Ġeng qondweni
Ar meni
Ġ ×
Ġsi ba
:: ::
B ho
Ñ ĭ
le ki
mb isana
anda thu
K win
c tor
da st
Ġum thombo
ĠK an
Ðµ Ð
m ing
wa bhi
Ġo thile
Ġka M
lin da
d on
Ġuku thanda
Ġkw ela
man qanaba
gqi tywa
Ġuya ku
pr eli
ĠLea gue
d anga
Ġwe za
j eni
ĠU mn
ĠY ehova
ol ish
Ġes ina
wn load
sti tu
Ġku ze
Ġin yanga
sh oni
O ps
Ġe sebenzayo
yo ka
pha mbu
ina ku
Ġebo mvu
Ġ roulette
Ġyo mn
Ġikho wudi
Ġu Z
Ġe phantsi
Ġuku dibanisa
Ġum da
Ġnge tyala
ĠL ula
Vi diyo
Ġâ Ĥ¬
THI XO
GQIB ELA
Ġu sapho
sebenz ela
ji kelo
ĠI ya
Ġnd ingu
qun unu
s weni
u ri
is m
mp o
Ġelin cinci
I gama
Ġbu bu
gam eni
Ġumb ono
lli on
Ġi mbali
ya tyambo
re at
fa ki
Ġeza zi
Ġ isebenzisa
la hla
xha pha
ĠPa y
u ra
ĠY ena
Ġeng um
themb isa
Ġum culo
Ġel ishumi
ye ki
Ġye C
khe thwa
ĠC up
Ġli za
Ġlo mntu
hlu ke
engu bo
e za
p on
Ġin qaku
ti fi
Ġuku cinga
Ġna lapho
Ġnga sentla
Ġl ona
kw anda
ON A
mbha lo
Eng lish
an ish
ze kile
Ġin tetho
Ġz ent
Ġno lwazi
ĠNg om
Ġngen jongo
Ġbaka Thixo
EK A
la bo
Ġe bi
pha kan
Ġaba funa
Ġiin wele
Ġisi xeko
Ġndi cinga
Ġis iseko
ĠEku gqibeleni
T witter
y univesithi
20 20
tsha yina
phawu la
ĠIsiChi tonga
le ss
do la
ĠH D
est ile
wen d
Ġnxa mnye
ĠI P
ro ma
qu bu
F il
W eb
Ġs teroid
ĠE arth
ve d
Ġ3 2
5 7
N jeng
ka lisa
ĠP er
ĠNga manye
Armeni a
G O
ĠI mali
Ġba fumana
ĠG en
ana da
co de
khu le
Ġu gqirha
se ts
Ġin a
t ishi
Ġku mntu
Ġngoku tsha
Ġnjeng en
in dawo
Ġkwi gumbi
phazam iseka
Ġ pha
Ġi funa
Ġl is
gu bung
Ġumb ingeleli
dolo ph
ĠPro du
g ne
en s
Ġu bona
ĠU hlobo
ĠIsi Na
Ġiin dwendwe
ck er
Ġuku li
Ġbo babini
eso tho
lon yeni
ustra lia
yame kela
ze ki
hi te
Ġiin yanga
bh eli
ight ener
ĠKor inte
so le
ĠH o
qa mbi
Ġem o
ĠD C
yin xalenye
Ġey enziwa
Zi ko
ĠSta te
Seben za
c to
Ġku bangela
bon ga
pa in
gwe ba
mbha li
ĠKh angela
B he
Q H
Ġe mbalwa
hlo lo
yu lo
thand ekayo
Ġyin xalenye
Ġfa l
ĠNgu bani
J ulayi
m ana
ty eni
Ġnge mali
y unithi
Ġama xabiso
in es
ts undu
ho lide
bu gcisa
ra bhu
xi be
ord an
Ġn u
Ġku hamba
Ġko onyana
vu tha
ĠG IS
vum elana
Ġsele ction
Rom ania
Ġb eng
ĠJ uni
kom khulu
Ġu jonge
Ġi khonkco
Ġse thu
Ġiint langa
ĠUKU ZE
inn ish
W O
u g
Ġs isa
ĠN et
mb ho
Ġezi phathekayo
vi wo
Ġu ty
Ġsi thi
Ġnge veki
Ġloku gqibela
Ġben di
thun yelwe
V en
k la
ban d
ĠM i
ong i
us ani
alo ku
yste ms
G ra
Ġzi landelayo
Ġca p
Ġre al
D isemba
W IMI
Ġi hamba
Ġla li
Ġent liziyweni
Ġâ Ĩ
Ġi langa
Ġeza yo
hluka hlukeneyo
Ġu suku
Ġe khuselekileyo
Ġel ise
pp ing
Ġezint lanu
Ġuku bonelela
ĠI I
Ġndi ba
Re f
foma thi
b li
Ġba kwa
ben ga
ca ca
qes ho
Ġwom ntu
mv eli
undo wns
k es
se t
Ġo p
ĠU kongeza
Ġka Yesu
Ġnoku nga
Ġc hi
Jo hn
Esi qhelekileyo
ĠP lus
mbe ko
lin dlela
phanda ba
la lo
Ġl ing
B entley
ga l
Ġuku thengisa
phe phandaba
Ġkwizi ko
Ġye dwa
ce tyiswa
Ġwe N
Ġii lwimi
Eli ya
si we
si kelelo
yi bhile
tha mb
Ġle N
cu li
pe dia
khus elo
hlawu lwa
I xesha
Ġkwa le
Ġw andi
Ġesi ya
Ġ$ .
Ġu su
si mini
Ġo be
Ġo lwa
Ġkun ika
Ġna liphi
Ġlo mn
Ġes isi
Ġnom ntu
rekho da
E yona
U Ma
k re
Ġe K
Ġng eng
ani yeli
" );
Ġ qha
Ġe bonisa
Ġo li
ze mpilo
ĠN amhlanje
ulung ile
n ing
Ġko o
at l
tal k
Es enziwe
Ġku kwazi
ph elela
Ġo thi
enze kayo
rh ulu
indo w
phaza misa
' );
Ġa fana
tu res
Ġem futshane
st onia
lungelel anisa
le be
ĠN okuba
back lin
N yana
à ¥
Ġi pa
Ġyen dalo
ig eri
Ġkwen dawo
Ġuku zama
Ġkwi candelo
Ġbe st
hl iso
Ġi themba
ĠI B
Ġngo bun
ĠB onke
Ġlu ncedo
ĠF ilip
A nd
O n
d ong
ku be
Ġi bandla
Ġum va
Ġli xesha
soft ware
Ġisetyenz iswe
kwa ye
vu lindlela
Ġkwin to
lang ano
usin ess
m elo
x ela
Ġe gameni
ti es
pro pati
ul ga
Ġfal se
g lasi
i m
Ġi Ma
Ġe r
Ġle zo
Ġez enziwe
for ma
Ġcrypto curren
si phi
ro p
Ġeku thiwa
Ar on
os patial
Ġyezi gidi
i ca
u zo
Ġin o
Ġun xibelelwano
Ġizi ganeko
vaka la
6 7
Ġku so
si xhenxe
Ġezi zodwa
khilo mitha
C J
r ine
Ġku xhomekeke
Ġku thelekiswa
L untu
is eli
Ġezin xulumene
Ġzo bun
Ġi khona
kho kela
ben za
Ġum thamo
va k
co iler
khan yisa
Ġkuyi mfuneko
ĠIsiF rentshi
khwen kwe
a jax
Ġuku lungiswa
to oltip
Ġm khulu
Ġimp ilo
tshabala lisa
( {
d lw
Ġe Bhayibhileni
de Social
thu ma
Ġnoku setyenziswa
Ġ} ,
L at
da le
de d
ĠUm sebenzi
C L
Ġuku sukela
Ġama zinyo
qinise kile
pi onate
ĠYa se
shici lela
gus ha
si tho
hu atl
AN A
chu kumisa
Ġway enga
me mori
Ġiin didi
st ra
Chi efs
Å Ł
M L
U D
k si
Ġin kcazelo
Ġwe zi
ĠNG OL
v ana
Ġm s
ĠW ena
kw ane
eri es
ĠPar k
ĠUL WIMI
Ġu khetha
ro wn
Ġza lo
qh wa
Li thu
Ġyeen daba
tha msanqa
S S
X ES
Ġ ci
ĠG er
mba tho
fi er
Ġel un
ĠSi te
ĠIS panish
z welonke
Ġi liso
ng cwa
Ġwe zo
Ġ3 5
LE D
phi lileyo
n ceda
Ġ ve
Ġ res
Ġa the
Ġma hala
Ġb el
Ġes enza
Ġebu sweni
Ġyanga phandle
veni a
E dlulileyo
Ġuku hlawula
Ġkw elanga
ĠA bo
Ġse zi
profe to
Q L
Ġi kwa
Ġi bhe
Ġku futshane
Ġkwa mandla
ĠS I
Ġong um
chweph esha
Ġuku si
Ġye Si
ĠA ka
mn ika
cwa dana
ul d
ying ozi
v elo
ph en
Ġwa bona
Ġum hlobo
Ġngoku chanekileyo
ĠNGOL UNYE
in da
un di
ĠIsi Bhulu
te xt
tshatyala liswa
A P
E zinye
Ġkw enziwe
ĠA si
Ġko lu
pe di
Ġyase S
Ġumb ane
xh on
we thu
Ġum xokozelo
Ġm y
ĠMa khe
as sets
8 7
l m
v SIG
lo la
et nam
Ġez antsi
bani a
khutsh we
' .
le d
yo bisi
da li
Ġama polisa
Ġkang ange
kh elo
ca mbu
ĠG o
mbo leko
ĠWa za
ĠJ onga
ĠIsiNa huatl
E O
i ta
Nt engiso
Ġkwi veki
ro gen
ni kela
gi c
zela yo
O B
ku khu
be rt
Ġma doda
In kcazo
Seben zisa
ya la
kh wele
Ġin kululeko
hlo lwa
Su per
t ile
Ġi modeli
Ġa kwazi
ban ceda
Ġum lilo
Ġsi kwazi
gwe bi
h hala
ho rmone
Ġezi dlulileyo
Ġezisi xhenxe
Ġwa hlala
ra in
ina l
Ġisi cwangciso
ĠNga ko
dle be
lise ki
is co
lung iso
web site
H E
R ed
p rin
Ġu fake
Ġla bantu
ĠV er
ĠI int
ĠR us
und leni
Ġa thile
ka m
shin tshela
th ung
Ġisi fo
ent langa
sem gangathweni
F A
Ġ mb
kh undleni
ri de
mba bwe
Ġis in
zama hala
ĠPo st
ĠIsiA l
Ġiin ketho
yan isekileyo
Ku le
ere miya
era tor
Cyril lic
U bun
u te
Ġku fika
ĠU na
Ġkwa se
Ġsi zathu
ĠE N
ĠT ha
ĠF e
8 5
y iso
Ä °
kho leji
ĠU A
vi mba
Ġngen ene
Ġnen kqubo
Ġben u
Ġili fa
Zi bhalo
Lithu ania
XES HA
R O
Ã £
th anga
Ġeli phantsi
ĠD lala
Ġn do
Ġkw ana
Ġy eli
ty ha
âĢĿ .
mer ce
Ġkunge kudala
z enzo
ĠI mveliso
xha tsha
isetyenz iselwa
No vemba
bhenge zo
A gasti
B et
v isi
Â ®
Ñ ĩ
Ġ ch
ĠS te
Ġnge gama
car bon
a te
si le
ka ra
Ġs he
Ġna phi
ce bisi
enz uzo
k iswe
Ġu kho
Ġe L
Ġye zona
vum ba
Ġisa khiwo
ĠEn kosi
B on
ka mva
khatha liseki
ĠâĨ Ĵ
m kele
be t
Ġl w
mo ve
qinise kiswa
Ġimp umelelo
manga lisa
9 4
o rea
da y
Ġyo bun
Ġyo lawulo
Ġyo mntu
fi h
In to
cu l
c ango
Ġ \
Ġn y
Ġe funekayo
Ġku li
ĠIsi Armenia
xo xa
kwen yani
Ġe we
vi rus
ĠIsiC roatia
ĠIsiP olish
ĠIsiH ungary
? âĢĻ
G B
Ġuku khetha
ĠK um
land elelana
ĠJ i
ĠIsiF innish
di pozithi
ĠU ze
Ġno ba
Ġse en
ĠIsiN orway
ĠIsi Romania
Ġma ba
sind isa
ĠIsiSlo venia
Phe zulu
K an
Ġkw anga
Ġba si
ĠIsi Jamani
ĠIsi Datshi
Ġaba ye
Ġnom sebenzi
lis tat
ĠIsiK orea
no w
Ġezint andathu
ĠIsi Grike
Ġca r
qeqes h
ĠIsiAl bania
S ha
g or
di es
ĠU kwenza
tha th
pha hla
do r
Ġem inyaka
Ġneen dawo
U Yehova
Ġwe en
qes hi
ĠIsiS wedish
IB C
ĠIsiD anish
ĠIsi tshayina
ber g
m us
lu ka
Ġsi xhobo
ĠL ine
hlwe mpu
Ġu xinzelelo
ĠU kongezelela
Ġye sa
mbo li
diban ise
ĠDe sign
We bhu
S ta
mb in
ĠA pp
Ġngen to
ĠIn coko
Ġ201 0
ĠTra vel
ĠIsiSlo vak
f estile
Ġo kwangoku
Ġaba khonzi
pho lileyo
Ma t
Ġeya ziwa
UM X
Ġnes a
phume za
ĠIsiU krainian
mi fanekiso
Ġz enziwe
ĠW orld
xi la
ĠIsiSerbi a
ma sipala
Ġl ingu
Ġesi yi
ĠH ol
ver y
lungelel an
l tra
Ġi ko
Ġku luhlu
ĠIsi Rashiya
Ġnoku zi
ĠIsiC zech
ĠIN guqulelo
Ġakun jalo
ĠIsiE stonia
Ġu kongeza
Ġo w
Yo u
Ġulu vo
ĠS ystem
bon eleli
5 2
C i
ku la
Ġeli futshane
r wanda
ang i
al y
Vi etnam
yd ra
rho x
ĠuP etros
um ela
Ġolu tsha
inya rwanda
Ġku sasa
thi li
Ġkom sebenzi
e bu
Ġku kunika
ca s
Ġno kwa
ĠW am
theth eli
H L
al th
EL EK
dile si
H ar
H olo
Ġe yin
Ġuku lungiselela
se d
ĠIsi Lithuania
ĠG ames
ĠNo vemba
ĠeN ew
Ġu hamba
pha wule
Ġyoku hamba
ĠO ktobha
Ġngokwa khe
G PS
t ela
en o
la ma
Ġko M
Ġza kwa
ĠeM puma
Kh angela
Ã£ o
Ġu qhagamsh
ĠIsi xhobo
Ġz enza
ant wana
EN ZI
rou p
I ngaba
ĠIsi Georgia
201 1
kun dleni
qin isa
iseben zayo
bhe ka
Ġt rans
Ġsi bone
Ġz eng
sin da
Ġ201 1
lum kiso
O D
vu yela
Ġis antya
Ġneen konzo
Ġuza ku
AB A
Ġzon yango
' )
ho tele
Ġlo M
Ġle zi
Ġiza khiwo
Ġemn yama
a ka
Ġzi yi
Ġyoku sebenzisa
Ġli ye
Ġlwa bantu
ili ga
bhekis ela
e x
Ġngoku ng
sa yo
ci ki
khawuleza yo
An di
ĠIsiTurk ish
0 2
W al
Ġ jonga
ph esheya
thi leyo
ol l
Ġkwin dlu
ĠV al
ying e
Ġyanga phambili
Ġekha tywayo
Ġku hlangana
Ġnjeng ento
ge ment
Ġidi lesi
Ġezi fanayo
ĠIsi Ga
fum ani
Yo sefu
Word Press
di weyo
Ġesi tsha
Ġyi m
qinise kisi
Ġsu ccess
hlas ela
Ġu hl
F o
Z e
en eni
Ġku fa
ĠM ana
lungis elele
Ġnanga kumbi
sesi Cyrillic
khiqi zo
rh umo
ĠIsiK inyarwanda
ĠTo wn
li li
Ġwa bhala
ĠA M
Ġngo kwenza
Ġse r
go du
IN I
Ġuthe the
long weni
gas y
Ġku qhubeka
Ġma bini
Ġnee mfuno
themb eka
dityan iswa
T ube
a luminium
bu ko
Ġkwe mali
s ungu
Ġi khe
ma la
Ġma r
Ġkum mandla
guqu li
Ġese kelwe
Ġngokugqithis eleyo
Ġu hlanga
Ġo ut
Ġngo o
bun gozi
S P
ba ll
re y
Ġyoku nga
man yathelo
Ġaman cinci
ĠCo in
Ġizin ga
feze kisa
Ġkun gena
ĠJa ck
Z onke
Ġ pho
Ġu tata
Ġi Si
si la
Ġuku ku
ĠK us
ĠUku susela
Ġndi ze
Ġif om
I G
y el
y oni
ch onga
ĠIn c
olo liwe
y enze
Ġkw elo
er ing
ĠIsi Japan
hl isa
Ġolu thile
setyenz iswe
ĠuSa thana
cum ent
0 4
ana bolic
ro w
ĠV e
Ġwaye za
a p
m thanda
le ge
Ġo M
Ġisi pho
ĠBa thi
Ca wa
sase Roman
Ġkwang oko
Ġi bonakala
lu tsha
Ġne m
chi thwa
gqib elo
0 3
Ġ van
Ġimi bala
mbu lelo
Ng il
Ġnama doda
Ġre turn
dwe bo
lu b
Ġs pe
Ġezi ku
Ġen a
umi di
ĠMe dia
sion s
Ty pe
R hulumente
Ġyo kwakha
bha si
zu ze
Ġez enza
cula r
Ø §
Ġimi ba
mva vanyo
Ġnda ba
5 1
U luhlu
Ġngo we
Ġno kwenza
In diya
Ġaku thethi
ad y
log y
DL ELA
B ON
U LE
y li
zin e
ĠS h
ange mpela
qong ileyo
sole zwe
er ry
sh ini
Zi mbabwe
Ġwa thetha
ĠN ceda
ta kwabo
lingana yo
ku thanda
Ġwa kha
EN D
fani yo
K W
U thi
er se
mi l
Ġy enze
plas tiki
Ġi Pa
ĠN kosi
ĠIsi Zulu
Ġthe ir
S er
Ġu sebenza
Ġama yeza
fi kile
Ġngoko m
ĠIsiTa galog
9 2
J u
l onwabo
Ġi Phone
Ġku fuphi
dla lwa
Me yi
Fran si
Ġuku ngcakaza
ch el
dum o
qule the
8 4
an zi
Ġn kampani
Ġi gunya
ĠI nga
ĠI minyaka
Ġye M
Ġyo kwa
ĠT hixo
ne y
fanele kanga
xh um
Ġ ri
Ġ hlabathi
Ġen amandla
r ona
Ġkw eng
ĠK win
pil isi
5 3
m elana
on to
Ġku vela
Ġa hlukeneyo
si mahla
qa lo
xo lela
khuph isana
Ġeman zini
? +
I g
h ydro
Ġeli pheleleyo
ĠG oogle
xham la
RE E
ĠBit coin
Ġi A
lo ts
Ġuku thumela
ts hixo
Ġezi bonakalayo
ĠE zamahala
Ġngu Yehova
Ġjo in
Ġcap ture
p g
à ¸
Ġi bonakale
za khiwo
bu lo
Ġl wanga
Ġeli dlulileyo
Ġnaba hlobo
15 0
tsa pp
ok er
lind ela
phunye zwa
wa thi
Ġi K
ph p
ĠSi za
Ġngom nye
ding o
sh wa
Ġnom n
I R
sa bela
ri ty
Ġno A
Kha ya
QIN ISEK
si zi
vo ca
ĠNge xesha
Khan ya
Ġ ?
tha tya
Ġaba hlali
wen xa
Ġle B
bona yo
Ġokun ene
ĠIsiMala gasy
h ana
Ġuku yenza
Ġz entlalo
I A
L wazi
Ġku luntu
li p
Ġo ba
ca de
bon ile
ter i
Ġiing cebiso
Ra w
thele kisa
qula tho
Ġa wo
ĠK ing
Ġeya hlukeneyo
qesh wa
f ord
Ġu fanele
Ġno onyana
bi t
fu yo
Ġiya fumaneka
m ane
el ula
ĠU luhlu
lw ela
tal ente
c lo
Ġba zo
Ġya manzi
de bele
vu lo
Ġkwii veki
AS raw
lo wo
Ġkwi mveliso
Ġyo lwazi
ĠK aloku
Ġisi fundo
Ma la
Nga phandle
ĠIsiTs wana
M B
el son
Ġl ento
Ġm hla
tsh on
pa ce
Ku funeka
ĠIsiSerbi an
C wangc
t ini
Ġ !
Ġin kosi
Ġin ombolo
te in
Ġisi xa
Sa wule
sta tus
qheke za
Ġa cid
ĠI Se
ri o
Ġimi thombo
fund ise
lis ela
Ġ6 0
Ġkun ene
Ġye xesha
Ġye Bhayibhile
ĠA ng
Ġy an
Ġm nye
land o
bang ele
Ġdi e
khulule kileyo
Ġer ror
lo bal
ĠUku khanya
Ġung ene
ĠuN o
Ġawu kwazi
m khulu
Ġ Xhosa
Ġa p
Ġm zi
Ġza ku
pa r
tshin tshi
fer en
layis ha
4 00
Ġ ..
Ġu hlale
ga di
Ġne qela
tu thu
Ġen hle
Ġama shishini
Ġubu kumkani
n xaxheba
Ġn k
Ġu khangele
Ġin yathelo
and lela
Ġwa mbi
mi bala
ĠâĢ ĭ
ĠW in
U LO
Ġum thengi
Ġyoku dlala
Ġse e
Ha yi
Ñģ ÑĤ
papash we
M usa
a uto
ri ve
Ġw ho
Ġloku n
Ġinto mbazana
qwelo moya
C andelo
f fe
k in
Ġe kho
ĠS eries
Ġm ba
ON KE
PS L
Ġengama shumi
g ing
k ri
Ġkwa thiwa
ang u
qam le
pri li
I ileta
d el
Ã ¤
le ct
Ġyoku khangela
gu du
Ġban g
ĠIsiT hai
mal t
is ani
isi pha
ĠEn yanisweni
che wa
ĠâĢĭ âĢĭ
F ort
l ongo
Ġn yanga
en kcukacha
Ġin tsapho
be th
Ġs ha
qo kel
al s
l elweyo
Ġba wo
ang qa
ĠS MS
Ġwo rk
Ġing camango
cro ss
Ġkubalule ke
tifike thi
5 4
Ġ qela
ĠU kwa
Ġnga banye
buyis elwa
P or
U kwa
th eli
Ġi ma
Ġa va
ĠI qela
Ġum lomo
Ġneen kqubo
Ġumn xeba
Ġd es
Ñģ Ðº
ĠSt reet
bong ela
xhatsha zwa
ĠISe pedi
X L
j ulu
r el
er ror
Ġnga manzi
ĠO kokuqala
kamp u
Ġngokwe mi
yeke zo
B roadcast
m uni
ulu lwazi
ben zisa
Ġum thengisi
ĠA gasti
Ġthe y
AN YE
ĠIsiK a
t form
el ishwa
Ġu Kristu
Ġuku phumelela
ri j
ĠE L
Ġ1 50
201 0
fi k
Ġkh ange
Ġwesi thathu
T shayina
U hlobo
g anda
in ceda
th y
Ġi qa
Ġe C
Ġum zalwana
pa ka
pa kisha
Ġngu kumkani
khula yo
B razil
ì ĸ
Ġku lindeleke
yi thanda
er n
ĠU the
Ġna kuba
fun dwa
ĠIzi xhobo
Tes tosterone
inise kisa
Fil isti
Ġe Yiputa
ha tsapp
Ġa zin
lo m
Ġuku wa
Ġuku hambisa
xa m
Ġaba fana
ĠUku suka
Ġizi zathu
ĠCa pe
Ġasi xhenxe
hlangan iswa
stitu te
N or
Ġe kwen
ho lo
Ġint le
gun a
w ani
lu n
ĠU qeqesha
fum ba
fu z
per i
Iin daba
ĠHa ck
fune ki
ffi ce
F ili
Ġu gcine
th isa
Ġye S
ĠS chool
c lick
in de
on yama
Ġe hambelana
Ġum khosi
Ġum linganiselo
Ġama Yuda
na tha
in ing
lu hlaza
Ġesi zi
Ġes ise
Ġngokubhekis elele
l weyo
ra ma
Ġii mpendulo
tat to
Ġabe mi
li mo
Ġwa fumana
ulu ka
Ġm pa
Ġama tyala
ĠÂ °
Ġngokwa yo
Ġong u
Ġku ko
ma khulu
Ġs wal
ta ge
Ġeli landelayo
caka zo
FUN D
ĠIsiChi chewa
B ook
y intoni
mb ande
to longweni
ĠA yi
Ġii vidiyo
Ġc he
olo gy
vo ti
Ġwesi bini
ìĸ ´
g hi
Ġn dlu
Ġkwi Si
Ġezi philayo
wan ka
rh ente
ika zi
ond weni
ĠuK umkani
r ma
s ina
Ð ²
Ġi kha
si leyo
Ġkun o
Ġezi phakamileyo
Ġngo lwazi
ĠB an
mo dal
pho zithi
ond ele
Ġolun inzi
ngen isa
t to
Ġi R
um ntu
Ġkwi marike
Ġnge mini
Ġh is
ĠIsiTs onga
U Thixo
i de
da p
Ġama phepha
ki weyo
ĠâĢ Ŀ
Ġizi hlandlo
Ġimi yalezo
Ġkwiin tsuku
jo yina
6 8
9 3
G qi
Ġu khe
Ġi phela
Ġku the
Ġum sindo
P ar
t weni
Ġzoku hlala
Ġ200 9
Ġong ena
nike zela
U mn
Ġu dade
Ġzi ba
Ġkwin yanga
Ġaman qanaba
Ġpo st
bhi loni
g is
v ile
Ġ sebenzisa
Ġo the
ĠS ha
Ġeli fanayo
bha le
Ġesi za
Ġes ele
qh um
Ngu bani
j son
Ġesi hle
Ġez ona
ebu ano
T sha
m ha
Ġn de
si bhozo
ĠK w
qu ma
Ġisi vumelwano
ĠW el
Ġkuku mkani
ĠNdi za
hlang anisa
onwa be
Ðµ Ð½
! ',
A ku
in hala
ba wo
ĠM andela
Ġaban oku
Ġof f
kw and
Ġh g
bhiyo zela
umidi fier
" #
V u
wa ma
Ġum phathi
re deSocial
re move
tshu ma
Ġdata Type
Ġeno ba
Ġ$( "#
tooltip General
status Text
E TH
ke zela
Ġs enza
ĠK A
bon iselo
ĠNg elo
khu lelwa
Ġb he
ĠSe benzisa
ĠNd andi
yn on
th end
mi khali
Ġen ama
ty ela
Ġama khadi
me me
wan eni
ĠWa y
isetyenz iswe
ĠPh one
banj we
igeri a
I loko
o ple
Ġu hambe
Ġu loliwe
Ġi balulekileyo
Ġi mephu
Ġum onakalo
ang weni
va lwa
Ġw ww
vu lwa
Ġunga yi
ĠIsiC a
c wane
ku qaleni
en ts
Ġku hle
ĠU bomi
Ġl ine
ĠS how
Ġlo luntu
mbi a
ĠE zin
Ġpa r
Pi x
qum rhu
rid ge
Ġiingu bo
Ġ isebenze
Ġkun gen
Ġezin jalo
Ġ3 3
Ġ3 4
Ġ3 7
khutha zwa
ĠFa cebook
dlo bongela
Ġinike zela
a a
p ula
s se
Ġi vela
Ġuku qhuba
mi er
Ġy enzelwe
ent lobo
xwe me
xab isekileyo
rij land
I Mizekeliso
h ani
enz ela
I qela
M na
S he
m oni
Ġkw enzeke
fu dum
Ġzo phando
ur l
Ġp i
han ye
ĠYo hane
Ġnjen gama
iliga ynon
ghi z
E fe
Ġuku hlangabezana
li ght
Ġin gozi
ĠW il
hlu kile
Ġubu hle
bho bho
ĠÐ ¿
ĠGe o
to re
Ġye D
lwa phulo
Ġsa mandla
Ġban e
ĠLo wo
ĠDi ffuser
Q a
Ġk ona
ga r
ĠIsi Gu
ĠKu balulekile
ur s
bhan ya
ĠIsiH iligaynon
ĠIsiKir ghiz
Y or
ĠA B
ĠP at
Ġkum gangatho
d wel
le ta
yi bili
phi ko
sh isa
Ġbu dlelwane
pu ter
ĠIsiA rabhu
Ġzi zinto
Ġem lonyeni
bhe du
ĠÐ ²
phinda phin
xes hanye
la yi
Ġku tya
kh weli
er tifi
ĠM y
ĠP C
pa l
ar s
Ġneeng xaki
Thu pha
o dolo
Ġku thethwa
thu la
ĠC he
kwazi yo
lo ri
ĠY ou
ĠD u
enga hl
Bha bhiloni
V e
ĠA mandla
thu ka
ĠO r
vu sa
Ġeya ziwayo
M C
O lu
e p
Ġkwe so
us to
ki pedia
sis indo
Ġobun ga
hlalu tya
len da
doloph ini
A na
I xabiso
Ku ya
Ġkom zimba
Zi ziphi
ĠuN yana
ĠAn aly
Ġu phumelele
ph antse
Ġye Hlabathi
Ġyoku ziphatha
I Bhayibhile
Ã ³
ya di
un o
Ġba wa
ĠNg en
Ġnom nye
Ġzin g
ĠIsiC ebuano
Ġo phelileyo
Ġs hi
ĠIsiS inhala
200 9
Car bon
Yor uba
O ktobha
x ele
ĠC ard
ĠT es
khus elwa
Ġni ze
pla ce
ulga rian
I stanbul
s endle
x il
ĠI Si
khe ji
vu yisa
Ġlu nga
Ġayi yi
pi lo
sem hlabeni
ĠeM onti
s co
Ġku sini
ze kileyo
Ġyo bomi
thu li
mp il
O mnye
Ġuku dla
Ġkw ishishini
Ġnga m
Ġaba mnyama
Ġkuba sebenzisi
Ġukun yuka
Pi rates
mha ric
o ki
za tion
Ġo ying
ĠIsi Vietnam
Ġngoku semthethweni
Ġis onka
l ona
Ġ ì
Ġi candelo
Ġkw ane
vel ise
V ID
r n
Ġi G
ĠIsi G
Ġem hlophe
Ġb log
Ġis ono
Ġnd is
Ġsiya zi
qaqa mbileyo
6 1
6 4
Ġe sebenza
Ġwa qala
bha so
ĠIn kcazo
Ma li
ĠIsiK ika
Ġkw engqondo
ĠN antsi
hla wule
ku thi
ze ke
ĠU p
Ġwen t
xe kile
ĠV rijland
Ama doda
tyho lo
Ġnoo dade
Ġol wen
Geo fumadas
guna phakade
Ġuku bhala
bo x
Ġy enziwa
bhi te
ĠKun oko
ĠKW I
bhapti zwa
M p
W S
Ġne misebenzi
ty um
Ġii pa
Ġii bhedi
pa m
ĠCa sh
Izi xhobo
sele ko
khumbu za
c eli
Ġ onge
an eni
wa phi
di t
Ġya za
ĠS ystems
N tshona
W in
c isa
ĠW indows
Um sebenzi
phel elwa
tyi ki
ont rol
Ġuqa phele
- $
N gcwele
Ġe cacileyo
ĠK WE
qin di
Ġubu lumko
ĠPo wder
khala zo
P E
h ona
k wana
Ġ ðŁ
Ġn ing
Ġna ban
ti mela
Ġzo mbane
guqu kayo
Ġyom zimba
Ġga me
Pha mbi
tyho li
c en
r isi
× Ļ
Ġi yin
ĠN jani
de mon
lung ise
ĠIsiE we
Ġika khulu
I K
a pp
d d
lo wer
ĠN gama
lawu lelo
Ġzin inzi
enga lo
Ca sino
ĠIsiA mharic
Ġzobu gcisa
c tory
r ome
ha lo
Ġba bantu
Ġze Bhayibhile
ĠB ar
Ġii mpazamo
Ġzoku ngcakaza
Ġes ine
zini kela
ĠTe chnology
Ġu senoku
Ġum yeni
Ġaban gena
Ġban inzi
10 11
Ġca l
dum e
dast re
d langa
p l
r oni
ling ane
Ġp er
lw anga
Ġzen dalo
ĠStra ightener
Ġe hleli
ĠN dinga
Ġm in
ter mark
Ġubu gcisa
qwalas ele
Nt loko
Ġu thanda
Ġe khu
Ġna xa
sa l
Ġlwe N
Ġom dala
gca li
gun yeni
Ġinike za
wend wela
? "
x x
is ane
Ġi qonga
Ġezi funekayo
Ġun om
ĠJ u
Un oku
P IV
m ise
m velaphi
si ya
Ġne mali
Ġyo o
Ġum khonzi
Ġngoku sekelwe
Ġaba za
Ġeng cwele
qi kelela
Ġngom lomo
Ġkan cinane
per a
chane ka
ther n
Ġmn andi
45 2
Pha ka
5 9
ro om
ĠM etro
Ġno Thixo
Ġkwimi dlalo
pla gi
ĠJo hn
S hare
U Yesu
Ġo ye
Ġama tsha
yu lwa
hlang ula
Ġwaza la
vumele kanga
amu el
Y onke
Ġe A
tu al
Ġsi xeko
ri th
Ġnge xabiso
yan mar
ren ch
thint elo
le ke
kh elwe
un ya
Ġin qanaba
kha wu
Ġ1 20
Ġim fundo
Ġyom sebenzi
8 9
f isi
u thu
Ġ gra
Ġuku guqula
ĠM an
Ġkwiin kqubo
Ġndiya zi
sus wa
Ġelin inzi
l isiweyo
ko zo
ta mo
Ġngoku chasene
Ġno lawulo
wi t
bha liso
Ġnom fazi
EN Z
KH UL
Ġu xanduva
Ġi fumaneka
yo si
Ġye dijithali
ĠE yoM
bon o
ĠW onke
ena m
phum eleleyo
yan ise
Ng caciso
N G
q ele
r ing
è ¯
Ġum nikelo
Ġen dala
Ġka Ma
ĠS inga
ro und
phi c
Ġlwe zo
tshu tsh
Un inzi
z ula
ta s
ĠIsi Yoruba
Ġm thetho
ĠF REE
Ġom zimba
Ġkan anjalo
Ġ200 8
IP H
SE B
Ġba lo
Ġkom ntu
lungis eleli
Y I
i ce
z z
Ġn onke
Ġu mbutho
Ġo lungileyo
bu kela
hla mbela
Ġngoku fanayo
Ġle webhu
Ġimi thi
Ġubu suku
Ġkwen kqubo
thun zi
Khu seleko
Ġoma bini
en isi
on es
Ġya bantwana
Ġum gaqo
ang eni
Ġze phondo
Ġezin cinane
Ġngokwa bo
Ġube ke
Ġiz isombululo
Ð¸Ð ¹
K w
ku bhite
wo od
ĠA P
Ġzo kwenza
Ġnen kxaso
Ġiing xelo
phel ile
tyi weyo
Cha pter
dlulis elwa
Q e
T ra
Ġu thatha
th era
yi ko
and rol
qu ba
ĠP etros
Ġizi gidi
ĠT shintshela
Ma ster
fe fe
EN K
Ġku bandakanywa
ma ra
be thwa
Ġen zima
de ka
Ġze mali
ri ck
Ġii projekthi
ĠT hina
ĠT rans
Ġngu we
ĠÐ ½
Ġyanga phakathi
tyhi la
Micro station
ĠInter national
mpil weni
F S
Ġk he
Ġi pro
Ġi chaza
Ġna kwa
Ġezi ya
ra me
or hulumente
Ġu qeqesho
hlu kan
Ġyin kqubo
Ġiint lawulo
Ġiz enzo
Ġekun ene
yi ke
ulu man
qwen ga
bhaka bhaka
Ġi lungu
to lo
am va
Ġemi bi
igh ts
papash wa
yint loko
N amhlanje
v ol
is ch
Ġi khamera
Ġe sebenzisa
um ente
Ġin go
ona ry
Ġum fundi
Ġka N
ch ni
Ġuya yi
qi kelelo
toli ka
B C
C or
g ree
lo lo
um zekelo
Uku setyenziswa
ĠH lawula
Ġubu shushu
Mo bile
Me xico
ĠIsiB ulgarian
× ķ
Ġe kwi
Ġkwa funeka
Ġolu banzi
qha wula
Ġway eng
Ġi vumela
Ġe Kapa
ph ina
Ġba sebenzisa
Ġw hi
co la
vavan ywa
cine zelo
bandakanye ka
Ġnjen gaba
Ġin dalo
Ġne ya
hl eni
bh isa
Ġim vume
ĠInter net
G i
ph unga
Ġun ina
Ġem inye
lw ane
To p
ĠCent re
M T
t eli
bo ard
Ġye ze
ty le
Ġesi khundleni
Ġde sign
Ġkwen dlela
sem zini
sasa zi
ĠDa ta
2 50
C A
v eli
ra ceta
ĠS pe
Ġm p
Ġm funeko
Ġzi xhobo
Ġisi thuba
EL WA
khompyu theni
vil le
ĠKung enxa
Ġcryptocurren cy
q eng
s ango
Ġ 00
Ġu wa
ling ani
vaka lise
Ha iti
Ġzom zimba
fudu kela
Ġumbon iso
P al
Ġe phuma
ma gunyeni
za kh
se mva
Ġaba hlala
Ġz ise
Ġama gumbi
engu qu
W o
m kelwa
u e
da ma
Ġin debe
Ġy angoku
Ġkuba thengi
du bula
ĠBe at
ĠIsiKir undi
rade si
L esotho
á ĥ
Ġe thandwa
Ġku sa
po li
Ġlu be
land elela
ni a
Ġunoku fumana
IV E
B lack
c hlo
i la
j we
m ula
p ment
za zi
Ġo mnyama
go di
Ġbu t
m eleleyo
Ġn qakraza
Ġwa hamba
Ġkwi misebenzi
mi buzo
phi lisa
Ġoku bi
F X
I I
z ani
Ġku phuma
ma shishini
Ġnga we
Ġnga sinye
ra te
Ġw ang
Ġkum sebenzi
balule ka
ĠÐ ¸
Ġent lango
ĠuSa wule
ĠWeb talk
rist mas
1011 452
S te
Ġi lula
Ġa phantsi
ze d
Ġin zala
ĠU D
Ġezi m
Ġko Yehova
Ġiin kalo
Ġubu banzi
lis ile
Ġkwiin yanga
ĠSe kunjalo
Ġiz ono
Ġuku yisebenzisa
Ġin tsingiselo
Ġka Davide
Ġis enzo
ĠuY akobi
ĠS hi
fo re
ango thi
enzi leyo
Se malt
Ġemi hlanu
lungis elelwe
ĠIsiN debele
ĠCol lege
Ġemo yeni
Ġba thanda
ĠS ci
hu r
Ġyoku thenga
Ġle ze
Ġem veni
Ġkuba fundi
Ġimi phumo
Ġim fazwe
enzi le
ĠPha kathi
Ġomn cinci
Ġwemi khosi
1 20
ba tha
Ġk hetha
Ġi tsho
Ġku fanele
Ġngoku phathelele
Ġzi ze
Ġzo luntu
Ðµ Ð»
Ġakun a
ulti media
bumn yama
è¯ Ń
P etros
el y
Ġuku thini
Ġin ko
Ġye P
Ġs trong
eni c
Ġne M
xa bano
vi ces
ĠH ar
Ch ris
ĠAfri can
c tur
ĠIsi Pa
Ġngo hlobo
Ġbe zo
Um zekelo
Ġiing cali
Ġokun inzi
CD D
S R
z isebenzisa
Ġi mba
ha zi
lu ba
Ġs ino
eng oma
enz ele
ĠNa tional
khangele ka
6 2
Ġin c
ta yela
Ġsi thetha
Ġngo lo
ĠM anu
Ġeza hlukileyo
ĠIsiS hona
ĠAnaly tics
- "
Ġi mbi
ts wana
Ġma khe
Ġsa ku
ond lo
pli t
á ŀ
Ġuku vula
Ġze zinto
bi a
mbu yekezo
Ġeza hlukahlukeneyo
Ng om
ster e
phulaphu le
fuman ise
p tion
q ingqi
en si
Ġs te
ra tion
Ġun ika
ol one
Ġnee mpawu
ziyo bisi
Ġyom hlaba
sem andleni
base d
phulu kana
mb ile
ho to
Ġw indow
phi kis
hlu lwa
khen ketho
t oni
wa rd
Ġa hlale
Ġaba ku
Ġisi mo
Ġizi fo
ĠWa ba
Ġ4 5
phin dwe
Ġkwisi khululo
âĢ¦ ]
Ġendi yi
Ġluka Thixo
ĠEx press
zenz ela
m or
ĠA C
Ġel wandle
Ġnama va
gubung ela
6 9
Ġ gen
ta theli
thu tha
Ġngo lwimi
pa li
ja min
Ġnd ine
com merce
kxa labo
UA E
7 2
Ġun ama
mbu ka
Ġyase M
Ġmo re
Ġokunga kumbi
e khaya
Ġ tye
Ġu phinde
Ġaba bu
tho bele
bi ze
ch unge
okuba kho
int si
land elwa
Ġwo M
tsa lela
ding u
tr oni
gqith isa
Ġ Ñģ
en elo
Ġi zolo
Ġuku phuma
Ġin gqi
ĠN J
Ġz enze
bha bha
ĠG ar
theng ise
lis ch
Ġabo ut
Ġiza ku
ĠuYo sefu
N ceda
t la
Ġu F
is isa
ĠI vidiyo
ĠI taly
Ġin guqu
Ġze M
Ġzi bonisa
me ta
Ġis andi
ĠZ ama
Ġso bu
Mi dlalo
Ġuza ma
Ġ[ âĢ¦]
ba mbe
ĠN or
ang eleko
Ġama ziko
ĠB el
Ġw angena
Ġimi zi
lin di
thaba thela
ĠuA braham
Ġku kwenza
Ġa fumane
Ġwa fa
ra t
Ġkwe M
ĠD isemba
am ento
Ġlwa yo
khon ze
lawula yo
Ġobun gunaphakade
ĠKun ye
Ġal so
raceta m
Z o
Ġu phuhliso
Ġku dla
Ġum enzi
Ġaba thile
Ġaba bingeleli
ant la
fihla keleyo
la sh
le thi
Ġuku hanjiswa
ho la
Ġezi hamba
ĠP oker
ur ce
ĠIsiS uthu
Ġezis isiseko
limi ted
androl one
Ñ ħ
Ġi pha
on y
Ġuku khuthaza
ke ting
Ġye vidiyo
ong cakazo
sin ya
son de
ĠIsiM yanmar
u ko
ĠK ulungile
pi amento
Ġkusen okwenzeka
Ġekwen zeni
Ġe b
Ġuku lwa
Ġz entengiso
mn ceda
Na zi
Ġku wa
Ġuku se
Ġo mbane
Ġbe m
Ġubun inzi
Ġung ena
phefum la
Ġawu yi
Ġkung enxa
Ġte xt
Ġnan jengoko
Ġe H
Ġba cinga
Ġen kundleni
ĠS he
gq e
Ġli thetha
yu ke
kw isi
cwangc iswa
ĠAuto CAD
N dinga
c us
Ġ qiniseka
Ġe en
Ġkwa phela
Ġkwi S
Ġlwe zinto
Ġngum sebenzi
Ġiza khono
Ġsinga ba
Ġv s
ĠU no
Ġaba zange
Ġaba thengisi
ĠB ona
hl elwa
inga la
ĠT V
gqa bi
sind iso
ĠIsiPa piamento
i zer
en anto
Ġu dlala
Ġi lahle
sh we
Ġse s
Ġubu bi
gra phy
Ġkunga bikho
Rus sia
thend eleko
v angeli
ho u
ĠU B
Ġye A
mi r
Ġs tu
lung e
ĠG i
phum ela
ol den
ĠÂ «
Ġngokwe zi
xab ise
T A
Ġku fanelekile
Ġba sebenzise
eng xelo
ĠUku setyenziswa
cha zela
qh ank
ren si
Ġkwel okuba
ma ti
Ġye mali
Ġya bucala
Ġyoku phila
ĠM u
Ġno bomi
Ġli ve
ĠIn stitute
Ġi d
li thi
Ġnga ku
Ġen da
ri ght
bhu bha
Ġf ee
Ġni be
Ġunga kwazi
Ġowa y
Ġlwen t
Wa ray
el ene
Ġu cinge
Ġk onyaka
Ġe endaba
vu za
yu kayo
Y ordan
en jongo
ba kala
Ġi D
ri end
ĠL OKU
Ġizi pho
ĠBa be
g re
i be
Ġe Ma
bonaka liswa
Ġyesi thathu
Ġukuzi phatha
f thiwe
Ġi mbewu
mb ano
Ġen tabeni
ĠA wu
Ġaba thathu
Ġzo kwakha
Ġnda ku
guqu lela
pp y
AL I
D E
w onga
ĠI ZI
ĠB ul
ĠY into
hle ka
rh an
ĠNga phambi
Ġe phakathi
tha te
Ġum ngcipheko
de o
Ġloku lala
Ġ2 50
Ġaman tombazana
Ġbaka Yehova
khatha zeka
Ġzom hlaba
sond eleyo
qhank qala
c ka
k troni
t ry
z en
ta tion
ĠK hetha
ĠA u
Ġisi hloko
lis eni
Ġumn qophiso
Ġny hani
x Bet
Ġuku phendula
ban k
Ġin okuba
ta k
Ġz isi
ĠE M
ĠB en
Ġno Ma
tsha y
ht ml
kw eli
Ġidi phozithi
Des k
Ġi dla
Ġo ur
ban isa
zin t
Ġye bhonasi
Ġs uku
om po
hi bi
Ġngo Yehova
tri ct
ĠPo cket
ĠIsiL ingala
B an
F AN
Ġu C
Ġi de
si onal
di an
Ġkwi khaya
te knoloji
wen ze
co s
ent liziyo
so mbulula
Ġnaba fazi
Yo bhi
ther lands
Ġ gam
Ġe ven
Ġuku ma
Ġuku lungisa
Ġwa qhubeka
Ġum profeti
Ġen tolongweni
ĠS ho
Ġzi thi
ĠKhu mbula
d enge
on da
Ġo gama
ve za
st ru
gen dawo
ĠBi ble
I mbali
is ho
Ġba mele
Ġs ome
zo ba
Ġezi ye
tya tyambo
fund ela
Arc GIS
r st
wa ye
Ġi OS
ĠS tu
Ġw eli
ĠNg eli
bh oni
Ġb lockchain
Ġnd ina
ĠMa si
200 8
c ca
ya lela
bo ya
Ġba ko
Ġba bonakale
Ġaba khulu
tho be
Ġizi yobisi
zon yango
a ts
y iswe
li zwi
Ġwa thumela
tha la
ĠA m
qa lise
ĠR and
vaka lelo
ont ent
TS HA
Ġe vulekileyo
Ġku wu
ga xekile
Ġa sa
Ġzi bandakanya
Ġyoku tya
tsha tsh
Ġim funeko
Ġkwisi xeko
qha gamshelana
sen okuba
US A
Ġkuka Yesu
ĠYi yo
Ġisetyenz iswa
qhagamsh elwano
kwin dawo
qingqi weyo
6 3
Ġi yan
ph anga
me d
Ġel se
ĠD es
Ġenga phezulu
Ġkwisi thuba
Ġazi yeki
Imi buzo
Pro jekthi
mbande zelo
N tu
k lini
o xi
Ġuku vumela
Ġuku xhasa
Ġin di
Ġkwe sa
Ġem khosini
Ġimi gca
Ġlu khulu
Ġp ers
id s
Ġenge kho
Ġu sebenze
is ta
ha fu
Ġezin je
Me dia
ĠNet work
j inga
n ess
y ha
Ä Ł
an thate
ye zo
Ġi mbonakalo
lu gin
Ġo yin
and ul
Ġwa le
ĠC y
lwa lamano
Ġez enziwa
kulu mbuso
tra to
Ġmo d
ĠAba dlali
yam eni
Ġk on
Ġin kcazo
anda rd
.âĢĻ âĢĿ
B est
a k
ku nga
Ġu co
Ġi rhafu
Ġku tshanje
kwa zanga
hen yu
enxa lenye
Ġulu tsha
Â £
Ġ fumana
Ġen de
Ġama xwebhu
ci ty
ĠIn jongo
ung ula
Le d
ment eni
Ġeban dleni
tala to
* *
s ono
Ġu qala
ty h
Ġko lawulo
Ġnd ini
Ġngama zwi
Ġekusebenz iseni
ELEK ILEYO
g wenxa
Ġe D
Ġuku bonakala
bo l
Ġun qulo
Ġeyo dwa
ester n
Ã§ a
A fri
A banye
B lythe
K or
T CDD
U G
g co
an el
Ġen esi
Ġaba ya
Ġimi zekelo
âĨ Ĳ
s to
ã Ģ
Ġe setyenziswa
Ġku A
Ġwa phuma
ĠIsi Hebhere
mp late
Ġeku hlaleni
KHUL U
O ko
t in
Ġn el
ha gu
Ġo wenza
yi hlo
Ġum phumo
Ġezi khethekileyo
lwa khiwo
Ġisi kolo
Ġli thi
ĠKwi meko
Ġandi yi
bhenge zwa
banj elwe
' ).
O fisi
th saba
Ġku phinda
Ġku yenza
we bhsayithi
Ġb okuba
Ġzo M
Ġ0 7
ĠSe ptemba
erse y
K om
z onke
Ġo yinyaniso
ona virus
va te
Ġyoku funda
ci li
mbu lo
Ġez isetyenziswa
Ġnda za
ama phosa
Ġca sino
R ange
e k
l anda
s onic
en n
ro s
Ġezin jenge
ent ral
vaka layo
ff er
hlwa yo
Ġi H
bi zo
ĠP lay
Ġoku phezulu
Ġubu hlobo
phakam iso
Ġway engum
Ġdi pozithi
xhon yiweyo
Ġwhi ch
Ġ cu
is elana
Ġi mo
Ġkwe ye
Ġ3 6
bhenge za
Ġzanga phandle
b ise
l lar
Ġa zo
di cal
Ġm thethweni
Ġze zulu
ĠC am
ĠC ertifi
Ġ3 00
Ġp ri
Ġâ Ħ
Ġone minyaka
ĠChi efs
Ġingqi qo
y ine
Ġe baluleke
Ġku landela
Ġo qhelekileyo
Ġo landelayo
Ġii N
ĠUku fumana
IN T
rhulu menteni
Ig bo
G cina
k t
q ungu
Ġba dla
ĠS inoku
po ly
su l
fo wun
zal iseka
Ġobu khulu
Ġent simini
Ġend lini
gqwe sileyo
Eng lisch
por ts
Efe se
el wane
Ġi galelo
si ba
lo dwa
Ġsi fanele
tho la
bhu ku
Ġyen dlela
Ġayi kwazi
ĠIsiT wi
Ġziya fumaneka
Ġngeen konzo
Ġukwa belana
Ġngokunga thi
Ġisetyenz iselwa
Iint lobo
bande zeleka
za khono
om et
Ġii mvakalelo
Ġse sibini
Ġez andleni
ĠNjeng okuba
You Tube
Ġo kwenza
do li
Ġbe ze
Ġun okuba
Ġizi ko
lawu le
bel ane
I Sityhilelo
Q ala
c elwa
k q
t te
x esh
Ġe semthethweni
Ġin i
kho kho
Ġwa fika
Ġno E
Ġimp e
sis iseko
Ġkalo liwe
ĠDa y
nike zelwa
ĠA ra
Ġm andi
vi ron
EN I
Ġema il
Ġway ene
lath iso
ĠAmer ica
fih liweyo
B O
k okuba
Ġukuba luleka
ĠC i
Ġc waka
id gin
sta te
ĠIzi phumo
Ġnanga phezulu
Ġubha liso
Ġti me
prin ta
A ir
B hen
Y eho
m fundiso
v est
Ġa lo
Ġne B
Ġum thwalo
ĠK anye
ĠA p
Ġpro jekthi
.âĢĻ âĢĶ
Ġelo wo
qua re
lath isi
ktroni ki
g ri
» ¿
ka zana
Ġum qhubi
ĠM oney
Ġun omdla
!! !
S T
g xe
i v
ï »¿
Ġn ull
Ġu kwe
Ġum thi
mp le
Ġun esi
ĠP or
Kwa khona
Ġbaben ga
au ti
, ,
p ani
Ġn konzo
Ġa u
Ġa yin
Ġum gama
ĠB am
ĠB usiness
fa shoni
tshi za
Ġdo cument
A ASraw
Ġu wu
Ġkun di
Ġin om
Ġna zi
Ġne ye
Ġezin ama
kwen yaniso
Ġoku ba
Ġbaya zi
âĢ¦âĢ¦ âĢ¦âĢ¦
dap tha
zi misele
Ġy elizwe
Ġzoku gcina
ĠâĢľ âĢĺ
thanda buze
ur se
yis ela
dum ba
tyu wa
8 2
A sia
U J
wa rha
su ke
zal elwa
Ġpa y
ĠSu per
A t
Ġu vu
ĠN je
ng um
te khnoloji
Ġm dwebo
fa lls
bona kude
Ġesi fanelekileyo
Ġel is
Ġngoko moya
yeli tsha
vo ta
oma ma
ĠTi moti
TS H
s end
z elele
la leni
ris mesi
Ġmi llion
Ġumb halo
fuz iselo
6 00
A ustralia
Ġ mbuzo
us h
fi t
qinise kise
ĠÐ ¾
Ġsase Haiti
P la
Ġba the
bu suku
va yo
va lo
Ġngo koku
Ġisi dlo
thuthu thu
yanzel isa
____ ____
ĠKan anjalo
auti ful
Y eremiya
c tive
u the
x elisa
Ġa hlala
Ġkwi phondo
Ġs ystem
Ġezi pheleleyo
ĠA pho
Ġezin amandla
ĠD is
Ġzo shishino
redi thi
tshon tsho
la le
Ġi lungileyo
Ġe R
Ġuku gcinwa
ĠI IM
di tion
Ġm hlophe
fa ctur
Ġma yi
Ġim velaphi
Ġint lungu
Ġben e
Ġoyi Ngcwele
Bh unga
thera py
n jeng
Ġi V
ha bhi
ph eni
ĠN an
wo rd
sa yensi
ĠF t
Ma c
bho ko
Ġt ru
Ġlase Yiputa
ĠuS olomon
ĠEng lish
t ting
Ġuku phila
li ba
Ġkwa thi
ĠK wen
Ġka m
Ġbe mi
Ġene minyaka
bula li
politi ki
cri pt
Y ona
Ð ´
Ġuku lungele
Ġne futhe
wi li
khu kula
xu bu
ĠIsiMa ked
zenza yo
tshatsh eli
Ġi isa
Ġi venkile
oku n
ts ana
es ine
ĠU za
ĠK umkani
ĠK UNYE
Ġen xulumene
Ġeku hambeni
Ġnda zi
setyenz iso
Ġint langaniso
ĠYa bona
Ġuza me
Ġ200 7
dlulis ela
Sele ct
ĠIsiMaked onia
S QL
X A
b log
wa las
un yana
Ġisi phumo
Ġisi khundla
pi c
Ġtattoo s
fom u
ua ge
Ġgu ys
wit zer
Ġ Î
Ġkwi M
bu s
Ġs to
Ġne minye
ca ce
pho swa
Ġma ke
ĠG ra
IS I
Sele cted
witzer land
n el
la tion
Ġku soloko
ze ma
bu rhulumenteni
Ġnga la
so ze
Ġnjenge zi
gx eka
A mantombazana
Ġyo mbane
Ġl anga
Ġle bhola
ĠE preli
fa ce
du mbu
Ġolu phezulu
Ġbu ya
Ġint sebenziswano
Isa ke
IZ enzo
ĠJi kelele
9 1
la phu
Ġwa thabatha
Ġkwi mbali
Ġno luntu
Ġizi tyalo
hlu nu
tal an
cel Select
ĠGa me
khen kethi
ross Ref
ĠWel come
7 1
F rentshi
j elwa
Ġi quka
Ġba hamba
fi hlelo
Ġizi lungiso
mbu za
Da vid
Ġemi hle
UN G
Ġkuka Thixo
Ġnaku ma
L wandle
U V
Ġi me
ĠS q
Ġno lu
su b
Ġbu hlungu
Ġkwimi mandla
Fran ce
khankan ywe
h on
Ġku kun
Ġku bantwana
mb ingeleli
Ġne gama
Ġy onyaka
ĠE s
Ġem ine
gu a
ĠIn yaniso
yan zeleka
Ġint engiso
res tu
qha we
qha yisa
pala mente
Theng isa
B rit
mb ele
mb undu
Ġba hlale
Ġye datha
ng ca
Ġaban a
ĠF M
ĠG old
Ġ3 8
tso mi
fes sional
phikis ana
k so
lo u
se kho
Ġaba thi
Ġisi Xhosa
fumane ke
ster dam
theth we
ĠleB antwana
A mandla
C E
wa sa
Ġne S
ca se
Ġeli bi
ine se
Ġan y
Ġwakwa Sirayeli
L in
Ġn zulu
Ġi baluleke
Ġyo dwa
khe thela
seben zo
Ġiin yawo
ck y
yan zela
Ġwo r
khon kwane
Ġowa wu
kra tshi
Ġingo ma
Q UB
b ri
Ġi projekthi
Ġe ben
Ġa funa
lu tion
Ġba wu
ĠS amuel
Ġlu hlobo
ĠuYo hane
ĠMana gement
END ULO
D lala
F or
H i
x ine
ba kho
da bi
and uluka
Ġw in
mo s
ĠCo un
xu ba
Ph ondo
dlo vu
Ġbi t
Khu s
gxo tha
h d
p el
Ġ anda
Ġ vo
el weni
Ġi qala
Ġku bomi
Ġnj ongo
ty un
Ġngo bomi
ono phelo
rhwe bi
ĠIsiE fik
iin yanga
dlanga laleni
q ongo
ĠK ha
ĠA ll
ge o
Ġnen dlu
Ġnda thi
ĠNgoku qhelekileyo
Ġise be
Ġyaying u
ĠVe gas
' :
Ġu funda
Ġe bho
ga da
Ġuku khupha
da da
es hi
Ġen za
pa rt
Ġiing camango
ĠNgo kwe
Ġent loko
phelele ko
Ġu tywala
li yo
Ġin ceba
om oya
qu ku
Ġzi mbini
Ġizi kolo
ono mi
qin ile
qhe tse
Ġuy enze
Kan an
phindaphin diweyo
Ġoying cwele
B lue
j pg
Ġe yoku
Ġwa ze
Ġzi kho
Ġngo loliwe
Ġisi catshulwa
du le
cha el
Ġnom dla
end ele
men yu
cel and
SA T
phosa keleyo
i Phone
v elela
di e
yi bona
Ġbe funa
ĠW en
enz ululwazi
shici lelo
hlon ela
ku phela
si ve
ĠS is
Ġii veki
AN TU
Ġema zulwini
Ġuzi ve
rhwe ba
Ġet c
hloni pha
qhetse ba
% .
P ol
Ġi thatha
Ġku sinceda
um an
Ġye mveliso
Ġyo phando
Ġisi lwanyana
ĠUku sebenzisa
Ġeku m
mbo pheleleko
bhe tele
Ġey ongezelelweyo
âĨ ĳ
Ġyay inga
S hi
ti cal
Ġeli phambili
ĠUku ya
Ġoku phumelela
so cia
Si te
ol f
qh en
E l
M n
t re
Ġ <
Ġi kh
phand leni
sithi wa
Ġlom sebenzi
ili yadi
Ġite knoloji
nt la
forma tion
7 4
D F
P ri
U ltra
p ane
Ġku phumelela
Ġo vela
Ġin tsholongwane
bu yane
Ġezi bini
khe mikhali
Ġsi bona
ĠB A
onge zwa
Ġk g
ko sini
Ġw h
sasa zeka
Ġnan ini
hlolo kazi
F ar
m ina
li via
ĠW ord
Ġizi thuthi
Ġma y
ĠD ubai
Ġumb hali
Ġyaku tshanje
ĠAmer ican
Ġu bonisa
Ġu kwanda
Ġuku qhubeka
ph ene
ĠI stanbul
ĠY in
mo le
khutha ze
xibel el
Ð° Ð½
ĠZi ziphi
Ġani ke
phonon ongo
Ġpe ople
ams ung
rop shi
A s
L ungu
Ġngoku gqibeleleyo
fi c
so mashishini
at ter
cwa ba
EN G
Ġumn ini
xu ma
ĠRus sian
li mela
un ja
Ġin tambo
Ġum e
ĠL ondon
ĠW enza
qhu tywe
Ġneen kcukacha
Ġan ti
EN T
Ca pe
tyi wa
lisi we
Nga phambi
Ġemn yango
f ter
g lu
ĠI xabiso
be tho
and er
ĠN D
Uku funda
ish wanka
fan isa
hamb ela
S ho
U mntu
i xesha
Ġin jini
be k
om so
ent loko
bha lela
su lele
ĠV a
Ġenga phezu
1 10
E le
p ing
el ona
Ġu Na
la h
Ġku Yesu
Ġba jonge
ĠU Ma
Ġama thandathu
ci l
Ġis hi
Ġom ele
ou lette
IM P
ĠeB he
tshay elelo
kso dus
7 9
m keli
w oku
Ġku ziwa
Ġo ver
ko miti
um zana
Ġkwa Sirayeli
ĠA bantwana
bha liwe
vel wano
il eni
Ġez ongezelelweyo
Ġumn qweno
elu gu
illi am
ĠAir port
backlin k
K hetha
ya lam
si phelo
Ġin inzi
qa liswa
tsh eni
Ġoyi funayo
Ġkanga ko
s tal
z isombululo
Ġ funda
Ġezi lula
Ġyoku ngcakaza
ĠH ot
Ġiint liziyo
ime yli
bongo za
D VD
f iso
u k
ba r
yi tha
Ġba funde
Ġye T
bu ye
hla ziyo
int loko
cwa dini
Ġkwisi kolo
QUB O
B U
g r
y ong
Ġe dibeneyo
Ġo omatshini
yi zi
Ġba zalwana
bu lungisa
Ġum fana
Ġngoku co
ĠA dapter
Ġeli zweni
phi thi
Ġnam hla
khatha lele
tyho lwa
Ġkwint simi
j an
n eli
Ġ ~
Ġ qho
tha mbileyo
Ġz eli
bi wo
Ġnjeng endlela
rin ya
H ua
V I
t eni
Ġu khangela
Ġi kwazi
Ġi dibanisa
Ġku lu
lo ud
Ġwa zo
Ġen omdla
Ġnge zandla
ent yatyambo
Ġimi cimbi
Ġnd enze
Ġnda bona
sini ka
ĠIsiN zema
ĠTattoo s
L wimi
m ine
Ġi phinde
Ġuku chitha
Ġuku phakama
and iso
Ġye yiphi
fa kela
ĠL ED
vi wa
Ġsa yithi
ig rinya
Ġngom sebenzi
14 0
Ġela li
I celand
S outh
Ġe hlala
Ġa vela
ma i
Ġuku zisa
um lo
Ġye mihla
ra si
Ġama shumi
oni ka
Ġunga thanda
Ġfee der
Ġi phambili
um n
Ġin gu
Ġwa qalisa
Ġkwe ze
Ġle M
ĠE lect
Ġisi thi
ci pha
mn cwa
Uku sebenzisa
... ]
Ġkoku qala
Ġh er
C e
S how
z iswe
z eleyo
Ġ tho
Ġuku thengiswa
Ġkw ise
mi th
ĠN om
qa phele
Ġy ini
Ġem ini
bon da
ĠKu r
ji ja
bhu bh
ction s
Ġpa ge
Ġngent liziyo
H an
f ele
t rans
Ġ bonisa
Ġo bo
zin gca
ĠU lwazi
ro te
Ġama thambo
go s
fan elanga
fumane kayo
Ġkwezi xhobo
200 7
papa sha
ĠFilip ino
C AS
Y IB
d ula
p langa
Ġ je
ĠY A
ve si
ni e
Ġnom gangatho
Ġyase khaya
ĠIsiT igrinya
Ġey enzekayo
TH ETH
Ġhi gh
ĠEye Thupha
temp ileni
Ġuqinise kise
A b
Ġi cebo
Ġi fakwe
bu yele
Ġum khondo
ang ca
Ġiin tsapho
Ġsa zi
Ġb okuqala
Ġumb ho
Fa ka
CO VID
ky pe
Ġi ileta
mb elela
yi ti
Ġlo bomi
ĠW al
gqi tyiwe
Ġloku fumana
al te
ĠMa c
Ġyase Yurophu
jong wa
Ġyaba thengi
taba se
walas ela
K he
Ġu Ka
Ġuku chaza
Ġkwe eng
Ġm zekelo
Ġma cala
kw anga
kra kra
vus wa
sisi gxina
fes ane
ĠIm fono
yanzele kile
rog enic
Ġi bandakanya
si fa
ra ge
Ġz angaphambili
ĠF C
ĠG roup
Ġnd ise
ĠUm fanekiso
ĠuM oya
Ġ[ ...]
krele krele
Ġiku vumela
rhan elwa
I candelo
g xila
r one
Ð ³
Ġn ela
Ġwa wo
Ġz isa
Ġyoku hambisa
Ġisi phelo
mis elwa
ĠNgo kwenene
ĠKwi i
sho p
Ġnges antya
ĠYi yiphi
jen je
siwe di
S mart
a mbu
â Ĥ¬
Ġin ceda
ĠU thando
ĠUku hamba
Ġesi ku
ĠH CL
Ġubu bele
ĠBa ye
Ġngom nyaka
las sic
Ġukun yaniseka
phel iswa
vule kile
dong eni
F F
i ji
Ġu Lu
Ġu soloko
Ġi lungile
Ġi powder
Ġku vumela
Ġuku thintela
to ri
Ġin ge
ĠU J
Ġl isithi
Ġzi funa
Ġno sapho
il wimi
pro fayili
Ġiya ku
Sa ma
Ġzen dawo
ĠNG E
Bo livia
Ġiingu qulelo
f on
i lwa
y per
Ġin kunzi
Ġya yin
ĠK amva
Ġnoku nye
ĠT ho
Ġzoku thengisa
Ġubu lungisa
Ġlwa lu
mbe zi
Ġing eniso
Ġâ Ļ
ĠIsiMala yalam
N yaka
P hi
l onga
Ð ¼
Ġu khuphiswano
Ġe banzi
Ġng xelo
ĠI za
Ġs engqondo
tu lo
Ġezi mnandi
qa bile
Ġnoku gcina
Ġisi qingatha
Ġolu pheleleyo
ĠH at
Ġaku funeki
bra ri
ĠIs lands
Ri pha
Ex cel
m vula
r ent
Ġ à¤
Ġu yin
ĠN E
Ġen u
Ġkwe za
Ġeku feni
Ġzoku tya
Ġkum ele
Ġwaye funa
bhi ya
gx ile
kra ine
Ġukum elana
ĠUna ko
qeqesh wa
U kwenza
l inga
u x
Ġizi bane
ĠKu lo
ĠIsiC ibe
onwa bile
lindele kanga
fudu ka
ĠIsiCibe mba
h er
t witter
y anda
Ġi ts
Ġna siphi
va liwe
ta ry
ĠW est
Ġoku semandleni
Ġesi landelayo
Uku susela
Ġwesi thombe
khanya yo
sase A
ĠFran ce
App le
G H
f ula
Ġe gu
Ġku fana
ĠU C
ing e
Ġl ent
xo lele
bon we
Ġse ku
Ġyen kqubo
Ġnee meko
ond ela
sta r
Ġzom sebenzi
ĠUM artin
en isa
Ġku zisa
Ġku Moses
ĠU tsho
mi um
tu ra
Ġm fazi
Ġisi zwe
fi leni
ĠO o
ja ji
ĠH umidifier
Ġaku fanele
ĠNgo Januwari
An kara
mm y
pub lic
Phaka mileyo
7 3
Ġi wayini
kh ela
ph eng
Ġne mveliso
ti me
ji we
it ch
kalo liwe
Ġ200 6
Th is
s k
x bet
z ono
Ġi Lizwi
ts on
hla kani
Ġwe ze
ĠY en
Ġ4 8
qwen ele
ES I
M fono
v y
Ġwa bantu
Ġba thathe
Ġs ise
ĠA c
Ġkwe mveliso
Ġsi fo
Ġnge eng
Ġndi the
Ġon zima
Ar chi
wel inye
sing qongileyo
ĠIsiTa tar
kla bhu
U kongeza
Ġi phe
kha thi
ĠIn cwadi
fer ence
Por tu
1 000
O s
T shin
lu me
ĠS to
Ġlo Mzantsi
Ġzi ku
ĠE ast
Ġem zini
Ma lunga
diban iso
per ty
Ġkwaku ngekho
Izi phumo
cade my
A mer
Ġuku jongana
ka ti
di leyo
Ġne ze
Ġum zobo
dala fil
esi le
phinda phinda
phumelela yo
Pha kathi
ĠKus en
Ġ jack
is ene
Ġi bonelela
Ġa mbalwa
Ġo hlala
20 00
Ġw rote
Ġizi xeko
gqi tyiweyo
Ġubu tyebi
lum kisa
Ġyeen dlela
vun a
Ġnakwe zinye
S lots
V al
en de
Ġu Sirayeli
tu ral
ki li
Ġw eng
Ġnoku tya
ĠW all
ĠG et
kwenza yo
bhu ka
Mo wabhi
sis u
vun yelwe
F UM
si de
li for
va s
Ġezi landelayo
Ġyoku faka
ene thiwekhi
Uku fumana
ve y
il y
ĠNa zi
gxo thwa
T rans
U lawulo
we den
ma in
ĠN OKU
Ġzi m
Ġnge elwimi
Ġun d
ĠL uka
ĠQ hu
kis hi
Ġlom hlaba
bili ty
phawule kayo
anzi be
×Ļ ×
alte se
G er
a daptha
u ts
x an
Ġi Chippa
Ġwa bonisa
Ġezi bu
ra ti
Ġzi vela
ĠW andula
IS ELO
qi kelelwa
Ġili tye
Ġkwaku funeka
Ġph one
qula the
8 3
N dawo
k ene
Ġuku hlaziywa
Ġng caciso
mi de
tha ko
ĠC inga
bon elelwa
Ġkum hlaba
vum eli
themb ele
mbula la
sind iswa
ĠIsiF iji
ĠIsiCa talan
B us
U no
Ġu kanti
Ġin kcubeko
Ġngoku sesikweni
mbe the
Ġeng o
Ġing xoxo
Ġenga lunganga
Ġezinga phezu
So lar
Ġika mva
×ķ ×
Ġi phumelele
ma gu
Ġuku qokelela
de sign
Ġle mi
khulu leka
Ġisi gwebo
ĠY esu
kon dla
Ba ck
Ġngeen jongo
Iin dlela
Ġuzi va
Ġsom zimba
qum la
Lat in
lifor nia
" :
r ump
th ing
ĠI IN
Ġkun gcono
ĠU funa
Ġkwi Yunivesithi
ĠA t
Ġkwe gama
Ġsi hlale
Ġama gosa
Ġii moto
phu lelo
Uku qonda
ena yo
Ġloku zi
ĠKu ye
ĠCom ments
Eku gqibeleni
T I
U bomi
Ġku kwa
Ġuku sebenzisana
the ka
hl ane
Ġw hen
Ġim ele
Ġyin kampani
ĠKwi minyaka
mpyu tha
pr ing
str ong
gor ha
9 00
c ta
Ġe semgangathweni
va r
ĠK anti
ĠY u
co un
Ġoku fanayo
gqi thileyo
na ma
end wendwe
hlawu lwe
bhi li
themb ela
ĠDi gital
Ġbom zimba
Ġngon cedo
khankan ya
thotho lo
U matshini
ĠI misebenzi
Ġo si
Ġin gubo
Ġngoku khethekileyo
ĠS ur
ki leni
Ġizi qhamo
Ġc or
gra fi
fanele ka
vun yelwa
khwa za
cine zela
ĠÃ Ĺ
calu lo
Bhen jamin
8 1
ga la
Ġa yisi
Ġuku thandana
fun ction
ĠA baninzi
mn i
ĠO kwangoku
Ġloku thengisa
Sa mo
Ġre cep
ingu qulelo
Ġkunga khathaliseki
mod yuli
ffi c
8 00
n jalo
r ange
ma tic
Ġuku wu
Ġuku lala
Ġin kundla
tu mbuka
ty elele
Ġyoku beka
fa yi
nga phandle
ĠIn ani
Ġwoku shumayela
onge ze
Ġkwisi gaba
lingan isela
ĠuA dam
ĠPre mier
D NA
H u
k li
l t
u ke
x elelwa
Ã ª
Ġa ph
we i
Ġng antoni
da r
Ġkun oko
Ġne C
ĠT ri
Ġesi thile
Ġolu hle
bonaka lise
bala la
IN du
ĠNdi cinga
ĠIsiChi tumbuka
hloni phe
Phu hliso
tshuma yeli
Phambi li
a ster
Ġe ta
ma te
ĠU R
ca sa
ĠB er
Ġwe re
ci e
Ġndi li
su re
Ġnaba sebenzi
ĠIin kcukacha
ĠEng ine
ĠManu factur
N kqubo
p res
Ġu thenge
ye rs
Ġba le
Ġama bali
Ġezin ike
pho s
ar ani
Ġlu ye
Ġeng undoqo
ĠÂ ©
Ġukwa mkela
ĠUya kwazi
Ġayina ku
Ù Ħ
Ġ ï¼
is wanga
bu lumko
ĠS undowns
ĠB y
Ġdo llar
hlolis ise
steroid s
Y ise
ĠI bhetri
to fu
Ġin kunkuma
Ġye webhu
Ġngoku hlwa
anga sina
Ġkwe hlabathi
ci es
ĠW ork
du ko
tra te
phel elwe
rha mncwa
ĠÐ º
ĠUKU BA
ĠIsiP angasina
bhenge ze
D warha
Q um
a bo
s intsi
Ġ phepha
an ta
Ġu khu
is in
Ġna manzi
ĠM guquli
Ġbu cala
thand ela
ciph ise
Ġuno kwenza
Thu tho
Ġkho si
R M
T HA
b logi
s ent
wa la
Ġe khethiweyo
Ġukuba la
ra bha
Ġsi li
Ġli ke
qinise ke
i ck
q and
r ter
z iseko
th wele
Ġku y
Ġku yin
yo mfuneko
ga lo
Ġo bomvu
Ġin d
Ġne yo
ĠK onke
Ġlo gama
Ġaban cinci
Ġolu fanelekileyo
ĠCo de
FUN A
Ing xelo
Ġngokugqithis ileyo
W hite
a li
l le
Ġi phupha
Ġe bha
lu tions
Ġo phakathi
Ġaba vela
Ġaba boneleli
Ġkwe s
Ġimi linganiselo
Ġzo rhwebo
Si zwe
Ġban di
ur dish
diban e
Mo to
ĠRa y
huma yela
Ġi bizwa
ya meko
zin zileyo
ĠS mart
Ġc inga
Ġkum gca
Ġenga kumbi
Ġso M
ĠIi mveliso
yise kile
n ers
u va
Ġ thuba
Ġi tafile
Ġku vu
kh eni
Ġukuba mba
sa kuba
Ġaba ba
ĠO ne
kwe sibini
onge ziweyo
ĠIin konzo
Ġ8 0
ĠKe y
ĠPi pe
I bali
la ti
Ġku shishino
si e
Ġuku susa
Ġya simahla
Ġz isebenza
Ġnoku lawula
mo re
ter onomi
qo kelelwa
ĠKu phela
xha se
Ama Ngqina
lingan iso
sen tshona
ou se
ĠIsiM altese
phathwa yo
tuthu zelo
IMP ENDULO
bo lone
ini a
Ġm en
ĠC redit
Ġw hat
pa ge
su lwa
In dia
Yo shuwa
londolo za
, ...
j isiweyo
Ã ´
Ġu de
is ha
la zi
Ġe Jamani
Ġuku khonza
Ġne Mi
phi co
Ġngama Ngqina
tye ya
Ġmi buzo
Ġr ange
ces sing
bula le
qwalas elwa
Bha bheli
A li
m and
ku hle
Ġu konwa
Ġi bh
ma ster
ĠI SI
Ġum khiqizo
Ġka mnandi
wen u
ani el
he el
Ġza sendle
inzi ma
In yathelo
ĠG ir
Ha mba
ĠNG A
ĠTo ur
Ġco fa
gcwa lisa
h li
s an
Ġu zuko
Ġin ja
Ġin tshi
Ġum ba
do s
Ġsi thethe
ty elelo
Ġli li
vel eli
ĠuM ongameli
tsa sa
ĠYa kho
Aba dlali
xwe meni
Ġezizi meleyo
zeki ya
O pen
S F
an eleyo
ĠL in
du cation
tya li
phum eleli
ĠIsiT elugu
pi tal
Ġ0 1
esi ya
Auto Desk
Ġimpe mbelelo
A pha
W C
i te
Ġu Ra
Ġu Bukumkani
Ġku yinto
ise d
Ġze xabiso
Ġno Yehova
man ji
Ġloku wina
qala yo
ĠKu the
fo lo
ĠZ oku
Ġnd isi
too th
lis ha
Ġung e
foma ti
ĠPla yer
Kwin dla
ropshi pping
wa li
is he
Ġi cacile
Ġuku veliswa
Ġye G
bu le
tha ka
te x
Ġwe M
Ġth ere
ĠYi ba
mfa ma
ishi ya
Mar ko
Ġulwa lamano
phonon onga
D S
F u
k ce
Ġe bun
lo so
Ġuku landela
um sebenzi
Ġlo kwenene
Ġzi hamba
Ġyoku velisa
fa cebook
Ġkween tsuku
PH ELA
Ġezise m
QA KU
gqe ba
atter y
ĠKur manji
Ġi iseli
ang qina
Ġezi kwi
Ġsi kolo
elel weni
bhan ti
He zekiya
Ġngent simbi
dli wano
qam lezo
bhisa lom
ĠA kun
Ġl ise
Ġama tye
Ġama candelo
ĠE uro
Ġaban o
hl engahl
Ġli qela
Ġimi butho
Ġb elizwe
Ġnom oya
ĠuM ar
gwe tywa
Ġngeen yawo
lang an
Ġyanga sese
Ġeno bu
ero on
roni ke
E fra
U PHA
en di
ĠU Davide
il la
Ġkwaba kho
Ġite kisi
dlw engu
qinisekisi weyo
( )
y si
Ġ mboleko
is tra
kho lisa
eng iswa
om ntu
hlo le
hlu lwe
gc ino
Ġlwa zo
Ġes weni
Ġyin doda
Ġibe kwe
mele za
thuthu zela
yanzel iswa
Ġkwiint langaniso
ĠCoin falls
Ġn xaxheba
Ġu zin
wa m
lu vo
Ġuku gqiba
bo pha
be kwe
mi cal
ĠS A
mbi za
ĠC O
Ġubu xoki
ĠZ OKU
ĠuM zantsi
ĠHe alth
Ġezinoku thi
thung elwano
j iswe
q weni
v ent
kho mbe
kho kelwa
ĠA na
Ġii fowuni
bun jineli
In ani
Ġngu lo
Ġkwin cwadi
Ġp or
Co py
Ġph ondo
Ġzika Thixo
BON ISELO
d ge
e ts
Ġ Ñ
Ġ hu
Ġe Bhayi
Ġa thathe
lo s
ho mbisa
Ġkwa fika
Ġne xabiso
hla kalo
Ġnga lunye
Ġama hle
Ġama lungiselelo
Ġle minyaka
Ġezin g
ina yo
Ġno phuhliso
ki we
me ma
ch uluman
vel iswe
ol da
Ġwen dlela
Ġnd isa
Ġiya kwazi
IS WA
Ġngom so
Ġobu hle
Ġkwen dlu
no ba
Kwa ku
then jwa
Ġakuna kwenzeka
C he
E ye
S olomon
a h
j ana
ku mbulo
Ġu hleli
Ġe hlo
Ġku funda
yi mfuneko
Ġlo ck
do si
do qo
lela yo
Ġno bunzima
Ġanga phandle
ãĥ ¼
! âĢĻ
M pilo
Ġa b
lo yiko
Ġuku linganisa
oku thi
da re
er andi
Ġwa buza
Ġnga so
va lelwa
Ġezi khethiweyo
Ġaba ben
qu ot
ce dwa
ĠM in
ci tshiswa
Ġli khulu
khus elwe
DA WO
thembe kile
ĠCha t
Ġman zi
ĠSu pp
Ġyim fumba
ĠIsiKika onde
poli tan
Ġ tri
is ts
kh redithi
Ġuku hla
Ġo fanelekileyo
Ġs mart
Ġne t
ĠM puma
tsha ya
ĠO ut
Ġ0 2
Ġ9 0
Ġukwa khiwa
Lo liwe
Ġesa si
Itali an
Ġkhu mbula
Ġgam es
jinga lwazi
A yi
E ksodus
en na
Ġu Eliya
thi weyo
hla zo
ĠK WA
Ġyoku lawula
ĠP u
ine zela
kwe re
Ġban ike
khawule zileyo
ĠNgo Septemba
cel l
ĠRo ad
Qum rhu
U lwazi
Ġi oli
Ġa fanelekileyo
Ġuku guqulwa
Ġkwa da
Ġnga mehlo
Ġnge yona
ĠM B
il and
Ġkoku n
ĠUm hlaba
Ġkom thetho
Ġnezi phumo
ama va
US B
gidi mi
NAB Show
MP TE
y ula
ku yu
la t
Ġo balulekileyo
Ġin ye
Ġye sin
mi ly
Ġaba phathi
re feren
khe fu
hl ele
ĠP hi
ch ester
am eroon
zu re
qi li
as y
Ngoku qinisekileyo
dlel ane
Ti moti
Ġzanga phakathi
kwand iswa
C H
Z in
i ts
p ly
si thandathu
Ġuku fika
om en
Ġezi bi
Ġezi phantsi
Ġzi khona
lung iswe
Ġw and
po swa
Ġzoku fumana
Ma sipala
iseben z
Ġkoku tya
Ġnen tsapho
Ġemi khulu
ĠQ a
ren bolone
Ka tolika
Ġsu b
Ġiy onke
temp ile
visi on
xesh ana
ĠâĻ ª
B it
F M
ĠI Z
ho be
Ġye gama
fun g
ĠS amuweli
ĠE l
Uku hamba
Ġsoku n
ĠNga le
ĠNga pha
Pa y
ĠAma Ngqina
Ġwama shumi
ĠIsiH indi
Ġekha yeni
phakan yiswa
K HA
b by
e se
n es
wa da
ban ini
er y
ĠU Pawulos
Ġkwi zinga
Ġy entengiso
Ġiin tshaba
man qindi
pa ss
Ġizi thuba
Ġsa kwa
Si za
Ġenga pheliyo
ĠNga mana
ad d
Ġiint loko
ĠIin dlela
lan jeni
Ha usa
Ġelin cinane
ĠuYo shuwa
endle be
g g
i gama
an na
Ġku phila
Ġba bone
Ġm ane
dla lela
Ġngo Thixo
me thyl
phu tha
ĠO f
vi c
su e
Ġes hushu
lis hed
Ġlesi zwe
Ja ck
than jiswa
ĠIsiL at
Kor inte
A ng
A braham
S panish
è ĭ
Ġi zwi
kh anga
Ġya yis
ona ld
dwa re
or s
ĠL ights
st ile
uni ci
Ġzin ika
Ġ4 00
EL WE
ĠNdi ye
Na tional
pan y
ĠUS D
ĠFi bre
T ri
n ff
p end
Ġn yana
ha r
lo zi
un tswana
ho l
Ġya qala
eli ya
Ġnga pha
ĠIsi Mi
wo r
wu lwa
Ġl isi
ĠE ZI
bha mu
ch eng
ji weyo
Ġkum kani
bhe kisa
Ġp romo
tsa lwa
Ġiing cinga
Yi yiphi
rg f
Pro pathi
Ġwakwa Yuda
Geor ge
assets nff
aka mai
assetsnff rgf
akamai hd
Ġk m
Ġi khu
Ġe United
si um
Ġuku buyisela
bo t
Ġkwi C
Ġezin om
ĠL IVE
pa ct
Ġezinga phezulu
Ġeyi yo
mpu li
tshat weni
g qala
Ġe di
Ġe cocekileyo
Ġo ther
ĠN O
Ġne w
ĠNdi funa
Ġkwing ingqi
ĠneN qaku
b hloko
w isa
x is
Å ŀ
Ġu xelele
Ġu khululekile
Ġi bhinqa
Ġe bangela
Ġku lawulo
ĠI de
Ġba thetha
fun ga
ta te
Ġno kholo
ĠL E
Ġiin komo
Ġiin taka
Ġisi bini
Ġeli qhelekileyo
fan elwe
Ġnemi phumo
UR L
Ġuty elelo
A m
C W
H IV
Â ·
Ġn elo
Ġe chanekileyo
Ġin guqulelo
es ti
ca d
Ġaba hamba
Ġbe fore
Ġii mali
bi zi
Ġiin zame
ĠW ar
gu lana
Ġesi dlangalaleni
Ġc m
ur n
ul we
tsa re
ON I
Ġisa yithi
Ġasi yi
ĠeM elika
Ġmn tana
Ġtru e
èĭ ±
A ll
g vSIG
el f
Ġa de
lo ba
Ġuku phuhlisa
Ġkwi Google
eng qiqo
ĠK ulula
Ġen dle
Ġaba li
phi cs
Ġeku seni
Ġc andelo
Ġlwa zi
Ġni zi
zal iswe
Ġnemi dlalo
ĠNgo Februwari
Ġlom sebenzisi
qwalas elo
ĠGen erator
Ġuqhagamsh elane
yha dala
D C
x huma
ta gs
Ġun alo
Ġii mvavanyo
ĠP et
ĠMa ster
ĠuM thetho
ĠEku qaleni
thengiswa yo
ĠTh is
ĠSer vice
eza poswa
Ġï¼ ŀ
ĠIsiLat via
G iliyadi
U P
Ġu qhubeke
Ġu thumele
si ki
Ġo sebenzisa
Ġl eli
ĠO S
Ġimi da
gqi bile
il le
ĠUm dlalo
Ġiing oma
Ġkwaba se
elel eni
ust ry
Ven kile
chlo ride
H lola
L LC
O kokuqala
m ani
o da
u gh
w okuqala
el la
Ġe Pa
Ġuku khuphela
Ġye qela
mi t
ĠN A
om andla
Ġwe hlabathi
ĠG lobal
thun ga
Ġisa hluko
lam ane
hili pp
ura Ã§a
uraÃ§a o
r um
Ġ faka
Ġu lwandle
li lweni
Ġzo o
qinise kanga
min qweno
Ġkwisi za
Ar gent
ÑĤ Ð¾
rou gh
Ġuko yika
ĠMicro station
I t
Q O
n ini
Ġ tyala
Ġ mbutho
in ki
Ġkwa kun
ti de
ĠIsi Bi
ĠS T
Ġm mandla
Ġzi ing
gi cal
Ġni ye
Um gangatho
cac ise
no va
Ġezingama shumi
Ġnakwi i
Ġeline sibini
mpela veki
Ġukubu kela
B IM
K ung
si kelela
lo ku
ko sana
Ġs ur
Ġum qeqeshi
qu kethe
Ġezin gen
Ġno N
ĠO KU
ve at
ish oni
ck ing
Ġngu Yesu
qhu tyelwa
Ġyase Melika
olo mbia
Ġnobu chule
band ela
ĠKing dom
sse tia
Far isi
e ku
se kwa
ĠU kanti
bu yisa
Ġaba sebenza
re diyo
qu o
Ġngu rhulumente
der a
Ġdur ing
per s
ĠNa kuba
hlazi ye
Ġese kwe
Ã© s
shici leli
P ub
f ree
t waneni
x umi
Ã Ĳ
la mente
Ġe vumela
Ġuku phatha
ĠI XESHA
ĠU ng
Ġezi the
Ġyoku hlangana
ĠL ang
Ġisi qinisekiso
hlo g
Ġzoku funda
Ġbu suku
ĠJ ersey
shi re
Ġayi zange
Ġenga qhelekanga
Ġinga thi
xhala bisa
kre xe
dlw eng
a bantu
Ġi veki
zi in
si tes
ma va
Ġuku khutshwa
Ġba sa
tho beka
hl elwe
Ġw anga
sh ing
Ġimi miselo
Ġto p
Ġca m
Ġang ena
Ġlin oku
ĠIsiTa mil
B y
f ela
k g
y me
Ġ ja
za lisa
di v
Ġkwe mini
Ġz enziwa
phe qulu
ĠM fono
gi ji
EL ELE
unda tion
Ġlase r
ĠIs land
yiki ma
twe en
ishwanka thelo
S uku
u z
Ġ bonwa
Ġu W
ko ta
Ġs isebenzisa
pha kheji
ĠB ank
ish we
Ġzo khuseleko
Ġyi ya
Ġ5 5
Ġni thi
fri end
Ġey enzelwe
Ka izer
P T
Ġu La
Ġu qonde
ele ss
xa zulu
ĠIsi Hausa
ty elwe
Ġ1 000
Ġza bucala
Ġii fom
ent eni
qin elana
Ġc redit
Ġngokuba mbisana
bula we
Ġus enza
Ġemn andi
ĠIsiKi kuyu
Ġlon to
ĠIsiLu ganda
Ġnu mber
Mala wi
IPH UPHA
socia tion
pheng ulu
Ġeta fileni
A h
c angca
d hi
w hatsapp
Ġ cala
ba thanda
zi zo
za bala
Ġba ck
Ġkwi fowuni
Ġye eng
ing elelo
Ġzoku lwa
Ġyi yiphi
dlu lisa
Ġthe m
Ġni yi
ĠSo lar
dityan iswe
P O
Ġa hambe
mi lo
ĠIsi timela
Ġbe tween
Ġiin tombi
bon ani
Ġ4 1
phel elanga
Ġkuthi we
Yi ba
Ven da
l eleyo
Ġ wu
ka r
Ġo b
ĠA thi
ĠB ha
ĠM ulti
ina ko
phu le
Ġizi zwe
Ġsa id
Ġzo bomi
Ma si
Ġkoku bhaliweyo
Ġnen ye
cwa beni
Ġkuma doda
jeng o
banda yo
lahle kelwe
Ġnanga liphi
des ktop
Ġubha le
Fort une
Ġum cimbi
hi ti
re w
Ġaban omdla
ĠâĢ ¦
Ġnoku hamba
cu wa
ĠV ir
Ġkuma tshini
Ġumn tana
dum isa
Ġekusebenz eni
Ġsteroid s
ĠFilip ina
unja bi
veat rain
A bo
N Y
d dy
Ġu tyalo
Ġi mbono
Ġi lungele
Ġuku nikela
Ġin gc
ts wa
Ġye za
Ġne minyaka
ĠUku mkani
hlu tha
Ġkwin qaku
gi es
guqu lelwe
bing elela
dinga yo
tr on
Ġad min
ssa ge
qubu da
m ishini
p lo
la xy
Ġuku betha
ka mba
ele ta
ĠU hambo
Ġs inike
Ġne endleko
fun go
ĠE S
ĠE m
Ġnoku phucula
ĠT ele
ĠT urkey
gi um
Ġngom lilo
Ndi funa
ĠIsiMa lay
ĠYo ung
str eliya
Ġver sion
pon ent
Argent ina
G C
T hina
a th
t ena
Ġn qanaba
en se
Ġk ra
ma zulwini
Ġuku kwazi
Ġuku vavanya
Ġo sebenza
Ġyo khuseleko
Ġen eneni
mba leki
Ġko lwazi
Ġnoku fa
tsha te
Sa sa
mer s
200 4
hlwa ya
Iing cebiso
ĠngoM gqibelo
Ġi krele
ĠI mephu
Ġwa manzi
mi rates
Ġy engqondo
ĠM zantsi
ĠY om
fi ki
bha yisi
po und
Ġyesi zwe
chu kum
Ġlesi bini
ĠIsiO ssetia
ĠIsiKa zakh
H igh
e ve
an yano
Ġku fi
da yim
Ġwa sebenzisa
tha mbisa
Ġen okuba
mba th
Ġwe bhola
Ġun qwenela
Ġma ku
Ġesi bhedlele
ĠCa magu
Ġbo mntu
Ġan o
Ġd rive
pan eli
ĠuN e
Ġnalo wo
Ð¾Ð ²
Or listat
Ġuqa lise
Ġelun twini
A dapter
L ondolo
s ena
y eneyo
Ġi thathwa
Ġe tempileni
ana se
Ġngoku landelelana
ca tions
wu layo
te kisi
re x
Ġim vula
Ġis isu
bhu lo
Ġ20 00
Ġca sh
AB C
ĠPa ck
buyis ele
PH I
ĠMar keting
una phakade
Tattoo s
L ondon
U the
w isela
Ġi mpazamo
zi ya
Ġuku zenza
Ġin kwenkwe
va me
Ġen yanisweni
Ġm hlaba
Ġsi phila
ani kwa
ce ke
Ġyoku dibanisa
phu ka
Ġoku hle
Ġzoku hambisa
La wula
ES RI
Co fa
velo pment
mbin dini
Ġuco fe
T urkey
o p
Ġku bun
Ġo kwen
Ġnge minyaka
kha lenda
Ġno Yesu
Ġnoku sebenzisa
du ma
Ġlu za
go rith
Ġc ho
khi tshi
Ġubun cinci
cwangc isiweyo
Ġsika Yehova
qaqa wuli
Ko rea
ĠKo rea
fini l
Asi riya
en do
Ġu donga
Ġu hlalutyo
ya thi
Ġuku thunyelwa
Ġne galelo
Ġm m
he fu
tho beli
Ġnoku fumana
inga kho
Ġel ingu
ol ly
Ġban gena
mbu lela
Ġngama va
Ġyom sebenzisi
wel l
Ġex change
kum gangatho
ĠIsiBa tak
roma therapy
ĠIsiGu arani
cca rat
V angeli
W onke
c lass
l elana
Ã ¨
ya thela
Ġama tikiti
Ġizi hloko
ter e
st on
ĠMa y
Ġkukho kelela
mis sion
Ndi za
Ġh ydro
Ġzom thetho
ĠPro ject
ĠKa kade
Ġane sihlanu
ĠIsiLu o
Ngil ani
N igeria
S port
T C
el p
Ġn anye
Ġku ti
Ġye bhola
Ġngoku linganayo
Ġm gama
ĠB ra
Ġisi thunywa
ci an
Ġnjengom ntu
Ġzaba thengi
khwa lithi
yon to
saseC uraÃ§ao
Ġmpa wu
M erika
N kanga
e zin
g ers
on on
Ġuku hlola
mb isi
sa veatrain
gq ungquthela
Ġoku ng
bh unga
ĠO onyana
Ġzoku zi
Ġolu vela
Ġb ho
ĠKu ku
Ġaku ba
Ġzin ike
Ama gama
Ġung enza
ĠTo ol
khwe tha
Ġkwint engiso
Ġzon qulo
dan ts
swele ka
xhum anisi
Ġkhe tho
I misebenzi
y ulu
en cy
Ġu didi
ph er
Ġna yi
the yibhile
Ġnom xholo
olo se
nd lebe
Ġkwen to
Ġ0 8
Ġngokwe si
IC om
con ywa
Ġkung enzeka
lumini yam
Ġengu M
ÑģÐº Ð¸Ð¹
S lot
W est
k qo
Ù Ī
en ces
ma gazini
Ġuku shumayela
and s
Ġkwi venkile
eng iselwano
Ġyo yilo
pho se
Ġel ino
Ġzoku khangela
kun ike
Ġyase C
Ġ8 00
Ġisa belo
Ġend andi
Ġabanga phezu
zenz ele
dus tri
elli te
backlin ks
t wa
la za
Ġi ga
Ġa a
Ġuku phepha
bu keka
ĠN DI
ti l
Ġezi zayo
ani ya
kwa mkela
bha liswa
Ġlu bonisa
ji ke
Ġbakhe tha
Ġubun tu
ĠNgo ba
Ġkween yanga
ĠPi rates
hed yuli
O k
W W
d ya
Ġu Jo
wa rds
li m
ĠU phando
Ġs ent
Ġezi mangalisayo
wu bona
ra ji
Ġkwe sinye
Ġimi phefumlo
Ġsa lo
bonaka liso
ongo lo
Ġnaba fundi
Po int
Ġkuni kwa
Ġeling enam
Ġkwisa yithi
wasa hlobo
YIB H
A u
G D
K we
Ġi is
ma p
Ġuku fundisa
Ġba qala
Ġye sebe
Ġaba qhubi
Ġze mpilo
qu ke
mbi wa
ong ress
ki ti
Ġun der
Ġla lo
ant ongo
ĠUku nga
na me
et rie
Ġbakho lelwa
Nge xesha
ĠEn daweni
Ġsu pp
ando ff
ĠTha tha
ĠeL ondon
sungu lwa
S D
u lic
Ġk hawu
Ġe hla
Ġa k
mi cro
Ġum qondiso
Ġen cwadini
ra cle
Ġl ya
Ġl ina
Ġze zona
Ġma thathu
Ġnto mbi
Ġbo dwa
khon to
chi bi
Ġiint langaniso
onwa bela
200 6
Ð° ÑĤ
ĠIng xelo
Ġgu y
teri al
tyum zi
Ġ ....
Ġu phela
Ġa thethe
Ġa phinde
ĠN oku
de x
Ġwe shumi
Ġza zin
Ġse x
al ly
thanda buzo
Um hla
Ġkwiin dlela
ĠUni on
ĠImi buzo
No wa
Ġweb cam
bhen o
P y
T M
p ra
s ingatha
Ġ ;
Ġu V
da lwe
Ġkun inzi
ĠU didi
ĠA cetate
Ġze webhu
Ġisi tya
al le
yan ya
bho tile
Ġngama doda
Ġkom dlalo
ran antongo
ad dy
HA YIBH
ĠCo fa
sase Bolivia
rus t
Ġona mandla
mpuma langa
hwe bo
c m
Ġku Davide
Ġo phantsi
Ġkw andisa
ĠU suku
Ġyoku setyenziswa
pa sho
Ġyen dlu
ON TO
Ġkwizi fundo
Ġngokwa m
dwe ba
Ġese zantsi
Bha hali
khuph ele
Ġtra in
fuman eni
vis isana
Ġowen ziwe
K us
c ano
n c
z bek
Ġa fe
ĠI candelo
ĠI selula
Ġo s
Ġba fika
mi zwa
Ġs ona
ta mpu
Ġlo bun
tsh ana
Ġloku zalwa
cha ziwe
ĠG PS
st ro
il ing
Ġf lower
bala lisa
Ġyen kampani
ĠYi loo
ĠDi re
Ġnang enxa
hlas eli
Ġukwen ziwa
londolo zo
qulun qwa
ĠngoM vulo
chan ileyo
klini ki
a der
w pub
x el
ele s
bo phelela
bu sika
Ġs ini
khe phe
Ġm usani
Ġno thando
Ġla thi
ene kazi
Ġma xa
Ġzo lawulo
ĠG reen
Ġf riend
Ġkwii mpawu
ĠYa thi
Kha yelitsha
Ko miti
Ġkusen okuba
R IS
z entlalo
Ġ fan
ĠI tyala
ele ct
Ġya zi
he m
ĠC ra
Ġisi khokelo
ge d
wan yama
fumana yo
Ġban d
uku ze
oma sipala
Ġbesi ya
tshabala lise
Ġnokun ciphisa
ĠAr c
tshat ileyo
ĠKA KHULU
c cer
i re
o kelela
q r
Ġ Ø
Ġu beka
wa yi
ĠI D
Ġo semthethweni
ĠU lawulo
Ġs how
Ġya so
hla mbi
ce mbe
tsh ise
gqi tywe
ĠF lo
ĠKu yinto
Ġyi N
Ġban o
Ġkoku fa
Ġkwii mfuno
ĠNgoku fanayo
ĠuM nu
ĠÂ ·
Ġngama gama
zal iswa
ĠIsiK wanyama
Ġ0 6
Li zwe
UM A
Ġasi bhozo
cam ngca
xh un
gula yo
Fili pi
hur ch
Ġilahle ko
etrie ved
Ġu zo
Ġi golide
ma phandleni
Ġuku kunceda
bo m
isi on
Ġaba xhasi
Ġlo kwenza
ci ko
pa t
al onika
Ġolu zenzekelayo
go o
Ġkwii yure
funda yo
ĠIsiS ranantongo
Ġzase khaya
hlazi yiweyo
ime yili
Ġngase kunene
ĠuY eho
ĠAr chi
zalise kisa
katha zo
S inga
h ydra
i ro
z eleli
ko pi
ĠS tudio
Ġbe cala
ĠL wa
Ġubu kho
Ġkuma ziko
Ġunga zi
lis ele
ĠAma doda
ĠIin kqubo
tshat anga
faki we
ĠISi lozi
oki es
ambu zane
Ð ¿
Ġ mbo
ku s
Ġi Mi
Ġuku sika
Ġo hamba
bo le
er si
Ġkwi dolophu
Ġkwi lali
bu chwepheshe
Ġya ya
xa bela
Ġngoku khululekileyo
thu tyana
Ġy anamhlanje
Ġnge zinye
Ġle mveliso
ĠM elika
fa ti
co t
ine thi
Ġ3 9
ĠWa phendula
Um fanekiso
fane kis
line ar
ĠNG O
Re al
anu ary
sind isi
ĠDo wnload
B ona
o te
q an
Ġi fana
Ġku dlala
ĠI C
bo ur
Ġaba the
Ġama bandla
ĠB lythe
Ġbe ba
Ġla a
Ġeli phakathi
mn a
Ġimi qondiso
Ġngum zekelo
Ġnaba qhubi
ir st
ZI KO
He zekile
Ġph esheya
Bu dd
ĠNd and
gon yam
Ġaben zi
case rin
u M
y ne
ma mela
Ġuku buyela
Ġin ama
ĠIsi Venda
Ġaba fileyo
ĠM ini
Ġza manzi
Ġisi qendu
Ġolu landelayo
Ġwo o
Ġing ena
Ġnaba zalwana
Isi xhobo
ĠRe public
kel eni
daka mizwa
gqithis eleyo
gqu ma
gqo ka
Ġngokwezi fiso
A I
in dlela
Ġu tshintshe
ga lela
Ġa z
lu ko
Ġuku yeka
Ġba mbi
fa kelo
ci tho
ĠY ini
Ġnjeng eng
sh iso
khu hlane
Ġim ing
ĠBa ccarat
Ġngoko bu
ĠSi ye
Ġwaye sazi
AN E
Ġunga sebenzisa
Ii mpendulo
ĠIzi bane
ila ble
B hala
J e
Ġn antsi
zi mpu
Ġa thanda
Ġa bone
va da
Ġaba thanda
Ġaba profeti
Ġiin qwelo
Ġzoku coca
il s
at es
kw ela
Ġyom thetho
khatha za
Ġdo wnload
Ġhayi bo
ĠIsiP unjabi
tshat ile
Ġsel f
QA LA
phambu keli
Ġmb andela
pl anethi
W ar
m isipha
} ,
Ġ lung
en okuba
lo vu
Ġuku phazamiseka
Ġng cembe
li an
Ġo fanayo
mi cs
Ġs plit
do dana
Ġm fanekiso
ĠM on
co fa
pho lile
ĠO K
Ġnjeng enxalenye
Ġyen to
pu t
Pa ste
ms g
Ġngesi Ngesi
sel wandle
Th enga
fikelele ka
thin jwa
f fa
Ġu vuyo
Ġe yan
kho hla
zin zulu
Ġye bhanki
Ġimi gangatho
Uku suka
mis sions
phakam ise
Ġngokwe sondo
xhasa yo
vumele kile
godu ka
B ar
b lo
s ki
Ġn tsholongwane
ĠI bhokisi
Ġin tshukumo
Ġkwe sisindo
ĠM c
fi ed
ĠO ffice
Ġlwe mi
ĠH ouse
st ant
Ġngom oya
ĠYa yi
kel elwe
Ġobun inzi
yame zele
hlangan isana
bhekis elele
G E
k m
in iseka
ko p
er r
Ġezi hambelana
sa ge
Ġaba qeqeshi
ĠS in
Ġm zuzu
ĠC ho
ĠL we
Ġndi cela
Ġeku theng
Ġse N
mis try
Ġnemi gaqo
ĠIin dawo
Ngil ane
zimpu zi
D an
M hlawumbi
Q inisekisa
Z welonke
u le
Ġ vidiyo
Ġe F
si hlalo
ka khe
Ġne qabane
Ġum lawuli
de mo
Ġsi jonge
Ġyoku fa
Ġyoku tshintsha
Ġisi ganeko
Ġkoku fumana
onge zelelo
xe kweni
tye bileyo
Lu cas
200 5
qho tyo
Ġus isi
khompyu ter
mel ene
Des ktop
A prili
I vidiyo
W U
Ġu k
za lwane
thi ya
Ġba qonde
Ġezi bandakanya
sa la
Ġama bala
Ġyoku coca
ĠB entley
ĠC e
ĠC ontrol
Ġse mi
Ġis isi
Ġbu za
lw elo
Ġngama tye
kis tan
Lo wo
ingu bo
mbho bho
xubu sha
E urope
\ "
d ra
f y
Ġu Bawo
be s
Ġba zama
eng th
ani c
Ġza le
ĠP ol
ar is
ja melana
Ġloku hlambela
bun jwa
Ġzo Bukumkani
Ġkwin kampani
qh ina
Ġnom thetho
Ġ5 000
Ġ4 4
IN GA
hlas elo
Ġkubu ya
khun ju
Cha r
ĠVal ley
thatya thwa
b ina
l f
l ant
Ġk now
Ġku qinisekisa
Ġku thathwa
lu lo
to wn
zin wele
Ġye Zi
Ġya ziwa
sa wu
ĠA sia
Ġsi cinga
mp ulu
Ġno ma
Ġko mbane
Ġli ku
ĠT er
ch ongwa
vu ke
ĠNdi yi
tra tweni
phin d
ond lebe
las tic
lahle kileyo
ĠTrain ing
IF A
Njeng okuba
Ġms g
sonde za
phequlu li
dants ane
B ur
p lani
Ġu fumene
Ġu rhwebo
yo Kwindla
Ġngo ma
ĠB AB
Ġza kudala
phu lwa
Ġeku fumaneni
vum elani
Ġon ly
Ġnen ani
Ġ4 2
guqu lelwa
Sa ra
Ġkwen yanga
ff ff
Ġzee N
Ġukwa hlula
Kha wu
phucu le
ase thi
melo di
P at
Ġ hle
li bala
Ġo okumkani
yi qonda
Ġin tsha
ben zi
kan uko
Ġezi thandwayo
ng oko
Ġezin qabileyo
Ġw el
man ci
Ġma chine
Ġse ries
Ġwen ziwe
ĠMa il
ĠIsiK urdish
Ġemi tsha
wun di
ĠFa ka
pto p
ĠIsiTa hiti
Za po
ququ zelela
% ,
O o
d anda
e pali
Ġu lungele
Ġu ceba
is elweyo
Ġku sebenzisa
Ġku fike
di gital
be ki
ĠU ye
Ġs creen
Ġaba thathi
Ġz isebenzisa
ĠC lub
Ġno T
Ġbe t
Ġbe ca
ĠUku sebenza
po re
ĠO ff
Ġwoku zalwa
ĠIsiK ongo
ĠQ inisekisa
ĠRe d
dia c
Co il
mpu tha
?âĢĿ +
Ġeling undoqo
Ġfi rst
rit z
gqu bu
julu lwa
qongo phala
Samo a
gonyam elo
. âĢĭâĢĶ
s eli
Ġi landelayo
Ġi qulethe
Ġa sebenza
ĠA men
Ġbe bhola
me mo
ĠT sha
bun ga
xha swe
ĠNgoku tsho
id dle
Ġukun di
Ðµ ÑĤ
ĠLi fe
ĠIsiP ersi
pr ise
ĠLight ing
Sh ishini
phan eli
cie ty
HAYIBH ILE
M y
u ya
in jini
Ġn in
Ġba de
ĠU V
ĠA rt
Ġze vidiyo
Ġama phupha
Ġwe ma
Ġbe sa
Ġla ku
sh en
Uku nga
Ġloku dlala
ĠF un
ĠV IP
oma thotholo
Ġkwimi ba
ĠIsiN epali
rg er
Ġta ble
OM G
tshintsh ela
xy gen
esh oni
Ġbhe tele
D aniyeli
N UMX
m fihlo
Ġ bha
Ġ bhanya
Ġu cele
on k
Ġa sebenze
Ġa cetate
lu k
ĠN dingu
ĠK unga
Ġen code
ĠA prili
ĠS il
Ġkwe gazi
Ġnge zo
us tri
Ġloku hlala
Ġ" );
Ġb hu
ĠKu ma
ĠNgoku nga
ul t
Pa ssage
Se kela
Ġ7 0
Ġkuka Yehova
Ġandi zange
sele cted
En kosi
Nd andi
ĠIsiO romo
tifike ti
Ġink angeleko
hlolis isa
Ġezinge kho
ĠProdu ction
Ġuhl angothi
Ġkam sinya
Copy Paste
B I
I mveliso
N et
z mir
lu sa
Ġum mandla
ĠA kunjalo
Ġyoku ngena
ĠE zo
ĠB ur
ĠC an
ĠL at
Ġisi qhamo
ĠW OKU
po ts
ĠO kun
ĠF in
Ġwo bomi
Ġnda ya
Ġkwii marike
ĠYa ma
ĠAba fundi
Ġzika rhulumente
UR ICom
Ġenoku thi
ĠPar is
URICom ponent
: +
i ri
i tura
Ġ testosterone
Ġe gazini
Ġku rhulumente
Ġa sin
to ken
Ġwa phinda
ĠU yazi
bu bele
Ġngoku khuselekileyo
Ġsi funda
ci lelwe
Ġc rossRef
men de
Ġwam kelekile
est rogen
pr int
Ġ! =
cross Ref
Ġkungen jalo
Ġcal celSelect
Ġste el
Ġtext Selected
Ġlock CopyPaste
add Range
Ġencode URIComponent
selected Passage
H eb
K hala
V ir
Ġu Ha
mb oni
mb ers
Ġwa gqiba
Ġba la
Ġne G
Ġaba thembekileyo
qa tsh
Ġy u
Ġy enzeke
qu mbo
phe thwe
mba mba
ĠB ig
or ge
Ġisi ko
EL I
Ġkwiin konzo
Ġkwiin kcukacha
com o
ced ise
ding i
Iin kcukacha
Ġpro du
Ġngobu khulu
Or lando
A do
S M
Ġ ter
ku tha
el le
le kileyo
bo ok
ang en
Ġaba bhali
Ġngo thando
Ġwe mka
ĠL ika
Ġisi tyumzi
Ġeli m
Ġzen dlela
ĠSta r
ĠuS amuweli
Ġise ti
Ġlun oku
Ġj ust
qamle zweni
Zapo tec
N okuba
S kype
f oni
k le
Ġ ë
Ġu khona
Ġku sithiwa
ma ll
bu lele
ĠA manye
Ġka de
Ġama khwenkwe
ĠC A
Ġno w
ĠNg um
qo kelele
Ġaku si
mpa si
oo tro
guqu le
Lu fefe
bing elelweni
tr one
Ġho me
Ġsika Thixo
ĠCh inese
Ġokwe si
muni ty
Amer ican
B un
Ð ±
zi i
kwa belana
ĠT y
gu lo
Ġimi zuzwana
onga mi
qhu ma
Ġkwin ani
Ġint simi
Ġkwiin kampani
13 0
Ġwaza lwa
Ġesin cinci
Ġolun zulu
ĠFi x
funyen weyo
Fe der
ĠFo undation
mpo stile
Ġlwanga phakathi
ĠGir ls
D O
N YE
a si
b be
Ġe Si
ga lele
Ġuku coca
Ġz engqondo
or y
Ġesi vela
lule kileyo
qinise kis
Ġnd enza
bhe ham
Ng eli
Ġkan jani
bum fihlo
Ph um
then da
I Mi
J i
N antsi
n oku
Ġo zayo
ca go
Ġm on
Ġze golide
ĠM unici
Ġbe s
ĠUku thengisa
Ġoku qala
bh inethi
Ġnjeng es
wan ondlebe
il ding
ĠZ E
ling e
khus eli
ver ter
Ġint simbi
Ha ber
qolo wa
ï¼ Į
Du teronomi
Ġekhu lwini
PIV X
page Pix
e be
e thiwekhi
Ġu Pi
Ġu landele
wa r
Ġuku buza
Ġs q
ĠK welinye
ĠS isi
ĠS cra
Ġyoku jonga
Ġyoku hlawula
ki a
Ġnoku kwazi
Ġnoku velisa
ĠUku phucula
mo vie
Ġimi zimba
Ġzoku gqibela
lin k
Ġkuma shishini
Ġukun yusa
Ġ0 9
ĠNgo xa
Ġkwizi xhobo
ĠBe ach
Ġukuyi la
Ġesis iseko
qulun qa
ĠngoLwe sihlanu
yike kayo
A rhente
in less
Ġe mp
Ġuku tsala
Ġuku lungelelanisa
Ġwa beka
ĠN u
Ġm fo
kha zi
co bo
qo ba
ĠG od
Ġthe se
Ġde posit
Ġpa rt
IM A
Ja va
Ġsu per
zing ela
coce kile
Efra yim
Ġelingenam miselo
A ra
N O
S pe
m ultimedia
ga ya
Ġuku hlaselwa
Ġng xi
bu kele
Ġezi bonisa
Ġaba m
Ġsi hlala
Ġama bhinqa
Ġli vela
Ġngen yameko
Ġloku coca
Ġzo mntu
Ġwoku n
ver s
Ġnaba zali
ĠNga yo
Isi khokelo
Nge thuba
ĠOn ke
ĠSer vo
Cha za
ĠCh ris
qhankqala zo
Å ¾
lo bi
Ġkwi fayile
ĠN am
ta re
om n
Ġze eng
Ġama khaya
Ġama sebe
Ġama qanda
Ġama futha
ong we
Ġbe senza
tsha ja
ant yi
Ġizi khokelo
Ġeku khu
Ġloku hamba
Ġwo uld
Ġnaba thengi
Ġaka kwazi
Ġyama zwe
ĠÐ ´
Ġebu deni
Ġdi gital
Ġkween dlela
Ġiso fthiwe
Eku beni
ĠJack pot
A sh
O ffice
c ture
Ġi bango
Ġe Ca
ga tion
Ġa lishumi
Ġo balaseleyo
ele kisa
kho kelayo
ĠU loliwe
Ġye so
pha luka
the mati
ta i
Ġen kosi
ce di
Ġezin gcono
Ġii webhusayithi
bi o
Ġndi bona
ish ina
ĠR es
Ġing um
ps y
as on
Ga lili
Re ply
Ġuba mbe
qong eni
Ġekwa kheni
saseC ongo
Ġaben za
ĠAs sociation
f lu
o pa
ye s
Ġi fumana
Ġku lapho
ga on
Ġuku tyelela
ĠI V
Ġezi ze
Ġngoku ya
ĠA KU
ĠS am
kwa yo
Ġezin zulu
ĠL A
Ġma tch
ĠUm gangatho
Ġngum oya
Ġneen tombi
cing ela
ding e
ding eka
pla y
sond ele
xake kile
qwenele kayo
L I
O kwangoku
W ena
W orld
z h
Ñ Ī
ku funeka
Ġn cam
Ġi ph
Ġo wu
and rogen
zo t
Ġnga xeshanye
Ġezin gq
ĠB ro
Ġbe hlabathi
Ġii venkile
pho to
Ġesi xhenxe
Uku tya
wan iso
esu ka
guqu guqukayo
Ġnezi lwanyana
zal wan
Yo h
Ġ0 3
Ġzezi lwanyana
Ġuqinise ke
I za
M ongameli
O streliya
Q ela
S H
S tar
q eni
Å ¡
Ġn ye
Ġi khosi
Ġku senoku
kh ungu
Ġuku thembeka
Ġwa phendula
Ġba qhubeka
Ġum ng
iso dwa
Ġze B
Ġze C
Ġama xhoba
ĠL ady
mo us
ĠIn doda
ĠF u
cu a
xha ka
Ġngum thetho
khawule ze
Ġung en
Iin kqubo
Ngo kwe
ĠIN DLELA
ququ zeleli
Ġpla yer
U ze
d ene
g lo
Ġu Le
kh anda
om u
Ġz elanga
ĠL ONTO
Ġisi Ngesi
ĠUku tya
ĠW A
Ġndi kwazi
sin ess
Ġolu jikelezayo
Ġuya si
oo t
kis wano
He y
Ġyobu gcisa
ĠuMa riya
Ġex peri
Ġeline sibhozo
ĠIsiU zbek
ĠPha mbi
Ġezisi bhozo
yanzele kanga
trict ly
en der
Ġuku lahlekelwa
Ġngoku phindaphindiweyo
Ġl elona
ĠB lue
ĠB razil
Ġwe s
Ġbe thetha
tsh we
Ġsa le
Ġes ona
Ġngom n
Ġyesi qhelo
Pa ul
TH O
ĠMe dical
Ġuba wo
Ph ando
ĠNge thuba
Ġelu dongeni
ĠNjeng o
HO LO
dli wanondlebe
! "
f le
m sebenzi
w p
z hou
Ġ q
Ġi ta
oku gqibela
Ġo gqibeleleyo
Ġwa chaza
Ġum hlala
Ġm ulti
ĠB roadcast
phu zu
Ġma ma
al and
Ġez isebenzayo
Ġing caciso
AN GA
Ġnemi fanekiso
Ġkwimi thombo
Ġiz andi
Ġoo thixo
Ġang undoqo
ĠIs isombululo
UT Y
Ġabu yele
THETH O
zot zil
U suku
W il
x isa
Ġu Ga
Ġu phume
th ongo
Ġi jija
Ġe va
Ġe xt
Ġe jongene
kho lwayo
Ġye xabiso
Ġne T
Ġum thandazo
kan ya
Ġm l
phe tha
xo lelwa
Ġisi za
ĠP he
Ġeku phuhl
al isa
thwa le
Ġnee d
ĠIsiT zotzil
hlang ane
Ġung o
Ġyama va
Ġyama tyala
Ġda y
.âĢĻ +
ĠeN tsha
ĠTi ps
dli wa
Ġwani kela
p thi
ku yo
Ġa uto
Ġo khethekileyo
ana l
Ġkwa mehlo
Ġna la
ti tle
Ġezi quka
Ġlo lawulo
Ġsi khulu
Ġze mveli
ty hefu
xo ka
Ġnoku qonda
ĠIn dia
Ġngum dlali
AN DA
jo la
ĠZi ya
ĠKun ge
Jam es
ĠInt engiso
tt le
Ġiingu qu
hlambulu kileyo
mbho xo
dayim ani
Ġhle ze
' [
C an
c rea
c rypto
Ġu ben
ya weni
Ġuku qalisa
Ġin dlebe
Ġyo rhwebo
ti an
ĠE state
Ġwe va
fi kela
vum el
Ġnen tombi
ĠUm zobo
ĠBa za
hamb ise
ne uro
Ġanga phezu
ĠIsiS ango
ĠYi ya
Ġga y
ĠEx change
ĠGer many
Ã³ n
N S
U kanti
Ġ hamba
Ġu faka
Ġu fike
Ġe webhu
Ġku fikelela
ĠI ma
ĠI moto
ĠI mpendulo
Ġka thathu
Ġze S
Ġzi fumaneka
Ġli yi
elwa yo
Ma p
lin es
Ġwoku dla
fumane ki
ĠuM tyholi
qi qa
Ġpa ra
Ġuzi misele
Ġoo titshala
FUN EKA
Ġalu mini
Eku qaleni
Kho rona
lima la
bumn andi
Ġngokubhekis ele
ĠiPa d
QINISEK ISO
SEB ENZI
hilipp ines
C P
D is
i co
l g
n on
p se
Ù Ĩ
an ts
Ġi dolophu
zi mali
ma zantsi
Ġo wo
kho hl
Ġwa buya
Ġya bona
ĠS pin
Ġz isetyenziswa
Ġwe S
Ġwe xesha
Ġbe se
bi wa
bon isana
Uku sebenza
qh wi
ĠSta rs
ĠIng xaki
ĠNjeng om
gxinin ise
layis enisi
Ġuhla wule
ULE K
Ġzaku tshanje
dlweng ula
T ho
W el
c ontent
u ch
u mbono
en da
Ġku fumaneka
kh rasi
Ġba phile
hla bela
Ġ( "
ĠS an
Ġz an
Ġama joni
ĠUku tshintsha
Ġesi pheleleyo
cha zi
Ġkwin dalo
Ġiya qhubeka
Ġenga bonakaliyo
mini kelo
Ġnemi thetho
wanga li
ziso la
ĠTa ble
-- --
swe kile
ug ust
Webhu sayithi
dustri al
C inga
e z
g wele
g est
y elo
y isiweyo
Ġ qua
in tshi
Ġn is
Ġi po
ma gic
ele ktroniki
Ġne datha
Ġne yoku
xa kini
Ġwe zinto
hlo melo
hlu phe
Ġsa wo
Ġolu the
ĠH all
enzi weyo
Ġnda yi
kw ang
khang eli
ĠIsiK wangali
Ġowa thi
Ġr ela
Ð¾ Ð»
Ġyee N
Ġnobu bele
profe ta
tyo tyo
Ġiim fundiso
l Ä±
q ine
v ane
Ġ gqi
Ġ dolophu
ku the
en ry
Ġi ise
Ġi Sa
Ġa la
Ġa thetha
Ġuku funa
Ġwa buyela
Ġkwi xabiso
mi tter
Ġze midlalo
Ġli zwi
wi la
Ġsa za
eka riya
ĠR oulette
ry stal
Ku balulekile
Ġni m
onwa ba
Ġisa ziso
KH US
Kwi minyaka
Ġonoku thi
AC T
Ġeziyi mfuneko
Ġvi r
Ġifom u
J ON
M ini
R u
T R
X eko
q ileyo
s mart
Ġku lwa
Ġin hibi
Ġwa mnika
pha mb
kan ini
ca weni
mp ondo
mp ompo
Ġw ell
Ġem tshatweni
Ġimi thwalo
go t
Ġni the
zal we
Ġ6 00
Ġiza belo
Ġth an
ĠX A
tter y
Ġfi ber
ĠCh ristmas
Kho leji
Ġyon yango
Ġele ct
lungelelan iswa
Qa phela
C G
u ter
Ġu qoqosho
Ġi vu
Ġe gqibeleleyo
Ġuku khulisa
li la
Ġwa lu
Ġwa be
Ġba r
Ġs y
Ġaba kwi
Ġkwe vidiyo
Ġsi the
Ġno xolo
Ġaban g
Ġla zo
ĠT witter
bha ta
Ġolu ya
Ng xelo
hlawu lelwa
cing i
ĠEn ter
Ġngobu chule
ĠNd in
Seben zi
phazam ise
Ġap ps
chni cal
M nga
U E
a to
Ã ±
Ġ mbono
el ler
is sue
lo ws
Ġwa dala
Ġwa cela
Ġwa dibana
ĠU shiye
bu khali
Ġne yona
ĠK anjalo
ĠA manzi
Ġze dijithali
Ġyoku lwa
Ġw ant
ĠL LC
Ġnjeng endawo
Ġeku bon
je thi
guqu leli
khan ka
Ġend inga
Ġebu sika
Ġha d
Wa termark
Ġoyi thandayo
Ġmn yama
tyho la
fudu mala
Lung isa
Cwangc iso
layi brari
ĠâĦ ¢
Ripha bli
? ?
y le
Ø ±
is aneni
Ġku mb
Ġng un
Ġye Vidiyo
Ġya ko
ĠIsi Samoa
Ġaba sa
Ġl ong
Ġsi bonisa
ĠM al
Ġii khamera
ĠUku zi
co lor
Ġeku da
eho lide
Uku zi
cu ba
zu kisa
Ġubu ya
Ġban gama
ĠV ac
Ġukun xibelelana
Ġnesi bindi
Ġyaba sebenzi
Ġiz iseko
Ġnanga phandle
Ġiye za
Ġimini kelo
ĠuY ona
tsi ba
Ġomn cinane
Ġwani ka
dong we
Ġbit coin
khanga yo
ĠIsiBi col
M I
U mbala
i ki
t est
el wanga
Ġn tsuku
ba leka
Ġi bhodi
Ġa phakamileyo
Ġuku bulala
Ġuku fezekisa
Ġo on
Ġkw and
Ġye yo
Ġne mpahla
ca ted
ri g
bi c
co tt
Ġma zi
Ġis is
ĠZ ininzi
Ġukun yamezela
khatha lela
EK ISO
ont le
ĠSo lutions
KH ONA
qhubeke ka
Ġpho fu
qhen qa
tson ko
k ru
s pi
en ko
Ġi phulo
Ġi rekhodi
Ġye cala
ti onary
om ileyo
Ġezi mnyama
Ġsi zini
ki ya
hl in
Ġnoku gcinwa
fi eld
ch um
Ġse mali
yu se
Ġuya vuma
il ly
Ð½ Ð¾
ĠIsiN donga
Ġkuyi lo
lungelel aniso
Ġbi ll
Ġangama shumi
Ġakwa Sirayeli
I Yunivesithi
N D
N J
Ù ħ
Ġe Q
Ġe fumaneka
Ġuku fakwa
Ġkw ano
Ġwa wun
Ġna man
Ġne se
hla ku
Ġnga bantwana
om ini
om tsalane
Ġezi thi
re al
Ġze mfundo
Ġisi khumba
man yano
ĠNg endlela
du li
Ġloku phila
cha sa
thanda zela
mpa pasho
ly n
ne ws
Ġ6 5
Ġulwa phulo
Ġshe et
rhox iswa
Ġumbho bho
F O
la to
Ġi leta
Ġku phando
bo leka
ts u
om sebenzi
hi r
Ġen je
Ġaba phulaphuli
Ġyoku cinga
Ġyoku thumela
Ġisi thembiso
Ġeku fund
Ġimi lenze
Ġziya kwazi
kra zula
etro fit
Ġlobu shushu
ĠuY ise
Ġti ps
logi cal
E uro
S MPTE
Ñ ĸ
Ġ ÑĤ
Ġe bhaliweyo
ĠI be
Ġngoku hambelana
sa t
tsh inga
ĠUku lungiswa
ĠIn kxaso
In qaku
Ġkwin konzo
Ġngum sindo
ĠSi gn
Ġkwizi kolo
Ġazi kho
Ġme dia
ĠCha mpi
UT M
ĠIsiSwa ti
Ġkwela se
A luminium
p pi
q ing
Ġ ishumi
Ġu b
Ġu thabathe
th s
Ġuku phela
ulu lo
Ġaba selula
Ġy angempela
Ġezin gcwele
ĠM il
tsh iswe
ĠKu bonakala
Ġwen dlu
pe d
gun doqo
Ġnobu suku
Iin konzo
rit ish
Ġkwisa khiwo
ĠGer man
cul ty
rhox isa
thaka zel
K wen
W all
o lu
w is
w um
w ise
Ġi zulu
Ġkw angoku
es eli
om an
te ch
ĠS p
Ġsi ganeko
Ġno wa
ĠP ub
Ġeku phucu
cha si
Ġim funo
tsho yo
Ku fakwe
gra phic
Ba y
Ġmo st
Ġlika Yesu
Ġngobu so
Ya ye
ĠNor th
aster n
zabala zo
H indi
h in
m elela
m vumi
y mara
Ġ vu
Ġu vela
Ġi xhomekeke
Ġku fakwa
Ġba mbalwa
hla hla
Ġl enza
Ġze xesha
phu culo
fi hle
Ġimi mandla
Ġb ela
Ġyi loo
kwe thu
Ġlwa lo
Ġ4 6
Ġyen komo
Um gaqo
Ġenga phantsi
Li ve
Ġlwen kqubo
Ġbuka Yehova
Ġeni ka
Ġukubu keka
khiqi zi
Tha tha
phengulu li
E preli
H z
k Ã©
Ġn ong
Ġu shiye
Ġu khumbule
Ġi gosa
Ġba senoku
Ġngoku tsho
Ġen zulu
ty eli
ĠUku sasazwa
co lileyo
ĠH i
xha phaza
ver se
Ġneen kampani
Ġlesi thathu
Ðµ ÑĢ
Ð° Ð»
che d
ĠNgom hla
Ġinc lu
loso fi
Ġezisem gangathweni
M O
N E
Ã º
Ġu phi
th ers
Ġe philayo
Ġkwa zi
Ġye phondo
Ġs eng
ĠK ronike
ra thi
Ġezin dala
Ġli lungu
pa ra
ĠF S
ĠD vd
Ġkum xholo
IN A
lis m
eri ya
Ġbeku ya
ĠIsiG un
ãĥ¼ ãĤ
A po
L or
m iswa
Ù Ĭ
Ġ que
Ġu dibanise
ba xa
ye bo
zi bini
ga in
Ġa kwi
Ġa fter
we vu
li bale
Ġye selula
ti Mnga
Ġngoku ngena
Ġaba hle
Ġkwe misebenzi
Ġze zinye
ĠE T
mp ula
Ġaban ini
Ġisi dima
Ġoku thile
ĠD oll
ĠJ anuary
Um dlalo
gca wu
Ġwaza ma
Ġwesi zwe
Kwi meko
Ġho w
reen land
cheng eni
shing ton
ĠOK ANYE
R AD
a kukho
f onti
q hayi
s c
s pam
v on
Ġu bonakala
Ġi bala
Ġi dlala
Ġi khangela
Ġku l
Ġye Mveliso
mi d
Ġne thuba
Ġum lenze
Ġaba mbalwa
re ji
Ġm yalelo
Ġzi int
Ġle s
tho bha
ki e
bon ele
bha lise
bh on
ĠF rench
Ġukun yanga
Ndi cinga
mele ki
ĠSa se
Ġnobu khulu
Ġkwezo politiko
ple x
Ġsama polisa
bhili yoni
luk wano
E r
O racle
P I
e ce
Ġi tyeya
ya th
Ġin komo
Ġba fanele
ty iswe
ĠC hurch
Ġno mbono
Ġeli lodwa
ĠP M
ĠH al
mbe thi
men ti
Ġey ing
vo lution
Ġobu tsha
Ġkwizi phumo
TH U
ĠIsiA ymara
Wa thi
Ġkunga bi
Ġngokun yanisekileyo
Ġngase se
ishi ye
tshintsh ile
ĠTi m
anam hla
cama th
sungu li
khawu lela
qeng qele
I taly
b isana
c la
f li
t xt
z y
Ġu bume
ba balo
is elela
Ġe ph
Ġku bi
Ġuku zonwabisa
ĠI khamera
ho g
Ġwa sebenza
Ġna loo
ĠK ong
ĠIsi zathu
Ġngoku hamba
do or
Ġyoku khusela
Ġisi zini
ĠO mkhulu
ĠF ebruwari
âĢĻ .
Ġnom fanekiso
ĠNdi yazi
phel weni
Ġbabe za
ed bank
ĠIsiMa ya
Ġikho mpyutha
khwa ma
-- -
Ġeba leni
ĠKwaku theni
ĠEyoM qungu
Portu gal
themati ka
B HA
X esha
s pe
u lo
Ġ phawu
wa zana
Ġi thathe
Ġku va
li zo
ĠU yilo
Ġya mehlo
Ġyo Bukumkani
Ġezi gidi
Ġaba kwazi
te tela
Ġka kade
Ġm fana
Ġyoku khetha
ĠB et
Ġwe dwa
ina wa
Ġbe xesha
Ġbe zinto
Ġiin xalenye
ĠP ress
al is
In cwadi
Ġc le
Ġnama qela
Ġiing cango
Ġso ze
ĠIsiK anna
Ġyama doda
oya l
Ġang ene
ĠNda thi
Ġhe a
Ġukuli bala
ĠIsiKanna da
b rand
Ġ phulo
Ġu lungile
is ileyo
Ġe phawu
Ġuku phumeza
ph ere
be re
zin za
Ġye H
mi la
mi thi
ca sh
ĠA li
Ġzi lungele
Ġno phando
In dlu
Ġes isodwa
sha fati
kw ini
ig n
Ġkan inzi
Ii mveliso
AB O
Ġulu su
khosi kazi
Ġweb sites
Ġone si
ĠTh engiswa
Bi ology
ĠIsiO tetela
QH UTY
SP Y
ĠRay Haber
/ .
F in
b n
Ñ İ
Ġi xhoba
on du
Ġe very
Ġa ir
Ġa phume
Ġuku phuculwa
da finil
Ġyo lu
Ġaba khethiweyo
Ġyoku paka
khulu lwe
ĠW hite
ch es
Ġimi thandazo
âĢĻ ?
min istra
Ġzin gena
yis hiya
ut es
gon ywa
Eng els
thulu zi
peyin ti
ilwa y
ĠenguM ongami
B rown
N an
w iso
Ġu xo
Ġi con
Ġe vu
zi buza
Ġku boniswe
ela yis
li d
Ġo sem
es enti
Ġye gazi
ĠN do
Ġne themba
Ġezi hlala
Ġm ngeni
Ġsi gqibo
Ġz enzeke
Ġyoku khula
mba tha
Ġezin de
ĠB log
Ġwe Bhayibhile
ong ela
Ġisi bane
ĠNg enye
ter a
Ġlu hlu
ol weni
Ġkwin tsapho
Ġnom zimba
Ġing xolo
khawule zisa
pi a
Ġukun qanda
ran ce
ĠQ ala
Ġlwen u
lon elo
thint ele
Ġman y
pt eni
HO VA
IZ e
Qe qesho
sifa zane
L anga
c ane
r ont
u Thixo
× ¨
Ġ ru
on ce
Ġku mnandi
Ġa kan
Ġa mnandi
Ġuku qikelela
Ġuku chaneka
ko moya
di po
Ġkwa bantwana
ang me
Ġngoku tya
ra gua
Ġaba sebenzisa
Ġezin d
ĠM usani
Ġli phezulu
Ġesi mele
qo ko
Ġlwe gazi
am er
Ġngum fazi
ĠSi mahla
IN QAKU
ne xt
qha qha
gen cy
jikele zisa
Ġezise kelwe
tshabala lo
Ġava ilable
qhotyo sh
s eng
Ġn onyana
en ni
Ġi p
Ġi isi
Ġe phethe
Ġa gu
Ġa mele
Ġo phambili
to ria
Ġin ene
Ġwa bu
Ġba hambe
Ġezi chanekileyo
ĠA b
ĠA luminium
Ġimi qathango
Ġubu chwepheshe
Ġkuku nga
ĠAba zali
langa zelela
ano py
Ġt wo
Ġzezi phi
Ing l
Ġezise mthethweni
Ġgo od
ĠUbun gakanani
qhel anisa
katha lo
ĠDes ktop
A K
K anye
Q GIS
k cen
Î ±
Ġu John
ye mbezi
Ġuku vu
Ġuku layisha
li bali
kho yili
Ġwa ko
mba sa
ĠL and
Ġisi hlwele
Ġla st
fi losofi
In jongo
Ġim fundiso
Ġnaba thengisi
Ġiing elosi
ĠIsiC hu
Ġ0 4
tes hi
Ġas inaku
sho rensi
sase Zimbabwe
YE HOVA
ii foto
gqa tswa
ĠTe ch
ĠGe ospatial
ĠIsiLu vale
place ment
xil ongo
ĠSci ence
P hoto
U thando
a va
h um
Ġu Ro
Ġu THIXO
Ġi gqwetha
Ġi vili
Ġe chazwe
Ġa hamba
Ġa bonisa
Ġuku cacisa
Ġin kosikazi
ho use
Ġkwi bhokisi
mi bini
Ġaba suka
te ksi
Ġma xesha
ĠO m
Ġse minyaka
Ġis enoku
Ġwo kwenza
Ku lo
Ġobu de
Ġ0 5
kr wada
Ġyezi lwanyana
Ġemn qamlezweni
vus elele
jen da
Ġnon ina
Ġungum ntu
UMX HOLO
kri pthi
ĠNgeli xa
omet ri
Ġanda zi
Ġnet work
F rench
I r
I zin
u th
Ġ Ñĥ
Ġu kwan
Ġi zisa
Ġi gcinwe
Ġi pesenti
Ġe chaza
ĠI T
isa yi
ĠU matshini
Ġl inye
ĠS ports
Ġze Mveliso
ĠY ingakho
ene zu
Ġzin o
wele ka
Ġing elosi
Ġkuma phepha
Um zobo
bel wana
hamb isana
suku ba
Ġyam andulo
Ġyayi za
Ġebe zi
Ta galog
dlel eni
Ġukunga bikho
hlangan iswe
tshintsh iselana
qesh isa
ĠIsiD angme
tyhu bhu
Ġngobun inzi
lori da
ĠnoE va
] ]
c un
u bhi
ku ko
Ġi dinga
on yango
Ġku lawula
Ġa ying
si m
si za
di ol
Ġezi funa
ro ka
kwa zisa
mp ile
ong an
Ġw elizwe
ĠL oku
Ġiin kwenkwezi
Ġem in
ĠNg elishwa
hlo lwe
Ġc y
.âĢĿ âĢĭâĢĶ
Ġnom onde
Ġwo ba
Ġp res
Ġkwiin kalo
zini kele
ĠAba xhasi
ĠÐ ¼
Ca we
Ġkwee meko
An ti
Ġzika wonke
vun ywa
Ġiso ftware
ngciphe kweni
Ġver y
ĠQa phela
err ero
A c
z ya
Ġ isebenzise
Ġi wa
Ġi gcina
ya kho
kho hlisa
Ġba beng
Ġnga manqaku
xa keka
ng enxa
ĠA ustralia
ro o
Ġezin jeng
kha bhoni
Ġun limited
ĠP addy
Uku qwalasela
cha rd
mbo mbo
Ġp ra
Ġanga ba
Ga di
Ġlama waka
tt en
gqu ba
cor onavirus
Ġkha ya
Per si
ĠCertifi cation
ĠKunge kudala
" )
7 00
A A
G cisa
K um
S amsung
in kqubo
Ġn xalenye
Ġu bisi
Ġuku lahleka
bu yeke
Ġna so
Ġna bemi
Ġyoku khanya
ĠE phakamileyo
kha yo
ina tion
ja rati
Uku khanya
Ġloku ngena
Ġyi Bhayibhile
yan iswa
olo gical
Sa yensi
ĠNga phezulu
com ekayo
Ba fana
ĠAba fazi
Ġpa pa
ĠiN dumiso
xulu mano
ĠNGOKU GQIBELA
Ġikhe fu
voca voca
rel and
risi mesi
Back pagePix
H S
a kho
b onke
d anduluka
Ġu qikelelo
Ġku phele
Ġo sisi
Ġaba qhelekileyo
Ġama bhaso
Ġngo xolo
mp umlo
Ġaban da
bon isi
ĠP ra
Ġndi bone
sh er
Ġel ona
Ġlwe hlabathi
cha ziweyo
Ġban twana
Ġso kwenza
Ġent an
Ġkween wele
cel la
cre w
Ġkuse kho
ĠEL ING
Ab sa
N gama
W at
r r
w eng
ku pheleni
Ġi bangela
Ġi Yerusalem
Ġe ve
Ġa sebenzise
mb ling
Ġba dlale
ĠU kwazi
bu chule
ĠK ula
Ġ( )
Ġm Fortune
Ġezin dle
ĠB anga
Ġuya yazi
enga li
Um dlali
Ġbazi ve
Ġngon onophelo
ĠKusen okwenzeka
E U
O li
f la
ba ti
ba ric
is lama
yo ta
Ġuku phinda
Ġuku hlela
Ġuku sombulula
ho st
Ġezi mhlophe
ĠA cademy
Ġl onyaka
Ġama cebiso
ĠM artin
Ġwe T
lwa re
Ġno S
ĠY ongeza
In yaniso
enz elwa
Ġes eleyo
Ġp lay
lis t
Ġngaba hlobo
Ġisa khelo
jo yine
khatha li
Ġene e
ind isa
ãĥ ³
konge zwa
Ġbeng ena
Ġnk qo
fayi bha
a liti
h ela
i e
m ngeni
Ġe Rashiya
Ġku landelayo
Ġku xhomekeka
ha di
Ġuku thobela
Ġya be
hi ye
ĠIsi Waray
Ġkwe xabiso
Ġzi phumo
Ġama qabane
Ġwe sa
Ġbe autiful
Ġiin qununu
Ġli gama
Ġesi bingelelweni
Ġeku khan
ĠMa t
bhe tye
Ġon omdla
ĠUm hla
oo o
qi qweni
Ġan omdla
Ġ7 5
Ġbaka Yesu
Ġngokwe e
EK I
ĠImi fanekiso
Ta ta
OM I
AMA ZIKO
Vu kani
A dam
B ra
B usiness
C S
D vd
I mfazwe
Q o
f ene
t umente
u tu
th ani
Ġe bhalwe
Ġe thandwayo
Ġa phambili
Ġa hlawule
bo s
be the
er gy
Ġm hle
Ġza za
sh ela
ĠKu thetha
bhe ke
hlan hla
ver sal
Me tal
Ġngokwe sini
Ġelin yukayo
ont in
tan ki
buyis elwe
bonwa kude
Ban tu
W estern
l elwano
m zi
la ita
Ġi Chiefs
Ġe dlala
Ġku setyenziswe
si lela
ma ry
Ġuku khawuleza
ko hlakalo
Ġba thethe
Ġs an
ti m
Ġaba thunywa
Ġy and
ri cella
gq olo
Ġnoku funda
ĠW oku
Ġndi thetha
po ration
ch t
Ġolu ntu
xho bisa
Ġkoku thengisa
Ġiint engiso
theth elela
ĠIzi fundo
Ġyayi yi
ĠPa ge
gqib elele
Inter net
Ġolwen ziwe
ĠMetro politan
yanise kile
I mpendulo
P sy
e mva
z isela
Ġu linde
Ġe thembekileyo
Ġo yintloko
bo la
Ġin dlala
ana ma
ho o
Ġye ars
khe ka
Ġy elanga
Ġsi de
Ġyoku lala
ĠNg esi
pho so
Ġizi mvu
ter n
ĠO shi
Ġbu be
AN T
ĠIsiT iv
mis elwe
Ġwase M
kwi meko
tri ki
ĠNgo kwa
ĠeM thatha
Ð° Ðº
sase Gu
ĠEn eneni
Ta li
Ġkuza ku
ĠYo ur
caphu kisa
ĠApp le
à ¦
Ġi F
Ġi Google
Ġi foto
Ġi balulekile
Ġe kwazi
ĠI mbali
Ġwa biza
hla mbe
Ġum zila
ti listat
Ġezi bizwa
Ġngoku setyenziswa
Ġaba lishumi
Ġz elizwe
Ġz isetyenziswe
ri yo
ani ke
ty wina
Ġama siko
Ġbe kukho
Ġiin tetho
hlu le
cu rity
Ġnom sindo
onge zelela
Ġey univesithi
han ki
Ġkween dawo
ento mbi
ĠKU FUNEKA
MA A
KE Y
Ġiko pi
inde x
Ãª s
ĠBha lisa
Ġbeca use
IMi ze
i chua
th ri
Ġin gama
Ġkwi bala
Ġyo ung
Ġyo Mzantsi
om ba
ĠA ct
khe thwe
Ġze bhanki
Ġezin tabeni
Ġun elungelo
Ġii mephu
Ġizi tya
so dolophu
xi bo
guqu guquka
Ġenga zange
ir eless
ond om
tic les
Da tha
Ġowa ziyo
Ġca re
ĠIzi thombe
tali a
mv eni
tshintsh iselwano
ĠAng eles
ĠuNo wa
Wo laita
khanka so
Ġekuphucu leni
enezu ela
c ord
Ñ ī
Ġn elizwe
Ġe V
Ġe xa
Ġe philileyo
zi meleyo
Ġku phuhliso
ya ba
Ġng camango
se a
Ġo yena
mb ongo
er ra
ĠU kholo
Ġs isebenza
the ko
ĠIsi Wolaita
Ġka T
Ġz enzelwe
bha tala
Ġesi xekweni
sh an
qo ka
khu be
cu ka
ĠH is
pe a
hamb ile
Isi khundla
Ġkulo wo
tshu tshiswa
Me di
ĠiN ew
Ġnang om
papa shi
Ġib in
fikelele kayo
Ġbun ga
ĠWi th
Ġekusebenz isaneni
ĠPer sia
Ġibhe tele
Nor thern
ĠKw isi
Ġmp ela
ĠCam era
Han jiswa
ĠLang uage
ritz burg
ĠELING UMXHOLO
saseGu errero
N gam
O ne
f ly
Ġku bizwa
Ġuku biza
Ġng ongoma
mb ani
kho mputha
Ġye golide
Ġne Man
ĠS E
ĠB ridge
xo lisa
xo xwa
Ġem fa
Ġeli za
Ġesi balulekileyo
Ġloku gcina
ĠIn ene
vu ko
xho ma
ji ki
yu liweyo
andi le
gi rls
Ġnen konzo
Ġnen kcubeko
Ġing cali
Ġngum n
Ġkwaba fileyo
ĠFa ctory
ingu qu
Ġkween konzo
den ts
ĠKun okuba
lam si
Ġzeen daba
Ġyezo politiko
Sh ishino
Ġezino bungozi
Ġimin qweno
dwel iswe
Ġegu mbini
A wu
B onke
M andla
O O
r eli
z isiweyo
Ġi hleli
Ġi Zibhalo
Ġe quka
Ġku biza
Ġku mantombazana
ha ts
se ph
Ġo ka
ho mi
Ġwa tshata
Ġkwi webhu
Ġaba khweli
ĠS ing
Ġsi fumana
Ġsi kaloliwe
Ġzi the
khu lile
oo re
Ġnda fumana
Ġben d
ig hland
tra k
khan yiso
Ġemi dlalweni
ren ce
gwe be
sini ke
AS A
ĠIsiMa rathi
Ġmn twana
chnolo gies
xhapha kileyo
ĠPay Pal
Pix el
Mp ondo
ĠManufactur er
B log
a pho
d ent
l onke
an te
ha bi
ma tion
Ġo we
Ġin taka
ho le
Ġba qalisa
ĠN jenga
fun iselo
hi gh
ĠK ang
re qu
Ġwe mveliso
ar c
Ġeku phum
Ġloku sebenza
Ġlwa wo
olo ko
Ġiint lungu
Ġpro gram
Ð¸ ÑĤ
Ġyobu dala
Ġang en
Ing xaki
Ġcha t
ĠIsiB islama
Ġsina ko
ĠGeo fumadas
ĠCard s
P M
Z ama
c ru
j ing
r du
el tic
Ġu dlale
Ġi ile
Ġi filimu
on cedo
Ġe zemidlalo
Ġku Kristu
Ġa yen
kh ele
za ro
mb eka
Ġin yani
Ġba bona
Ġba funda
Ġba phuma
Ġum ongameli
Ġngoku qinileyo
Ġka Moses
thu sa
Ġsi fumane
Ġwe hla
Ġno kwandisa
ĠP ho
Ġimi lo
Ġloku funda
fu beni
hle kisa
je ction
zu ba
ĠMa ka
ĠMa lunga
ĠUm xokozelo
Ġeya m
sha ja
ss word
24 0
Ġas ina
ĠHa mba
ont anga
Ġise mthethweni
Ġemn twini
gqwe sa
inn er
calu calulo
Ġchi ld
ngcwa bo
ĠGar den
I mali
K ar
N jani
P ER
U H
U na
n jenge
ð Ŀ
Ġ thatha
Ġu Isaya
Ġe phathekayo
Ġuku phathwa
li cation
Ġwa xelela
Ġkwa la
Ġkwi fom
Ġye F
Ġye oyile
Ġnga phesheya
ca phephe
Ġl inike
Ġkwe tyala
Ġezin gundoqo
ĠB attery
kha ba
Ġisi gaba
Ġeli ku
hlo li
ĠH ome
ĠR etrofit
yu lwe
19 14
Ġnen doda
Ġwaye m
Ġth en
Na me
Ġsiya ku
Ġzen yanga
Ġwom natha
ĠSo ftware
Ġta ta
Ġeline sihlanu
Is oko
Lwe sihlanu
Unga yi
Ġyent simbi
cri ption
Ġfe a
Ġndingu Yehova
V M
in yanga
Ġi tikiti
Ġe bona
Ġo orhulumente
Ġkwa loo
ang es
Ġaba dumileyo
re t
Ġka Kristu
Ġkwe mpahla
Ġun amandla
Ġisi zukulwana
Ġla ko
wi ki
pa sa
xho sa
ĠWa zi
ĠWa ter
men s
Ġben dawo
IN tshumayeli
Ġkwen dalo
kisi we
Ġngokwe mvelo
Di gital
Bo mi
Ġlobu xoki
Ġkwis iseko
ĠLu cks
ĠZe aland
ĠEurope an
ĠPat rick
gre es
Ġekum gangatho
K ulungile
U funa
r ant
s ko
s tudio
v ini
el lo
Ġe d
kho di
ĠU ma
Ġye shumi
Ġz isetyenziselwa
Ġzi kwazi
ĠE ducation
Ġezin ika
Ġza so
me va
lung wini
ĠO pen
Ġse T
Ġse Bhayibhile
In konzo
ĠG reat
ĠR amaphosa
yu wali
Ġf ol
hamb elani
ne d
Mo sco
ut ch
ces ter
Ġela se
hlangan isiweyo
Ġlobu gcisa
Ġiku ku
gcwa la
dast ral
Ġbang ene
Tsha zimpuzi
ĠIsiG reenland
q angi
v isa
Ġe dolophini
Ġuku dibana
Ġuku hlolwa
be kela
and rogenic
ho od
Ġkwa oko
Ġum melwane
Ġezi mashumi
Ġngoku phumelela
Ġl an
Ġm cimbi
Ġsi wa
Ġzi ko
Ġyoku bhala
Ġiin yembezi
Ġem ele
Ġizi gulane
Ġaku zange
ur t
Ġ4 3
ĠKwa ba
Ġnase mva
Nga manye
Ġngobu bele
xulum ana
ĠIsiU mbundu
Ġeni ke
Ġabu ye
ĠIsiQu ichua
tec ture
ĠKwe zinye
phonon ongwa
Master on
chunge chunge
I nga
e ter
x hu
Ġ ange
th inte
Ġe qongeni
Ġuku fumanisa
Ġo ololiwe
di ba
Ġkun ciphisa
to col
er lin
Ġba s
mi a
Ġum xube
Ġka S
Ġyoku sasaza
Ġno yilo
Ġii po
bi ka
man je
Ġsa thi
Ġsa bantu
sin yithi
ge kho
In doda
Ma khe
ĠMa p
Ġez isebenza
AN O
onwa bele
Ġasi kwazi
angoku hlwa
Ġezinga kumbi
elel anga
Ġsisi xhobo
ĠeN tshona
fune kiyo
than jisiweyo
phan cwadi
Roman y
Ġzakwa Sirayeli
FX CC
Mosco w
L ine
O p
P L
e ya
i phone
j ele
u bun
Ġi cebiso
Ġi ofisi
Ġe Na
Ġku khuphiswano
yo ko
Ġa rea
we kile
ph rine
li wa
kho rona
and roid
Ġkwi G
tha thela
Ġum natha
ta mente
Ġen co
do wn
Ġsi wu
Ġsi lindele
dla yo
Ġno khuseleko
Ġno mama
kwen kwana
ch ongi
Ġes angweni
mbe tha
Ġing xowa
ĠSi funa
ĠV ula
bani ke
Ġbaya ku
Ġawa y
Ġakun aku
bamb iso
Ġenge zantsi
phan ya
ĠVi deo
HT ML
S MS
U F
g ni
z za
â Ļ
el elwano
in yan
Ġu qhuba
th ane
on ya
Ġe Ng
Ġa go
ĠI gumbi
un der
Ġo pheleleyo
fun wayo
te ca
Ġze sini
Ġli fe
ĠW ood
Ġma de
Ġesi fanayo
so l
hamba yo
rh waphi
Ġkom n
Ġam hlophe
ic tionary
Ġpro perty
Ġnges a
Ġendi zi
Vi ew
ĠEku hambeni
Ġidi bene
To yota
Ġine thiwekhi
khethi leyo
ET HA
bandakanye kayo
Ġkuna zo
Ġelina mbini
ĠuD aniyeli
Ġsh ishini
xake ke
ĠSte el
ĠWam kelekile
VI WO
Ġkwise be
Ġje t
K onke
U phando
d aniso
j l
l la
r onic
â Ĺ
en ta
Ġu Re
Ġe pholileyo
Ġa landelayo
se va
om ele
Ġngoku ngekho
ĠS ine
Ġkwe zindlu
Ġze zindlu
Ġbe yi
or n
ĠY IB
bha keni
Ġimi bono
Ġes enziwe
bhu ti
Ġf in
Ġon jalo
Ġnda m
tri bu
Ġbase khaya
Ġzen dlu
Ġazi yi
cho pho
Ġelin anye
Ġsom ntu
Ġlen dawo
Ġengena ku
Sase Malawi
Ġzon xibelelwano
Ġokwe sibini
qinisekisi we
ENK QUBO
ĠAra b
endele zo
bhuka dene
B el
N din
R S
e xe
k elekileyo
Ã ľ
ba za
Ġi fanele
Ġe phe
si i
lo longa
Ġng el
Ġwa kwazi
Ġwa funda
Ġs p
Ġum postile
om lomo
Ġezi khuselekileyo
Ġze T
qu phe
Ġisi bingelelo
Ġisi danga
Ġndi wu
ĠT ube
Ġesi lungileyo
Ġimi funo
int engiso
Ġsa khiwo
Ġngen kqubo
ĠD ili
Ġzoku dlala
theng ela
Ġkum hla
ĠCa se
Ġnama lungu
Ġubun cwane
ĠYa ba
Ġaka kho
kis he
Ġngaba dlali
Ġlom zimba
Ġawu funi
xham le
kona kala
yus wa
ydra ulic
Ġhydro chloride
Ok thobha
tyotyo mbe
bhukadene tsare
T Y
a ye
w ine
y na
Ġku bhaliwe
pha siwedi
ca te
ĠS ch
ĠE noba
Ġii khowudi
gq un
ĠP isin
gu ga
Ġse mthethweni
ĠH u
phum i
Ġim vakalelo
ĠCa mp
Ġom hlophe
Ġiing enelo
van ced
zini ke
Ġngaba zali
ĠLa ser
Ġana ma
ĠEye Dwarha
Ġakana ku
A ram
R C
d vd
m ond
n kulu
x elwa
Ã ¥
ba c
Ġi gowuli
Ġe thengisa
Ġe Phakamileyo
ha ra
ya yo
Ġng engqondo
Ġkw enze
mb iso
Ġsi funde
Ġ1 30
bon ela
ĠP hoto
ĠW omen
ĠO kwesibini
Ġloku phumla
ĠH ill
Ġnom yeni
Ġ4 9
hlawu lela
Ġiing qondo
bang el
Ġbase China
phuhl isi
Ġezinga bonakaliyo
Ġlwen dawo
Ġoo gqirha
yoku qala
bhaka bhakeni
We bhsayithi
ĠChi ld
Ġezingena ku
Bhe teli
quke thwe
f ti
g ger
in y
Ġng ani
Ġo ono
mb ine
Ġwa lala
Ġkwa za
Ġye Ntengiso
Ġum lambo
Ġum yinge
Ġezi thathu
qa shiso
Ġkwe qela
Ġsi cinge
Ġze mveliso
Ġwe phondo
ve mber
Si lamsi
ĠMa ch
ongo lia
shi luba
ĠUm phathi
Ġni ba
ON ZO
UR KEY
khen kce
ĠMicro soft
ĠKwen zeka
Ġwh ere
hog weni
E A
W illiam
e kho
s or
Ġ ]
Ġi L
Ġa phesheya
Ġin qwelo
Ġkwi mo
eng cali
ri us
ri ous
Ġama qhinga
ĠIn stagram
In xalenye
ĠG ood
Ġuya ba
Ġbu siness
xe d
Ġkwii venkile
ĠIsiT ok
Ġsoku gqibela
ĠQ e
Ġyaba setyhini
manga lisi
Ġpro cessing
Ġngobu suku
Kha wule
sond lo
ĠIsiKi luba
QINISEK ILEYO
pula r
Londolo zo
b ro
b roadcast
c anda
d rol
t ty
Ġ der
Ġ vula
Ġu lindele
Ġku tshintsha
Ġng entla
kho lweni
Ġba sebenze
ĠU E
Ġkwa so
Ġs pin
ona c
ta dalafil
Ġm vume
Ġsi lu
ĠM or
ĠUku funda
gi on
Ġnom ntwana
yin doda
Ġing cebiso
ĠIsiT shiluba
khan yela
Ġent la
jong ane
ĠeN kosini
Ġkubu yela
yisi we
Ġarticle U
Ð¾Ð ¼
hawu tini
Ġiso loko
qulun qi
ĠWil d
uva lu
ĠOkun inzi
h ulu
m viwo
q wan
v ani
à ª
Ġi re
ph ang
Ġng ela
se kwe
be at
Ġwa thatha
ulu nge
Ġum fo
ta ct
hi yo
Ġm et
Ġzi fana
Ġyoku bonisa
ĠC NC
Ġii mbono
tsh ang
ĠD r
Ġolu sebenzayo
ĠG A
am ing
ĠMa tch
ĠV o
ĠuM i
Ġnaba setyhini
Ġayi funi
lis elwa
Zi yon
Ġngeli zwi
Ġobun zima
Ġus ana
antya mbo
kum kanini
Ġkwent liziyo
Budd ha
O wu
j ista
Ġu cela
Ġu phendule
Ġi Khaya
ya cu
Ġuku hlu
Ġuku hlamba
ka khulu
li o
Ġkun gaba
ĠA man
re f
ĠS al
Ġwe qela
ĠW estern
pa k
mn ike
khu lela
ge oma
enz yme
Ġkum thengisi
bhu sayithi
Ġez elwe
Ġof isi
Ġ5 1
ĠUm thetho
ĠKwa kukho
pi cs
Ndi ye
Ġnesi qingatha
bandakan yi
ĠÐ ±
Ġema kha
sel u
cy clo
ot onac
Ġyobu chwepheshe
ero de
ĠuYo bhi
Ġkwis andla
ĠIing cebiso
Ġkangange minyaka
Ġmar ket
FAN EKISO
Ġephawu lweyo
) )
C NC
M olo
a cetate
k Ã
m la
Ġu bhala
le di
Ġa yisa
lu su
Ġo ta
di os
Ġin ts
Ġezi hle
Ġl wimi
Ġka buhlungu
hu kuma
lwa luko
Ġem fundo
pho lolo
bha mbath
Ġzoku zonwabisa
Ġzo phuhliso
Ġis ing
Ġban omdla
bonaka liswe
Ġnd an
ĠV u
Ġnee mveliso
Ġkuma qela
ĠIsiT otonac
Ġca rd
ok si
vun o
Ġndinga thanda
Ġkwezo qoqosho
ngen iswa
Ġib inga
gqibe kanga
Ġying ozi
Phe pha
ĠPe ter
ĠCor n
Ġabase magunyeni
Ġpapa shwe
yacu cho
a ce
g round
u di
ku lungele
Ġu lonwabo
Ġi fike
Ġe xhonyiweyo
lu khuni
Ġkwi Sa
Ġngoku sebenza
ca sino
ĠA MA
Ġzi bu
ri bati
kha m
kwen zela
co py
Ġma zwe
gu le
phaka me
so yika
cu le
ĠH la
Si mon
Ġez enzeka
ver n
Ġeya kho
Um thetho
Ġunga bona
lis elo
ĠAba sebenzisi
Ġyama hhala
Ġisa sa
lar m
tshabala la
Ġay enze
Ð¾Ð ´
gqo ke
bhiyo zo
ĠIsiKi ribati
ĠVer sion
Ġwor ld
Ġekukhan yeni
A ka
H P
à ¨
Ġ !!
Ġu Yi
Ġi ho
Ġi velisa
Ġe caweni
ma kethi
Ġuku shiya
Ġuku cwangcisa
ĠI G
se magunyeni
Ġo bizwa
es andla
Ġum rhumo
ti kus
Ġngoku qhubekayo
ca we
hl angothi
gq in
Ġli m
pho lisa
Ġoku nye
ch er
ur gaon
indi di
cwe be
ĠRo und
Ġekun ced
Ġekwa ku
Ġneent lobo
ĠProdu cts
Ġishi cilelwe
C lass
D MAA
L wa
S pain
U yilo
o wa
p us
Ġe k
zi gidi
Ġku hla
ya o
se ka
bo ts
Ġin kolo
Ġba thatha
ĠU mbala
Ġkwi gama
Ġkwi Candelo
Ġna me
isi yo
anga liswa
Ġyoku dala
Ġle tyala
Ġizi hlwele
ĠNgoku kodwa
Ġyesi kolo
Yi ya
thaba thele
manga liswa
cho le
ĠMe tal
ingu ye
Kha mera
Ġyon k
HD R
thath elwa
ĠIIM VIWO
m ona
Ġu dla
Ġu chaza
Ġu sindiso
Ġi bing
Ġku ban
Ġo sebenzayo
mb elo
Ġin xenye
and y
Ġwa da
Ġwa phumelela
Ġba y
Ġna kwin
Ġm ana
Ġyoku linganisa
Ġngo Septemba
Ġii rekhodi
ĠP VC
po p
bh ulu
der n
ĠWa thetha
ĠZ AMAZIKO
Ġand inaku
ĠBa se
ĠIsiT o
Ġnemi miselo
ĠIin dleko
Ġkwimi zuzu
Ġkwee yure
Aba fazi
ĠSta tion
ĠSo ccer
De coiler
Ġex tra
feze kanga
coce ko
qesh we
esa re
Ġumbon eleli
Cwangc isa
Par is
Ġeven kileni
saseA yacucho
phanya zo
- .
E yoM
I ya
P lay
j elwe
ì Ŀ
ku bona
Ġu fika
Ġi phinda
Ġe gama
Ġe setyenziselwa
Ġku beka
ĠU SA
Ġaba vakalisi
re ct
qa yi
do se
ki mbi
Ġiin tambo
man n
Ġli ze
Ġli lizwe
Ġma s
ent lanzi
Ġngen konzo
Ġloku phumelela
Ġloku hambisa
bun tu
iseben zela
ni ki
et un
ĠJ ames
end lovu
Ġwo kwenene
kwi i
Ġnesi fo
ĠPo int
Me phu
Ð¸ Ð½
qwalas elwe
Uni versity
tyhi lwa
tele hem
phucu lwe
mas ki
cum o
ĠeP aris
ustri a
N xibelelwano
l ontle
Ġ mboniso
en an
en tal
ko be
yi funda
Ġba sebenza
ĠU vavanyo
ĠU hlalutyo
Ġkwi D
bu hle
pha pha
ang hai
Ġno xanduva
ki r
Ġii pilisi
Ġiin zuzo
fi cation
Ġeku joliswe
Uku lawula
ĠWa wa
Ġnom bala
tshi we
guqu ke
Ġwam kela
ĠDe velopment
Ġngokwa ma
Ġngokwa hlukileyo
Aba fundi
Lo te
Ġong enaku
Ġise kelwe
ĠUS B
à¤ ¾
rus h
Ġman ani
ĠNjeng e
gcwa lise
Ġzanga sese
Ã§ Ã£o
yang eni
cama gus
Ġowen ziwa
ĠAB ANTU
tron eni
tere o
C EO
I H
K olose
i ra
s ka
x ml
z elekileyo
Ð ·
Ġn yaniso
en tu
Ġu Da
Ġu guqulelo
Ġku thanda
Ġa phuma
Ġuku cima
da zi
zin da
Ġba lu
Ġba cinge
ĠU cinga
va lelwe
ĠIsi celo
ra gon
Ġsi bini
Ġsi tes
Ġyoku zalwa
ĠE Yurophu
ĠB ook
lwa biwo
Ġno hlobo
Ġli the
Ġli xa
ĠF ar
Ġb rand
phum le
Ġc lub
pro theni
enze kelayo
Ġwen yuka
qinise kiswe
Ġd el
phefum lelweyo
Ġngeen tsuku
Ta g
shuma yeli
Ġubha lise
Do wns
ĠZo mbini
Ġbakwa Sirayeli
ĠSI YA
ĠAm sterdam
I mephu
O x
j weni
Ġu z
ha ha
Ġuku qhubela
ph elelo
se khoyo
Ġs chool
ca pe
Ġl elinye
Ġkwe yona
Ġy enzeka
Ġzi zo
Ġzi bonakala
20 3
Ġisi livere
Ġeku de
Ġngen kxaso
enz eni
ol s
lawu lwe
yan zelwa
Ġkum zi
end s
Ġwaye thetha
ĠuM lawuli
fund iswe
Ġngom bala
shu rensi
Mi chael
Le bhu
Ġkwesi khumba
Me thyl
Ġyezi zathu
An cash
Bha r
ist ry
din wa
Ġsama banga
Ġwon k
QH UB
FUND ISA
fudum eleyo
tshutsh isi
Os car
E Z
M K
O ut
s oku
u hlobo
Ġ video
Ġu khatha
Ġu thotho
th esis
Ġi yo
Ġi lawulwa
Ġe Japan
ma ge
Ġuku khululwa
li e
Ġin amandla
ile s
zin ti
Ġkwi mali
Ġkwi PSL
Ġs cra
Ġne P
Ġne ku
ĠK weli
ĠS onke
Ġy ang
Ġm hlobo
Ġm sitho
Ġsi celo
Ġnge mvume
Ġngo ka
ĠB ri
Ġko Thixo
iseben zisi
Ġwo rd
Ġngum dlalo
Ġyen yanga
Ġnezi fundo
wang u
sem zimbeni
ĠNa thi
sase Ancash
Ġco py
Ngoku tsho
yn c
Ġnoo gxa
Ð¾Ð ³
engo zini
elise kile
Bho di
FUM AN
Ngam ana
C ent
d ele
y onke
Ġu bonise
Ġku thini
lu g
Ġuku xelela
ka le
ĠU moya
mi ted
ĠN on
ca ci
Ġaba khu
te as
khe phu
Ġsi qonde
Ġnge N
Ġezin yaweni
fum ed
Ġiin kokeli
bh k
vi ty
ĠIn konzo
fu dula
Ma melodi
fan eleyo
ĠV illa
Ġnaba dlali
ir ing
Ġent enteni
Ġâ ī
ĠThe tha
zise kho
ĠIsiN i
Ġsu ch
Ġonoku zi
Ġsh ishino
ĠIsiTurk men
lex ander
Pe ter
dera tion
Ado be
ĠneMan yuwali
ĠQe qesha
A pho
C ard
M al
N tsundu
U kraine
i zinto
z wini
Ġu dinga
th elwa
Ġi ben
Ġe khohlo
lu fa
Ġuku xoxa
za kala
Ġo wona
Ġyo ba
ĠK om
Ġezi tsha
ĠIsi R
Ġaba postile
Ġy ongcakazo
ĠE Z
ki mbin
Ġaban gendawo
Ġiin tsholongwane
ant lukwano
co cwa
Ġma hlanu
mn cinci
fu dus
Ġubu ze
land elwe
Ġkum fanekiso
Ġwaye sele
Ġnemi hlali
Ġnjengo M
kise kileyo
IT IL
ĠJo b
Ġesis wini
Ġolung ena
xam isekileyo
ĠSis ulu
Ġentan yeni
Q hu
c int
d lelo
f olda
r ena
Ġ !!!
Ġu O
ya k
Ġuku jikeleza
za re
Ġna wa
Ġezi khulu
Ġezi luncedo
Ġkwe mvume
ri m
Ġngo Yesu
ĠB ON
kha mpasi
Ġbe mihla
Ġiin kunzi
Ġiin dlebe
inga phi
Ġizi vumelwano
hlu kane
ine a
Ġimi tha
ja melene
so lu
Ġlu ne
al bhamu
st rol
ĠUm fazi
ĠSi mele
Ġngama polisa
Ġkom xholo
Pa d
Se y
Ġukun cokola
Ġemi zini
sen zo
Co vid
Ġizin ja
ĠRi ver
illi ams
ĠeT shayina
ĠÐ¿ ÑĢ
ĠAP K
Ġezim futshane
Ngom hla
ĠEM VA
langan isweni
bhulo rho
Ġekuphuhl iseni
Tali yane
kimbin kimbi
e xhonyiweyo
h ele
v elele
an ise
Ġu Eli
Ġu fune
th ondo
Ġe khawulezayo
Ġe fihliweyo
Ġku boniswa
Ġuku khumbula
Ġin zima
Ġin ee
ke mbe
Ġba phinde
bu lisa
Ġna be
zo bi
Ġum ngeni
xa ka
Ġzi zonke
ri keni
ty antyambo
ĠB ut
co unt
Ġzoku lawula
pro du
ĠWa tt
ur y
ĠIsiT etun
Ġey enzeka
Isi zathu
ru g
Ġinga lo
Ġemi de
Ġendi ya
Ġcom puter
ple yiti
Sase S
ĠKo pa
ĠPri vate
rhulu neli
Sama riya
Ġpromo tions
ondu ras
qwan qwa
R P
S C
c ke
el en
Ġu l
Ġu ve
Ġu Aron
Ġu Isake
kh wan
lo we
ko pa
Ġukuba leka
Ġna kan
Ġne D
ĠIsi Romany
re g
ĠS wi
Ġkwe S
thu sayo
Ġnge themba
Ġnge krele
Ġngo onobumba
ĠE tiMnga
ĠB ingo
ĠM er
Ġko luntu
mo bile
po ol
ge ospatial
Ġkuku xelela
bhu bhe
Ġnd ino
min cili
tshi wo
shi ywa
ĠV ol
las ini
ĠUn limited
Ġkwee N
Ġaye ke
Nga bere
Imi fanekiso
Ġyoko moya
fune ke
ĠGe ogra
kro ti
tsal ele
vutha yo
ĠGet ty
ĠVac cine
T P
Y OKU
j wili
p m
r er
ä ¸
Ġ ish
en tsingiselo
Ġu yo
la di
Ġi mbeko
Ġuku qa
Ġkwi B
Ġs tra
ĠN Y
ro y
Ġkwe Si
kha lo
fi ram
Ġimi zobo
mbo dia
Ġngoko mthetho
Pa lamente
Mo dule
ĠiN kundla
waka ma
Ġ200 5
Ngoku qhelekileyo
ĠAn kara
ĠeN e
bhin qileyo
Ġbom hlaba
ĠAd missions
ĠPla tform
Ġuhla ziyo
Ġcryptocurren cies
uter on
M E
O EM
a yi
a gle
k tri
q wel
Ġ qinisekisa
Ġ ÑĢ
Ġ Ä°
Ġu So
Ġu Faro
Ġe Fransi
ĠI zin
di d
Ġkun ike
Ġwa cinga
Ġkwi khompyutha
Ġna kho
Ġne hlabathi
ĠIsi Ngabere
Ġaba Levi
Ġka E
ĠS ki
Ġkwe zin
Ġnge posi
ĠC usto
ĠM A
Ġwe palamente
Ġiin kokheli
Ġndi wa
Ġsa bona
Ġse swekile
Ġlwe ze
cu te
cu rls
Ġis uka
ni kwa
lis ana
ĠNga phakathi
ĠNga phantsi
Ġemi thandathu
Ġema zantsi
ĠEn kulu
ĠSo ciety
khulule ke
phendu li
ngen eni
Kh anada
banj elwa
hlangu le
tore ji
Ġpers onal
ĠAp ril
Archi ves
Pub lished
fli x
ighland s
A bantwana
N oko
S KU
l k
Ġn kosi
en yanga
Ġu setyenziso
Ġi Pro
Ġi vumba
Ġe bhe
Ġku suka
ma t
tha thele
Ġya kudala
Ġum lo
Ġezi fumaneka
kwa Yuda
Ġngo Julayi
Ġngo Meyi
ĠE r
Ġaban aku
phu li
ĠO L
Ġlwe M
In kampani
In kxaso
Ġkoku nga
ur ces
19 90
ĠBa fana
Ġ4 7
cac iswa
Ġanga yi
Ġd on
Ġ9 8
khusele ka
son ka
ĠEli lawulayo
gcwele yo
Ġnan ko
Ġlin k
ĠGa laxy
Ġad d
zoku hamba
Ġsho uld
part ment
ffa lo
K I
K rismesi
c ko
n da
p lugin
s wakama
z wanga
Ġ tshintsho
Ġu Yuda
Ġku dlula
Ġba so
ca thu
Ġl angoku
Ġzi thetha
Ġaban cinane
me t
me tal
Ġnoku ziphatha
Ġisi thuthi
Ġizi thembiso
Ġeku nga
Ġloku tya
Ġolu phambili
Ġyase kwa
Ġyase Mzantsi
Ġ5 4
xha thisa
Ġmi cro
ĠHa ppy
rea k
qun yan
Ġngon je
Ġyent lawulo
Ġnez enzo
ĠyeSi zwe
Ci vil
Ġwayene minyaka
IMA HLA
Lor caserin
Ġeph ondweni
hats App
P N
d ustry
Ġu kholelwa
Ġku senza
lo kweni
Ġo onobumba
ĠU bunzima
tha mbe
Ġya loo
Ġyo Lawulo
sa ka
Ġsi zama
qu li
Ġyoku mkani
ĠM olo
Ġaban amava
Ġnoku thengisa
ĠIn jini
dlu leyo
phum ile
na p
Ġof fi
Ġbo ba
tsa le
ĠAma gumbi
Ġca ms
ren te
theth ela
Ġbam kelekile
mv ana
Ġusi ya
mbon eleli
Ġkwent loko
lungelelan ise
ĠEngine ering
uz co
xhun yiwe
A ni
H I
N on
Y ongeza
g ina
g na
y lon
ì ĺ
Ġ gqolo
Ġi qinisekisa
Ġi akhawunti
Ġe mbindini
zi bulo
Ġku manqanaba
bo lan
Ġye R
Ġs enziwe
pha ko
ta min
ĠIsi phumo
ĠS oku
Ġsi hamba
Ġze Tattoo
ant on
wi kipedia
vi mbela
fu sa
Ġlwe mali
zu kileyo
Ġban ako
Ġwen ziwa
min we
UM phathiswa
Ġh elp
phefum ula
ĠYi Bhayibhile
qho phololo
Ġus ing
gqa ban
ID S
Ġnan to
lungelel waniso
phendu lwa
ĠMar ket
Ġokwe thutyana
saseC uzco
Ġying xaki
RIS TU
rig inal
A manqaku
U kongezelela
c is
w ing
Ġ oni
Ġi khuselekile
Ġa fune
ph or
Ġwa belane
Ġye sine
Ġum jikelo
Ġezi chazwe
Ġl eng
Ġkwe yoM
Ġze plastiki
ri thi
ĠP art
Ġoku qhubekayo
fo za
Ġzin cinci
Ġand ina
Ġwo mbane
shu kela
Ġinga setyenziselwa
Ġnemi gangatho
ble s
Ġema lunga
lind elwe
lind elekileyo
Ġkwaku za
hlazi ywe
thethe kiyo
den ti
Ġzesi Xhosa
gon ya
all s
then de
ĠAd ministra
EB ENZI
zan yiswa
ĠKhawu cinge
Wal ter
ĠTes alonika
ĠShe et
ĠCoun ty
M er
X X
Ġu I
Ġu Ja
la hlwa
Ġi dini
Ġi memori
Ġe qhubekayo
Ġe Ngilani
Ġa funde
Ġa phile
Ġin yoka
Ġkwi projekthi
Ġkwi qonga
hla yo
Ġum Kristu
xa mnye
Ġezi buhlungu
Ġm oney
qu es
ĠB uka
ĠM am
ki thi
fum eneyo
ci ence
Ġoku ya
Ġse M
Ġse zulu
Ġc ra
ĠMa ga
Ġez isetyenziselwa
Ġnen jongo
yin yani
ĠLe e
Um phathi
Ġunga bi
Ġyesi celo
Isi thethi
ree k
Ġisa hlulo
200 3
Ġkwaku nga
Ġ200 3
ĠuS te
yini ke
rho la
Ġbi llion
loni pho
ĠIsiChi yao
kro kr
Ġelinga kanani
ĠIsiM oore
cra ft
dityan isiweyo
ĠIsiB engali
Ġesina mandla
Ġpho to
Ġdes ktop
ĠeBhe teli
yong weni
yper baric
isebenz isana
Ġingc inga
Ġezindle beni
B AL
E den
m d
m fono
r f
r ge
x on
Ġi dlulileyo
Ġku gula
Ġuku chonga
Ġuku nikezela
mb andela
Ġs ti
Ġya kha
ĠK wimi
ĠS mith
Ġngo Januwari
Ġwe B
Ġwe Si
ent ine
vu lela
ck en
ĠH lala
Ġis u
Ġc lo
bho thi
Ġkuku fa
Ġkuku vumela
qha tha
Ġan esine
Ġh ere
Ġase zantsi
ĠIsiMa za
Ġinoku thi
Ġwaya lela
phucu lweyo
Ġibha so
Ġngokuzi thandela
HLA ZI
Ġndand inga
Ġuhl engahl
tshuma yelo
L ight
m fuyo
Ġu chaze
Ġi khula
ka lise
se zantsi
Ġin dibano
ĠU mama
Ġs tudio
tu a
ĠIsi khokelo
ĠS y
Ġsi qu
Ġnge misebenzi
ĠM ill
phu phe
phu phuma
Ġma gama
ĠD ol
Ġolu ne
Ġim fuyo
Ġkuku bona
khi tshini
Ġzin t
xi can
Ġbo thando
Sa wubona
ĠNdi cela
zal elwe
Ġd vd
lungis ela
TH EN
Ð¾ Ð½
Ġkweli zwe
eri ko
Ġendi ku
Kwi i
mbon iselo
koku gqibela
ĠIsiKika mba
Ele ment
PHI LA
5 000
is onge
Ġi xhasa
Ġi holide
Ġuku lingana
ke ke
Ġye V
Ġnge golide
Ġun yawo
ĠL I
Ġnoku khusela
Ġisi gxina
Ġoku lula
Ġma qela
Ġnjeng enye
Ġloku hlawula
Ġlu phawu
Ġlwe sibini
go ba
Ġkwin doda
Ġkum da
Ġyase Jamani
hlan ti
setyenz isiweyo
Ġeng enanto
Ġenga fanelekanga
tri c
Ġema rikeni
khutha zayo
ced isayo
Ġezo politiko
bra ry
xhe go
Ġela wula
Ġsis enza
ĠKU PHELA
Fran k
ĠuSa ra
layis he
Ġkwisa hluko
bin zana
Ġzent simbi
doloph ana
ĠSpe ed
Ġababu keli
Zin dlu
i va
n jengoko
Ġ Ñĩ
Ġu thuli
is ini
Ġi phuma
Ġi yona
Ġa lwa
Ġng andlela
mb le
Ġum xhasi
Ġngoku baluleka
Ġsi kho
ce bise
Ġnge ke
Ġnge fowuni
ĠC la
ci bi
sin tu
Ġse phepha
Ġolu qhelekileyo
Ġwen dawo
Ġkoku sebenzisa
ling u
Ġkwisi xhobo
ster ol
200 1
Ġ200 4
mpi ki
ĠIsiMa m
ĠIN DAWO
Ġte chnology
ĠkwiN kundla
Ġkwiint lobo
Ġiim viwo
khuba zeka
hlukan isa
tyh ile
thola kala
A bu
D M
L M
M ulti
T s
V ula
e we
g rog
n to
Ñ ķ
Ġ phando
ku p
Ġu bheja
th el
Ġi fanelekileyo
Ġku khona
Ġuku buya
Ġuku phakamisa
ĠU s
Ġkwi li
Ġsi khokelo
ĠB al
xo kel
Ġnoku ze
Ġnoku khula
Ġnoku bhala
Ġisi khululo
Ġeli qela
ĠP rin
Ġesi ba
Ġesi fubeni
Uku jonga
ge thi
Ġzoku khusela
Ġlwe mveliso
ĠWa ya
mbe d
ĠKwa base
Ġint lekele
ĠIsiK isonge
ĠQ iniseka
enge kho
Ġneeng cali
Te khnoloji
PHA THA
ĠKan inzi
siki zi
Ġalumini um
- '
A mon
C B
I bhokisi
Q inise
S in
b rid
g inia
en tsuku
Ġu bene
Ġi khulu
Ġe ga
si thoba
Ġuku lu
ka wu
Ġkun yango
ban t
ĠU ltra
bu ka
pha rma
ĠN ina
om es
Ġngoku funda
Ġl angempela
Ġka yise
ĠS IMAHLA
ro ve
do main
Ġm dlali
Ġzi fakwe
phe phancwadi
ĠB lu
kha le
ci fic
Ġizi khundla
ar n
ine d
Ng okuba
Ġkom hla
Ġiing xoxo
Lo w
An kle
era li
Ġonoku yenza
EM BA
Ġona yo
Ġsine misebenzi
IF I
ĠIsiGu jarati
Ultra sonic
fon tein
Ġjack pot
hloniphe kileyo
Ġkra tya
khunju lwa
a jenda
i wan
Ġ ongo
Ġi fomathi
Ġku man
Ġku zama
ma gne
Ġuku phelisa
mb ongi
to khwe
bu keli
hi mbine
Ġezi Phambili
ca phula
ĠS pi
Ġm gaqo
Ġze shishini
ri ver
ĠE hlabathini
ĠB ritish
ĠY ona
Ġma tshini
gu gu
ĠF irst
Ġyi mali
Ġeya khelwe
Um gca
Ġinga bi
wel eni
Ġoyi lwayo
khala za
ĠBu ddy
seM erika
kro lela
ĠJu ly
jola bal
khwan kq
G S
H GH
P rin
o pen
p ine
u ca
z iseka
Ġi phezulu
Ġi Sebe
le kile
Ġa setyenziswa
lo kishi
Ġng elishwa
ĠI f
Ġwa vuka
Ġs on
zo le
ra d
Ġl enze
qu zu
Ġama cwecwe
Ġyoku tyela
ĠE qui
khulu wa
ĠM us
Ġem lanjeni
Ġem lilweni
ci me
ĠP al
Ġizi za
sin yathelo
ĠJ et
Ku the
Ġkwii webhusayithi
qha wu
Pa sika
Ġwase zulwini
hlang eneyo
Ġndiya ku
Ġas ele
Ġukuzi themba
vun dla
rho bo
qhele kile
Ġkwan to
Ġtra vel
khutsh elwa
bumn yameni
Ġkus enziwa
Ġnez isombululo
ãĢ Ĥ
bhambath iso
U mbuzo
c ry
k ongo
Ġu kon
Ġu jonga
Ġu thenga
Ġu xh
Ġu xwebhu
Ġu lwelo
la lela
Ġi bonise
Ġe dla
Ġe bonakala
Ġkw ange
Ġin cinci
Ġwa vuma
Ġne Si
Ġyo wiso
om y
Ġezi kude
ng qongqo
Ġen okwenzeka
ĠA ward
ĠE khaya
Ġeli yi
bon ileyo
po ko
pro pionate
Ġkum andla
bhe jo
19 96
Ġnen kampani
ĠUm dlali
Ġeng cwabeni
guqu lwe
Ġbo o
Ġkuma Sirayeli
ĠIi khasino
Ġiint sikelelo
ou thern
ced iswa
Ġyee moto
themb ise
lang eni
qond isi
chane kile
Ġzaba sebenzi
onde za
dis ha
chel les
tshutsh iso
ĠAu dio
gqubu thelo
bn b
broadcast beat
ĠIsiTo jolabal
B B
Z enzo
d un
i o
w ile
É Ļ
Ġn yathelo
Ġu tshaba
Ġi hlale
Ġi khuphe
Ġe fakwe
Ġuku khwela
Ġuku qinisekiswa
Ġo rg
Ġngoku xhomekeke
Ġaba s
Ġl yo
ani ka
he ad
Ġno D
Ġnoku lungiswa
pa radesi
bh ongo
ch erry
ine ma
st ing
Ġkwii N
Ġayi thethi
Ġnezi cwangciso
tri x
Ġnesi mo
han nel
qwa zi
Ġas ing
phefum lelwe
ĠHa re
Ġlen u
Ġkwan oku
UK A
qum le
ĠIsiL unda
Ġnding um
Man yeneyo
unt ry
iss an
kcen k
K restu
U tshintsho
l enga
n l
Ġ tya
Ġu Hezekiya
Ġku Ma
Ġa fike
da buko
ĠA ni
de pend
qa kamba
thu mbu
Ġy ongeza
Ġle zinto
Ġii bha
Ġeli zeleyo
Ġkoku khona
cin di
Ġez isa
ĠUm ele
tye ba
thum e
Ġnt lobo
Ġth rough
Ġkwaba setyhini
Ra dio
Ġelin esine
rea tive
org an
pla ti
ĠIsiU rhobo
caphu ka
Ubun gakanani
Bon isa
qhum iso
meme za
Ġsingaba khiqizi
Afri can
thandabuze kiyo
Ġrecep tor
Ġmbo ka
? %
K risimesi
R ha
l r
l enza
r ane
u tical
Ġu cango
Ġu dumo
Ġi thile
Ġi Pirates
Ġe phosakeleyo
lu phe
Ġuku thandwa
Ġuku rekhoda
li t
ĠI kwa
Ġye minyaka
ĠN to
elo r
Ġle hlabathi
Ġnoku mkani
Ġisi bindi
Ġesi bhakabhakeni
ĠO lunye
ĠD habi
Ma uri
ni kazi
onge zelele
Ġp lugin
per t
Ġwaba dlali
Ġyama Ngqina
ĠNa bani
khetha yo
Po wer
Ġkween daba
Ġngokun xulumene
pte mber
Ndiya bulela
Ġiso hlwayo
Theng iswa
RO OT
gqaban tshintshi
g ung
h ang
î ĺ
Ġn er
Ġn tetho
wa termark
Ġi khuthaza
Ġe Li
ma x
ma le
se ta
pha te
Ġne meko
Ġne vidiyo
Ġyo vavanyo
om sindo
ca p
ĠS ele
Ġwe bhusayithi
Ġbe vela
me yile
Ġla dies
tsha kazi
Ġli bonisa
nga kumbi
vu yiswa
Ġzoku ziphatha
ĠKu za
Ġuya m
Ġc ell
Ġnen yanga
thand eka
Ġkuma xesha
Ġnezi bonelelo
ĠAma va
ĠRe search
lan k
Ġwom zimba
Ġuyi hlo
jek ti
Ġg reat
Ġkuni kela
Ġnes h
Ġyeen dawo
Ġnakwi zi
Ġsesi thathu
phon es
vil la
Ġol ongezelelweyo
ĠWi kipedia
ANG O
thon yama
Rus sian
Ġina liti
FS X
________ ________
% )
L B
O C
U Z
g ly
g got
u er
Ġ hla
Ġn taka
Ġi hambe
Ġuku hlanganiswa
ze re
es si
ĠU mpostile
te ction
ri al
Ġama gunya
Ġngo Disemba
ki m
Ġbe ing
Ġko kwenza
Ġw angaphambili
Ġw ongcakazo
ci c
Ġizi hlunu
Ġloku nga
ĠD VD
Ġb eni
Ġnto mbazana
ni che
ĠUm xholo
Ġngama qela
Ġiing ongoma
cac anga
Ġbaya kwazi
Ġyom lomo
Ġaka zi
ou ble
Lu cks
IM BONISELO
Ga lati
dini we
ĠSo ft
ĠIN K
Ġana mandla
OM A
funyan iswa
ĠTh enga
Ġneent loni
Ġkuna bo
Ġukuva la
Du tywa
ÐµÐ ¼
Ġve si
Ġgen erator
Tshin tsha
ziin kozo
E dit
e uro
p ile
Ã ł
Ġba bini
Ġye mveli
Ġs wi
Ġs pa
sa zana
ĠA wards
Ġka Sawule
Ġzi dla
ĠB eka
tho tyelwa
Ġ1 10
ĠC loud
Ġun en
co re
âĢĿ ?
ine thiwekhi
phaka deni
ĠIn xalenye
Ġse sinye
ĠF ort
Ġolu chanekileyo
vel y
land elana
Ġyase B
Ġyase Japan
setyenz wa
tra ct
las ane
Mo d
ut la
ut ting
loo d
Ġnase zin
ĠUn yaka
Ġebe kwe
Ġway ena
andu le
ezi phi
ron es
khonk rithi
Ġingq walasela
ĠPh antsi
ĠSt andoff
ĠIsiM ongolia
ÐµÐ½ Ð¸
ĠCi vil
Hua utla
ìĺ ģ
G N
a f
m Ah
Ġ thi
in du
Ġu lo
is ise
on weni
Ġe phu
Ġku thenga
Ġku chaziwe
un ter
Ġo sele
Ġkwi thuba
eng er
Ġyo thando
ti ya
ing i
Ġngoku vumelana
ĠA zi
ro ok
Ġy ela
Ġze mbali
Ġyoku phucula
kwa ba
Ġiin kuni
tsha thi
Ġoku bhaliweyo
Uku qala
Ġse Si
Ġb lock
cin ywa
Ġiya sebenza
Ġnama ziko
Ġom u
id vest
Ġmo le
ĠeM e
Ġebu hlungu
Ġezint liziyweni
dini ke
Ġph ones
Ġfa st
Ġkunoku bangela
Ġva l
sesi Huautla
Ġingq okelela
Ġay isebenzi
IL I
tain ment
Ġspe ed
cano ate
R hwebo
U vavanyo
t ta
in tsuku
en jalo
Ġu Ba
Ġi zo
Ġi futhe
Ġe fika
Ġe troneni
ĠI phepha
di de
um z
kho ma
the za
Ġezi vulekileyo
Ġka H
ro ws
Ġlo ve
Ġm zekeliso
lung ela
ci wane
Ġndi tsho
ĠF il
ol ani
ĠR oll
Ġc hu
Ġwase m
ĠSa si
âĢ¦ .
Ġuye ke
Iin dwendwe
Ġsisi thi
Nga phezu
Ya kha
ando kazi
ĠUbu de
Ġani kele
gqibe zela
Ġnjengesi qhelo
ĠNi ya
twe et
ĠyaseS olomon
Ġch ristmas
âĢ¦âĢ¦âĢ¦âĢ¦ âĢ¦âĢ¦âĢ¦âĢ¦
pound s
rhwaphi lizo
YOKU FUNDISA
ĠIsiMaza tec
! +
H R
P P
c enga
o ff
t isa
× Ķ
Ġi gesi
Ġe Roma
le ase
Ġuku vela
ph iswano
ĠI Sityhilelo
Ġo shi
mb we
Ġkwi ofisi
Ġkwi ilwimi
Ġye Carbon
Ġezi la
ng x
wen zayo
ty isa
Ġyoku fikelela
ĠE dition
Ġezin omdla
fa kelwa
Ġii marike
co pho
Ġizi dalwa
Ġoku sesikweni
Ġoku ziinkozo
ĠIn dlu
Ġzoku sebenzisa
Ġzoku setyenziswa
wan eleyo
ĠR om
res t
hen da
Ġawa yi
ren ta
sen yongweni
Ġkwezi gidi
Ca dastre
Ġkwaba sebenzi
Ġlwen ziwa
Ġlwee N
ĠInt liziyo
chas eneyo
Ġozi thandayo
tyu lwa
ĠIP idgin
Ġbel iswa
Ġmod yuli
Khus elo
inyan ja
G lobal
N androlone
P hilippines
U Y
Y eriko
d ane
i ya
p ul
Û Į
el iseka
en ya
Ġu mbu
ba y
Ġi phantsi
Ġa le
Ġo khoyo
Ġin jalo
Ġezi kumgangatho
Ġlo phando
hu wa
Ġnge entlobo
ĠB oo
he deni
ĠM n
Ġno xa
ci o
bha thi
ch ani
ja la
ĠF ull
Ġkoku sebenza
Ġzin tle
fe za
Ġkom gangatho
Ġkaku mkani
ĠNga lo
Ġkh on
Da ta
Ġumn takwabo
lel weni
ĠCo urse
ĠMe xico
Wa ye
Ġway engu
So ftware
Bi o
fuman anga
Ġge o
ĠCent ral
ĠiK rismesi
xibelel anisi
ĠPremier ship
Hu as
cangca zela
kutha zo
Ġiisi mboli
- ,
b lock
f ish
Ġu bum
Ġku vele
ma yo
Ġuku lawulwa
bo phelelo
yi leyo
to lone
Ġin ki
Ġwa bucala
ĠU G
Ġum fundisi
Ġezi kolweni
Ġngoku visisana
ĠA wun
ĠA zisekho
ro bheham
Ġze erandi
Ġyoku sebenzela
mba lasane
ĠC olo
Ġno yise
Ġza mandla
Ġnoku beka
tsh anga
ĠP DF
nga ma
Ġizi xhumanisi
Ġma kube
po int
Ġloku lawula
Ġse m
thanda buza
uku suka
Ġnama shishini
ĠNgoku khawuleza
IN E
IN DLELA
ĠYa bonani
Ġneen jongo
ru ba
Ġawa zi
Ġiza mbatho
Ġkwaba fundi
isetyenz isiweyo
ĠMo tor
ciph iseni
ĠDi e
YA KA
Ġnjenga bantu
Ġkwan yanzeleka
ĠPh antse
Ġibha si
ĠIS O
ĠIsiKi mbundu
Ġesing ena
ex press
Huas teca
K hen
m ulti
Ġ turn
ba ma
is tan
Ġi mnandi
Ġku phucula
Ġuku cela
ph angi
Ġye fayile
bu zi
Ġyo hlobo
ĠS trictly
Ġsi qhubeke
Ġama jelo
ĠE mirates
ĠB rown
fa kwanga
Ġbe d
Ġbe sebenzisa
ci ous
ĠO kunye
Ġimi khosi
ĠIn k
al gorith
Ġ" .
Ġzo moya
kun zima
ĠG olf
go dlo
qon dwa
Ġnom nikelo
Ġunga fumana
Ġkan o
Ġkwisi qingatha
Ġaka funi
Zi zwe
gen ts
sase Huasteca
Ġuba balo
Ġibha lwe
Ġcha in
ester one
Ġuna kho
Ġqu ot
Ġelun xwemeni
ĠKwii meko
ĠIde as
! âĢĶ
' t
F DA
N dingu
S wa
c elele
Ñ Ĩ
ku ya
ku ki
Ġu Ya
Ġu vule
Ġa vu
se kela
Ġo selula
ĠU T
ĠU mbuzo
Ġna sem
ĠN ding
Ġyo moya
Ġum zamo
ang le
ang cwaba
Ġama qhosha
Ġno lunye
Ġbe hamba
gq omo
Ġla za
Ġeli thetha
Ġse moto
Ġzo dwa
Ġyi mpumelelo
fo liyo
bhu kisha
Ġ5 2
olo kwane
chi thwe
EN E
ĠAba sebenzi
ĠIsiC inyanja
eb la
Ġebu kumkanini
Th int
Ġngezi xhobo
Ġane sibini
Ġman yathelo
ĠBo x
ĠGu ide
Hua wei
ĠFS X
) ?
P ho
S cript
d isa
Ġ phupha
in ts
Ġn engqondo
en k
Ġu gwe
Ġu shishino
Ġi bhanki
Ġe da
Ġng ingqi
Ġo pen
Ġin esi
ke m
Ġwa funa
bu yiswa
fun xa
Ġaba lawuli
Ġaba linganiswa
Ġl wang
Ġka zwelonke
ĠS trong
Ġla w
Ġem ot
ĠNg es
ula r
Ġndi thethe
ĠT or
ĠT ur
ĠO rg
Ġimi xholo
Ġimi funiselo
ĠKu zo
ĠZ uma
vum ile
Ġnama thuba
Ġwaye yi
Ġbo mi
Ġkom sindo
Ġkwisi mo
Ġwase Yiputa
ad s
ĠAma gama
ĠAma zwi
26 4
Ġkwimi cimbi
ĠMo re
xu wa
xu tywe
Ġase kuhlaleni
bhan kini
ĠSo cial
Ð½ Ñĭ
ĠKun jalo
No de
ĠUnga sebenzisa
phucu kileyo
enti al
Ch ile
ĠIsiU rdu
thung elana
I gumbi
Y AN
i indidi
m iso
q hi
z ond
wa ba
Ġi lu
Ġi hlawulwe
Ġe du
Ġe China
Ġe benga
Ġe ffe
ga tya
Ġo suka
Ġba fune
Ġum veliso
Ġsi pho
qu bisana
ri ed
ce mber
ty isiweyo
Ġezin i
ĠY O
ine minyaka
Ġolu hlaza
yu ko
Ġis ele
Ġkum jikelo
Ġban gaba
Ġnd isithi
Ġyen kcubeko
Ġben t
Ġmo vie
Ama lungu
ĠRe placement
Ġimp i
cing elwa
jikele zileyo
Ġpro fessional
Ġene enkcukacha
Ġyezi xhobo
Ġho use
SA RM
ĠUya bona
tshiswa yo
illi on
elin en
Ġzobun jineli
Ġoway engum
gco ba
Ġehlo mbe
ĠCra ck
trak thi
Sey chelles
A WS
E FF
T renbolone
U mbutho
o la
s wela
u li
Ġku qa
yo ba
Ġa mnyama
se x
Ġo cacileyo
mb ana
Ġkun yuka
Ġwa la
mi o
bu zwa
zo la
ta kane
ti us
ĠK wan
Ġezi bangela
Ġezi fumanekayo
Ġaba mhlophe
ĠS pa
ĠS creen
Ġze za
ĠB oku
Ġwe vidiyo
Ġiin tyatyambo
ĠNg ena
phi we
Ġndi hlala
Ġizi hlangu
vi we
ar en
ĠIn kcazelo
ĠF la
ĠD ig
pro f
Ġ5 8
Ġwaye ba
balule kanga
Ġngom zuzu
EN ZE
18 0
kanga la
Ġnemi butho
Ġumn yango
Ġema shumi
lahle kile
Ġukwa zisa
Ġsisi fo
ĠPro fessional
Th umela
chapha zeleka
yame kele
Ġngokun yaniseka
Te knoloji
GA QO
ĠeB razil
Ġengena yo
Ex change
Theng i
ĠIsiBa ssa
ĠngoLwe sine
Ġfe ed
AP I
Ġwel ding
luphe ko
H or
H al
U tsho
Ġn entengiso
Ġe Mi
Ġe balaseleyo
Ġku qhuba
Ġku bangelwa
lo y
da tabase
Ġo thanda
mb umba
ĠU Sathana
Ġkwi mpilo
tha yo
pha tho
ang zhou
ĠK wanga
ra k
ĠS D
ĠC PA
Ġno kwakha
phi wo
pa d
ar l
int on
ĠIn oku
Ġse S
enz anga
Ġc ent
Ġ3 65
19 94
shi on
Ġngoko qobo
ĠuM velisi
14 7
Ġwase Asiriya
qeqes he
Ġlase kunene
Ġha mbo
Iin dawo
AL WA
vus elelwa
ell en
Te k
qule thwe
AND LA
qubu liso
Ġkwase kuqaleni
Ġ! ,
ĠwoM ntu
uvalu an
C isco
U hambo
g el
Ġu vale
ye yona
Ġi phi
Ġi oyile
Ġi glasi
Ġi mbuyekezo
Ġe sino
Ġa bona
da te
ko hliso
um dlalo
Ġin taba
kho mbeni
Ġba phume
Ġna phezu
isi t
Ġnga manani
tu diyo
Ġezi fakwe
Ġezi dibeneyo
Ġezi chaphazelekayo
Ġezi thandekayo
Ġaba thetheli
Ġl and
qa bunga
anga tho
Ġkwe zemidlalo
Ġsi phile
Ġsi hlandlo
Ġze datha
kwa kho
ĠM H
lung eleyo
Ġnoku khuthaza
tsh isi
pa hla
Ġizi balo
Ġma wu
Ġloku thenga
cu ma
Ġban gen
bho ham
ĠMa d
fe ti
Ġwo kwakha
Ġyin yani
Ġp ic
Ġyen konzo
Ġint onga
ĠIsiT uvaluan
rha si
Yo wabhi
gx eni
Ġnobu chwepheshe
gcin eni
Kwi China
Ġkwint langaniso
ĠInt lawulo
many eneyo
Ġuqinise kile
Va vanyo
gri di
Blue tooth
ĠKuthe kani
ĠPu ebla
olly wood
ĠLika Thixo
M u
U ng
Z ande
e ces
q end
x ini
Ġu bizwa
Ġi mozulu
Ġe Indiya
Ġuku tshintshwa
bo phelele
Ġkwi bhola
Ġna leyo
Ġne zindlu
Ġezi pholileyo
ro c
Ġzi fundo
ce i
Ġle mali
mp li
tho ko
ĠC le
ĠT O
vi t
Ġse be
Ġzo vavanyo
Ġkwin dibano
khi wane
Ġyase G
ĠJ une
Ġbo ok
phel ise
kca so
Ġwom hlaba
ĠNo vember
AS I
Ġyayi ku
Ngo ma
ĠLa w
Ġzika Yehova
zon ka
ser va
cel ona
chapha za
Pre mier
Mar k
Ġgi rl
Ġezis uka
Ġyon qulo
Ġolunga kumbi
bre w
ĠSci ences
sto ck
Ġkuy enzeka
ĠArc GIS
C M
E X
J W
b elwe
u ses
Ġu thile
Ġi kwi
zi bona
Ġku faka
Ġku dibana
kh ongo
ma lware
Ġuku landelela
Ġkun om
Ġwa mandla
ĠU mbutho
Ġye zandla
Ġne golide
the thile
ta le
ĠIsi Zande
Ġl isa
thu le
ri funa
Ġama zinga
Ġyoku qinisekisa
Ġno J
us we
or der
gq wi
ĠL onke
Ġesi li
mn tla
ĠIn tshayelelo
Ġzo Lwazi
ĠH er
ĠR u
Ġnama xesha
Ġpo si
gra ma
manga lo
Ġngeen dawo
sase Northern
Vi deo
Ġoyi Ntloko
ĠIing cali
ĠFor mula
ĠIM I
ĠUmn twana
thobe kileyo
Ġokwesi bhakabhaka
qhwi thi
A f
B anga
I d
M gqibelo
] .
i ing
z elweyo
à ´
â ĸ
Ġn enza
Ġu gqibe
Ġi tyuwa
Ġuku sela
ph angela
Ġo wn
be kele
Ġye candelo
Ġs eli
va lwe
ta to
Ġngoku thatha
Ġngoku sondeleyo
re cep
Ġm is
Ġyoku thetha
Ġnge ent
Ġngo vuyo
Ġngo Juni
ĠC ross
hl elele
Ġeli mnandi
Ġkuba zalwana
Ġesi lula
ch ing
cha zayo
go v
Ġkwii projekthi
ĠSi yazi
diban iselwano
Ġngama lungu
Ġkwisi celo
Ġmo tor
Ġyam kela
lan ce
Ġngokwa wo
ven ture
jong we
phefum lelwa
Co in
Ġdi ffer
The mbu
engu ye
Ġluka Yehova
Ġzibe kwe
ĠSer vices
Ġekun ciphiseni
xham li
Ġolo meleleyo
Ð°Ð ·
Ġve tshe
qokel elwe
èĭ± èªŀ
Ġkwabase Korinte
Sasa zo
I phepha
I posi
T N
b is
Î ¹
Ù ĩ
Ġ ju
an cial
th mus
Ġi boniswe
Ġe Dubai
Ġe papashwe
Ġuku khuselwa
Ġo dumileyo
ĠU fanele
ĠU rhulumente
Ġye mvelo
Ġum phezulu
Ġezi gqityiweyo
ĠS uku
Ġsi bu
Ġze ze
Ġnge yure
Ġnge kamva
Ġngo wama
mp us
he i
Ġwe zwelonke
bi es
lung i
mo bolan
ĠO wu
Ġzoku pheka
Ġzo lwazi
pe ti
uni firam
Ġngum hlobo
ĠuM phathi
Um hlaba
ĠIsiT ongan
ul f
mis elweyo
Ġanga bi
gen ce
Ð¾ ÑĢ
cho foza
sel s
gunya zisiweyo
Ġngobu lumko
Ġkung oku
Chi ld
ler s
Ġuno bangela
Ġuse d
OR T
ĠnguM ongameli
khuba zekileyo
Ġlw engqondo
ĠSpe cial
Sama ri
Ġekutheng iseni
A manani
A mori
P U
U za
a ve
k pe
m sha
x ungu
Ġi qale
Ġi klasi
Ġuku phuhliswa
un cu
Ġwa bonakala
Ġba fana
ĠN ama
Ġum zuzu
Ġezi cacileyo
Ġlo kwenyaniso
do ti
Ġm andla
Ġm anu
ĠE nd
ĠE mveni
Ġza thi
ĠUku jonga
Ġesi hogweni
ar k
ar de
Uku hlaziywa
vu kela
Ġlu khuni
ĠF ish
kun yiswa
yu una
Ġc usto
Ġp ur
Ġnda funda
IN YE
bhi meleki
mer o
Ġnemi ba
beke ka
con tra
ĠIsiF on
Ġbi g
au dio
ĠIsiKi kongo
Per sia
ĠPri ce
KW ENZA
.âĢĻâĢĿ +
ìĺģ ìĸ´
yuuna iki
B eka
B ill
H y
V um
W am
h h
o ri
Ġ cur
ku qala
Ġn ele
ye d
Ġe chaphazelekayo
Ġku gcina
Ġku sapho
li va
ĠI mp
da d
Ġkwa manani
Ġs anga
Ġs ukuba
Ġne mpumelelo
hla sele
Ġnga man
xa s
ĠIsi Wa
Ġngoku khetha
Ġkwe misipha
Ġze P
Ġyoku lungisa
Ġle Mpuma
Ġngo kholo
mba mbano
ĠB enza
us ha
Ġii yunithi
Ġnoku fikelela
pa yi
Ġsa ya
Ġloku ya
vu kala
ĠH lola
dlu lela
thanda ze
Ġes hukuma
ĠZ I
Ġyase Brazil
lin dile
Ġzin tathu
men tal
hlan jululwa
ĠBa kho
Ġkwii mveliso
Ġnama zwe
Ġnee bhonasi
Um qeqeshi
hamb elane
Ġkwiin cwadi
Ġ6 4
fundi leyo
Ġwesi kolo
cal ly
ont si
Ing u
Ġali qela
Ġezise zantsi
feze kiswa
feze kise
ĠuYo wabhi
lane t
Iing xelo
tro gen
Ġkha di
ĠCor poration
Ġibu ye
hy po
hana han
J E
d yo
h ere
y inga
Ġn kalo
Ġu qhubeka
th ere
Ġi marike
Ġe cinga
Ġku chazwe
Ġuku tshata
kho mbisi
Ġwa banjwa
Ġne gunya
ti mate
Ġezi thengiswayo
wu za
ĠA ban
ra c
Ġka Yakobi
ce utical
Ġama khonkco
Ġnge moto
Ġaban obu
Ġza bantwana
Ġii bhanki
Ġw onwabe
hlo tyeni
Ġngu Ma
bhu la
mpa tho
Ġp u
Ng ingqi
Ġnaba phathi
Ġkom zi
tra ffic
Ġubun dlobongela
ĠQ ua
ĠIin kampani
ĠPo le
sase Is
Ġlama Kristu
lon da
Ġane sixhenxe
Bi ography
gqithis ileyo
ĠCar bon
hlambulu la
Iint yatyambo
à¥ ĩ
ĠAka zange
thatya thwe
Ġnakwa manye
Brit ani
Ġyesin inzi
xazulu lo
requ ency
ĠIsiWa yuunaiki
saseIs thmus
I fowuni
I sing
S DI
V er
á Ģ
Ġ gca
in shurensi
Ġu fana
Ġe funyenwe
Ġe jikeleze
Ġku lala
Ġa qhubeke
Ġuku na
um thombo
ho li
Ġkwi akhawunti
Ġye tu
Ġye misebenzi
Ġne zinga
ĠS un
ĠS OKU
Ġze Si
Ġii festile
Ġisi Zapotec
Ġeli ya
kwen zi
mo cra
Ġkuba sebenzi
phi li
Ġndi zama
Ġimi zamo
su se
su alle
Ġngen kulungwane
so sayensi
ĠIn qaku
fu thi
Ġzoku thenga
Ġ/ /
Si riya
Ġkwin kundla
Ġkoku thatha
khi pha
Ġkwisi gqibo
Ġnemi qathango
ĠIsiC hol
no kwenzeka
ĠNa ku
Ġngokwa lo
Ġ200 1
ĠLa mp
Ġana makhulu
Ġac qua
mar ket
hlambulu kanga
saseC ameroon
gcini weyo
ANG C
Ġst andard
Ġnakwe yiphi
ĠngoLwe sibini
qokel eli
vuyisa yo
oki e
ĠNdinga thanda
Ġezingen anto
Apo cali
cathu lo
kcenk ces
qend wana
M el
O onobumba
U Si
a ter
c ond
m isi
m enza
p et
s ungula
Ġu X
Ġu cingo
Ġi Ba
zi pho
Ġku khula
ĠI memori
di tional
Ġin omdla
Ġkwa vela
Ġye ar
Ġyo bhaliso
Ġze entyatyambo
Ġle zemidlalo
he miya
Ġiin donga
Ġisi krini
Ġkuba dlali
Ġoku bonakalayo
Ġeku ngeneni
Ġngen dawo
Ġxa biso
Ġel aneleyo
ĠF light
Ġ" ...
Ġubu kele
ĠZ ange
10 3
Ġom de
khusele ke
La st
Ġwesi xhenxe
Ġwom oya
Ġh y
Ġelin uka
ĠHa ir
Ġzom culo
Ġsase Seychelles
ES T
Ġho rmone
ĠIng caciso
gon yo
Ġkobu so
Ġlomn qweno
IK ELELE
bos ch
3 50
B lu
E dom
R T
a tha
a ir
e en
Ä į
Ġ qui
Ġ qatha
Ġu Bu
Ġe wa
Ġe dibanisa
Ġe qinileyo
zi li
Ġku bon
Ġku dlule
Ġa gain
kh um
se shoni
to p
Ġkwa ban
pha zanyiswa
ti ce
sa lela
Ġaba bha
Ġaba hlanu
do ko
Ġnge khompyutha
Ġngo k
Ġngo wona
Ġli ba
Ġlu landelayo
ĠKu yo
uni ch
ĠUm sasazo
fe ta
Ng enye
Ġnaba khonzi
IN K
las si
Ġmi gaqo
Ġlom tshato
Ġezinga qhelekanga
Ġebe ku
Isa ziso
De uteron
ĠuMa ma
chas ana
Ġwas weleka
Fi re
ngcwa ba
Ser vo
Kw isi
thandabuze ki
Yona tan
ĠSupp li
Apocali pse
F E
a ge
c ando
d f
Â Ĵ
Ġn kcazelo
Ġu Ng
Ġu khuselo
Ġu dale
Ġa w
Ġa bi
ya ye
Ġuku linda
ka liswa
un ye
Ġo kwi
Ġum zali
ĠA zure
qa yizi
Ġkwe T
Ġy ango
Ġze bhola
Ġzi bizwa
Ġwe khasino
us ela
Ġeli bizwa
Ġeli khethekileyo
Ġesi hla
so urce
ĠIn formation
qon kqo
gi be
Ġkoku setyenziswa
Ġf ind
ly sis
Ġint lanzi
Ġben dlu
zal elwane
yis ha
Ġkwimi hla
Ġnes o
che ba
Nga loo
ser ver
ĠUM FANEKISO
Ġukuyi fumana
yini ka
Kha bhinethi
CAD ia
Nt lalo
ãĥ Ī
Ġumhla mbi
godu ke
ĠAyi kho
sco pe
ĠTho mas
vumel anisa
ULEK ILEYO
ĠBuka Thixo
qayizi vele
3 60
A rabhu
C anada
a ble
s p
Ġu cwangciso
Ġi banga
Ġku bonelela
Ġa ko
ya li
kh w
ka mela
Ġkun ama
sa balalisa
ĠA ugust
Ġl ini
Ġyoku Thengisa
ĠE sinye
Ġisi thsaba
Ġeli balulekileyo
Ġizi qinisekiso
Ġoku tsha
Ġoku ngena
Ġma in
ent loni
Ġeku thethwa
qo ma
ĠIn dustrial
ĠIn aliti
Ġolu bi
lawu lwayo
qhu bele
Ġban a
Ġzin i
Ġeza ziwayo
onge zo
ĠUm gca
Ġenga yi
Ġnezi celo
fundi le
Ġkube mi
ou le
phuhl iswe
Po lisa
zel tal
ĠEn tsha
mpu kane
Ġdo wn
cre ws
Ġngabo m
Ġezis hushu
Ke y
ĠÃ Ĳ
ĠIsiGa rifuna
vol onti
cka ging
oxi da
U bunzima
Y into
g ma
á Ł
Ġu Ti
Ġu senokuba
Ġi xhala
Ġku banjwa
kh wel
Ġuku thandaza
Ġuku khanyisa
ph eleyo
ĠI phone
di deka
and ra
ke i
Ġwa zalelwa
Ġkwi vidiyo
Ġye khamera
Ġye zemidlalo
eli x
ang elo
kwa khiwa
Ġno we
Ġw ri
Ġiin taba
Ġiin kolelo
Ġnoku khanya
ĠT u
du du
Ġzoku velisa
Ġlwe endaba
Ġolu fanayo
ĠKu cacile
ĠG olden
cu bu
Ġis enza
Ġkoku ya
ĠWa yi
ver si
Ġbo kwenene
Ġkom oya
hamb ele
Ġwakhe tha
ll enge
hlang ene
Ġkwimi zi
thengisa yo
ĠÐ °
Ġisa tifikethi
qwa ba
ĠUn told
ELA YO
ind ele
ĠNd ine
sind iswe
ĠUbu khulu
site map
hwe ba
phazamisa yo
Ġlw eng
saseA ruba
ĠSur vey
G reen
I khamera
X NUMX
Z ininzi
Ã ¢
Ġu Ca
wa ys
Ġuku qwalasela
Ġuku ngenisa
ĠI thi
Ġo bum
ĠU yi
Ġs isebenzise
Ġum thande
Ġum gubo
ĠK it
Ġkwe entlanga
Ġama banjwa
Ġama hashe
Ġngo Novemba
ĠE ya
ĠC hamb
ong elo
Ġza ye
Ġza banye
Ġii kha
ĠL ong
Ġnoku yi
po sa
Ġesi phelweni
Ġolu de
theng iswe
qin elani
Ġc ontrol
ĠMa teyu
Ġwoku zi
Ġwoku hambisa
Ġp ub
ĠuM dali
Ġnaba landeli
qi kelele
ĠIsiT zeltal
ul tra
ĠNga bo
ran ti
Ġloo k
lingan isi
qonda kali
Ġkwaba thengi
Ġwom n
mpi kiswano
Ġezint weni
Ġph en
To ol
Ġzobu qu
ĠInt elli
Iing oma
Is isombululo
zenz ululwazi
Ġhi m
saseC entral
EB ISO
ĠIsiCa mbodia
Ve ki
sulele ka
ĠQhu beka
Ġedi ted
dinge ki
Ġuhlengahl engiso
C ho
c and
j or
m ong
n okuba
s tyle
y enzi
ku va
Ġn isi
Ġu qhube
Ġi propathi
zi yam
Ġku zwelonke
Ġku funeke
Ġa an
si weyo
si qhelo
bo lism
Ġwa w
ĠU kraine
mi bia
Ġyo phuhliso
ang er
iso l
Ġezi bomvu
Ġngoku m
ĠA manqaku
ra mi
Ġaba meli
Ġkwe Mi
do deni
ĠE xt
Ġwe webhu
Ġno Si
Ġbe cinga
Ġbe khangele
Ġza mehlo
ĠT rump
Ġeku lweni
Ġimi boniso
enz ani
Si ye
andi phe
thand weni
xi t
yin dlela
Ġawa thi
Ġkwizi xeko
Ġzase kuhlaleni
Co ca
cy c
ĠIsiMa mbwe
Ġesa zi
xin wa
coce ka
Ġnokun yuka
ĠIing camango
Ġono thando
ĠWi ts
Ġezinge zizo
ĠUD kt
ĠâĦ ĥ
ĠAp ps
ĠChat roulette
tsonko thileyo
rook lyn
I projekthi
K i
L ou
N M
b hlo
z isele
Ġu suka
Ġu vakalelwa
Ġu fumanise
wa ll
la mini
Ġi layisenisi
on za
Ġe Ka
ma bonakude
Ġwa ter
Ġwa zisa
bu khosini
Ġs iseko
Ġya tsho
Ġyo shishino
xa bana
Ġngoku thengisa
ĠS QL
Ġm isebenzi
Ġz angoku
ce tywayo
Ġle Nkosi
tho za
Ġli de
Ġeku vel
ĠIn dustry
bun da
ĠG eni
Ġeya yis
Ġing ca
Ġwaye hlala
Ġnezi thethe
ster s
Ġneen komo
Ama polisa
Ġkwimi fanekiso
Ġ9 5
Ġkwizi gulane
Izi bonelelo
Ġkween kqubo
pla tform
ĠKU KHO
Ti re
tch er
ĠyeN dawo
phethe yo
yisebenzisa yo
Ġzis uka
Ġkula a
lima za
curren cy
Per u
row ser
deka yi
Ã´ mio
Ġehla thini
ote chnology
Ngeli xa
Ġekukhu leni
phor us
Deuteron Ã´mio
B al
C ity
] ,
r un
x eka
y andi
Õ ¡
Ġn onyaka
Ġe file
ha rd
Ġuku bhalisa
Ġkun oma
Ġin qambi
Ġin tuthuzelo
Ġkwa bonakala
tha gethi
Ġne khaya
Ġezi malunga
sa s
Ġaba lungileyo
Ġm and
Ġze G
Ġze s
Ġyoku vula
ĠB ern
ĠC C
ĠC D
ĠC al
Ġaban gcwele
Ġko lwandle
Ġun gaba
or dekayi
Ġli hle
ĠP lastic
Ġoku qhelekileyo
ĠO ng
Ġuya funa
je cts
mpa ign
Ġyase Mexico
kw engxelo
Ġkuma candelo
nd wendwela
Ġkwama doda
ĠCo ast
ĠSa fe
Ar CADia
mu va
200 2
mon t
Ġene mibala
tyi bili
Ġsom hlaba
Ġnanga ma
ĠEku pheleni
Ġbazi misele
Ġzesi livere
Di e
gqa bini
ĠCha rter
shici lelwa
ĠPar ty
Ġkwing xelo
kwin dla
Ġfo re
ĠHayi bo
Inter national
Ġ× Ĳ
aa aa
Black magic
bour ne
Char les
qatsh elwe
ĠFix tures
Ġekunced eni
ongezelele kileyo
I Si
L oo
S krolela
c c
h eli
n ootro
p les
Ġ mbi
Ġ Ø§
ku vuyela
Ġu zele
Ġu phuma
Ġu fikelele
Ġi fumene
Ġi funyenwe
Ġe khutshwe
Ġe qaqambileyo
ĠI ze
ĠI datha
mb ise
Ġye ma
Ġye zempilo
tha fa
va rd
ĠS amsung
Ġze mihla
Ġama Filisti
Ġle sono
mba thisa
Ġii bh
Ġisi lumkiso
ĠP romo
Ġndi y
Ġoku fanelekileyo
gu ty
Ġlu ni
Ġolu lodwa
yu kela
iseben zis
qinise ki
uku ya
kon zweni
Ġ5 7
Ġ5 9
Ġkom ntwana
qe kembe
Ġnjenge mi
gra fu
Ġde grees
yis ana
ad ing
Ġowa ziwayo
Ġ9 9
ou lou
Iin cwadi
ĠPro pionate
Ġonga yi
Ġandi kwazi
Ġbanga bi
tyalo mali
ĠUnga yi
then olone
Ġay enga
Ġite mpile
gqu gq
Ho bby
phunye zwe
Âł ĠĊ
cto ber
Super Sport
krexe za
A le
A manzi
E arth
I sisindo
i mm
l lo
w l
Ä ĩ
th elwe
is anga
Ġe Sa
Ġa yis
Ġuku phulaphula
Ġuku khulelwa
Ġin kokheli
ĠU YA
Ġkwi mephu
mi weyo
Ġs tr
Ġngoku yin
Ġaba lulekileyo
Ġz onyaka
Ġezin obu
ĠB ir
ĠB lockchain
Ġno R
Ġnoku dibanisa
Ġisi tshixo
ĠO bu
cu re
ĠMa ps
Ġiya fana
Ġp l
Ġing ongoma
Ġyen yama
khan yis
com pass
Ġinga setyenziswa
khusele kanga
yisa yo
Ð° ÑĢ
Ġzama zwe
Ġelin oku
qale kiso
rus her
khwa banisa
44 4
ĠIsiB oulou
ĠEye Nkanga
many ene
peyin ta
Ġiisa yithi
Ġnayi phina
Ġyu an
chongi weyo
A V
E P
H er
I reland
Q ha
h lile
u kun
à ¹
Ġ tyelela
an y
Ġu thele
Ġu De
Ġi thathwe
on di
Ġe Afrika
Ġuku hlaziya
Ġin ezi
Ġin forma
be si
Ġye rhafu
Ġs inika
Ġka G
Ġlo lu
ĠE nga
ĠC lassic
bi ye
ĠL ar
ĠP an
ĠP ers
Ġndi hamba
co o
Ġoku the
gc uthe
ol did
gi o
ĠJ anuwari
Ng en
ĠuM phathiswa
Ġpo s
12 3
Ġkwisi thili
Ġyesi pho
ĠAma lungu
Ġd ream
han nes
lind elanga
rom os
ĠNda bona
Ġta ke
ĠDa ily
gh ts
ĠGa mbling
ĠuY eremiya
qhagamsh ela
Ġib logi
KO SI
Iint liziyo
Ġawun aku
Ġukung cola
Ġcar bon
Ġezisetyenziswa yo
sena l
Oli mpiki
oksi jini
B om
B ig
C SR
H LE
H LO
I Sityhi
R etrieved
c ile
x weni
Î ¿
Ġ vavanyo
in cede
th elela
Ġku cetyiswa
ĠI Mizekeliso
Ġin gcono
Ġba bonisa
Ġye posi
Ġyo mbutho
Ġnga kwe
om pe
Ġngoku faka
ra dio
Ġaba lu
Ġaba thetha
qu beni
Ġzi balulekileyo
Ġngo Februwari
Ġezin dleleni
ĠB rand
ĠC E
Ġko bun
Ġimi bhalo
Ġimi fuziselo
Ġubu gwenxa
Ġc ome
pro fayile
Ġban okuba
ĠuM n
hamb isani
Ġto ol
com puter
Ġde gree
ĠAba zalwana
sta ll
Ġumb andela
Aba hlali
Ġzama Kristu
ungu le
Isa hluko
gqa tso
Ġbesi kolo
phendu lela
Iing xaki
ĠuB ill
Ġayina yo
Tes tamente
gne tic
ĠII I
chukumisa yo
bri el
ĠWord Press
Ġuzin zo
ĠMunici pal
Ġiph ro
ondom ise
a i
m um
p pe
s pa
y wanga
Â °
en mark
Ġk r
Ġe hle
Ġa we
ma khaya
da rine
Ġo thetha
di cine
and om
Ġba thenge
Ġye W
Ġye shishini
Ġum gcini
ĠK no
Ġezi philileyo
Ġaba si
anga lisa
Ġzi lula
ĠE linye
mp unge
fa yo
ĠL ung
ant um
ĠY am
pa ki
fi kayo
ter o
Uku phucula
Ġse arch
cu ko
Ġon om
Ġ5 3
19 98
EL W
pi t
ne ct
qes he
ss on
HA MB
Ġkwaba dlali
ĠLa ke
ĠuA bhisalom
bra m
Ġme tal
ĠIng u
Ġana mashumi
Ġlobu qu
ĠMar ch
Ġfu ll
ust in
Ġkwiing xaki
Ã¡ n
mus cle
fudum eza
ĠEyoM sintsi
ĠMu sic
Ġzoo yise
chukum ise
Khawule zayo
A khawunti
C V
M anase
p lor
Ñ Ħ
× Ĳ
el isayo
Ġku xa
le eve
ga te
Ġa sebenzayo
lo ur
ma ri
ma gama
li ka
Ġo thembekileyo
um eri
ti li
ĠK ol
ca t
ĠA ction
ĠA ASraw
Ġaba thandi
Ġsi fundo
qu el
ĠE bu
mp ro
Ġno Kristu
Ġno tata
Ġiin dibano
Ġeli mnyama
po liseni
gu bha
Ġesi phakamileyo
Ġb elo
st and
Ġuya bona
Ġis angqa
fo x
Ġkoku betha
Ġbu thathaka
Ġzin dwendwe
Ġben dalo
tic on
lingan ise
kis ile
Ġiza zinzulu
Ġzen kampani
IM boniselo
Ġ200 2
Ġngesi quphe
engu qulelo
yoku qesha
ĠNdiya themba
bhin ere
OR K
Ġezizi i
ĠUkun ciphisa
Ġolwa lu
Lat ini
Ġehambelana yo
ĠTes tosterone
Ger man
gala ri
bhayisi kili
goo gle
khohla keleyo
Ġibin zana
Ġemot weni
R X
U rhulumente
U hlalutyo
f engu
k citho
r he
z andi
Ġn zuzo
Ġn Ã£o
Ġku thunyelwa
si mane
Ġuku sasaza
ka ze
ka lisayo
Ġo sho
bo w
es sa
Ġkwi klasi
Ġkwi menyu
Ġum anyano
Ġ( @
Ġy ho
Ġsi yenze
Ġyoku hlamba
Ġngo lwe
ĠE le
ĠM p
ĠL ama
ĠT hu
tsho mi
ĠV ers
Sa yithi
Ġkwezi lwanyana
ĠNa ye
ĠNa we
kelwe yo
khatha zeki
etro li
Pi toli
Ġane sibhozo
ĠIsiTa jiki
ĠAku yi
PHA TH
Ġro om
ĠZe thu
swele yo
phakan yisiweyo
Ġlanga phandle
ĠCoun cil
Ce tilistat
ĠISI QINISEKISO
ĠIsiMi xe
CW AD
Ġeyan eleyo
Ġqua lity
depend ent
E G
H lang
N B
N je
S lo
T shintshela
U qeqesho
c z
Ã ĳ
Ġ mbu
Ġn kunkuma
Ġu file
is iso
Ġi W
Ġi khupha
Ġe jikelezayo
Ġuku bandezeleka
ĠI r
ko liso
ko ooo
to s
ke zelo
ĠU Moses
Ġye phepha
the bhu
sa u
ĠA S
Ġaba velisi
Ġkwe ziyobisi
Ġze R
Ġzi zin
phe ke
Ġle xesha
Ġno xinzelelo
Ġun cede
hl ise
or en
Ġoku ngen
Ġeku lawu
Ġimi bhobho
Ġ- -
In ombolo
phum elelanga
Ġis ondo
ĠJ un
ĠUm zimba
ris to
ĠuM artin
Ġkuma qonga
IN TO
ĠNdi thi
Ġenga phambili
pp ort
ru sion
ĠAba phandi
ĠYe si
ĠDe coiler
Ġndiya themba
Ar senal
Ġsinga ma
ind ise
pti de
ĠNe vada
Ġor der
Ngoko mzekelo
Ġfo ot
ĠUbun inzi
isti m
gubung ele
ĠProdu ct
Ġbakwa Yuda
Ġser vice
Kw intengiso
Ġinko liso
amer ican
Ġtya ba
xini zelelo
volonti ya
8 33
S is
U mama
s yl
Ġ ce
Ġku kha
Ġku jonga
Ġku thumela
Ġa suka
ĠI fowuni
Ġo po
Ġo cinga
Ġin gcwele
Ġna banga
Ġne A
Ġne R
Ġyo luhlu
Ġyo qeqesho
va sh
ti weyo
Ġaba phuma
ĠS quare
Ġm va
Ġsi kweni
Ġz one
Ġnge Bhayibhile
Ġwe suka
Ġza simahla
bi e
Ġli lonke
fi kelelo
vi r
ĠF und
Ġaku sayi
Ġkoku phumelela
ĠMa s
ĠUm xhasi
Ġnama Ngqina
Ġyen tsapho
ĠV an
ĠÂ ®
IN D
Ġngom ntu
Ġyokuba mba
Ġbakhe the
Ba la
Ġanga kwazi
ĠYa seMerika
Ġyom dlalo
Ġasi bonise
Ġzen kqubo
cho la
Ġong cono
Ġbaye ke
Imi gaqo
Ġbaza ku
Pi tso
Ġokun cinci
jen gama
des k
Ġyezo qoqosho
qaqa mba
thande kiyo
Ġkula bo
Za khiwo
ĠAndi yi
OT T
ĠngoLwe sithathu
julu lwe
tyiki tye
pera tion
ĠNetwork s
master s
Ising eniso
N jenga
Q walasela
T ele
Y ena
Z ekariya
a manzi
b enge
k onga
o ba
w g
ku quka
Ġu cacise
Ġi The
Ġi komkhulu
le kela
Ġa pheleleyo
Ġa phumelele
ko loni
isa zi
es ho
Ġye ka
Ġye Propathi
eni ce
Ġl elo
Ġama bango
Ġle qela
kha sayo
Ġno lwalamano
Ġbe vangeli
ĠW illiams
201 50
Ġizi phakamiso
Ġoku lala
Uku khangela
vu lele
yaka tho
Ġngu yise
Ġaku fika
Ġkoku fika
Ġkuku fumana
Ġkuku bonisa
Ġof fer
19 50
Ġnen yaniso
cwa lisa
ĠNgoku banzi
Ġaka sayi
Ġung an
Ġngaba fundi
Ġili fu
Ġnt langaniso
Ndi yazi
Ġbase d
ic toria
Ra y
era tion
ĠIN dumiso
Ġukunga bi
Ġnjenga ye
ĠNgu ye
Ġfi l
Com pact
yane ka
pin ki
ĠIM BONISELO
Ġneza khono
banika zi
Go sa
mpo po
Ġnde va
rame ter
uluman iso
Ġipha siwedi
enn is
esti val
Wel sh
Ġfea tures
chole sterol
Vum elwano
. ]
K RISTU
S tra
c ss
i di
m hlanje
Ġu fakelo
Ġi fake
Ġku velisa
si wa
li ce
li ent
di c
Ġin kwenkwezi
zin isi
Ġezi dumileyo
Ġen jo
qu bana
Ġama gowuli
Ġnge gazi
Ġngo wa
ĠB ONKE
ĠC ru
ĠC ongress
Ġii demon
Ġisi tayela
fi ts
Uku dala
Ġngen dlu
st ri
lule kanga
dala la
Ġbu qu
thand ane
end leleni
Ġnda qonda
Um xhasi
Ġenga phakathi
Ġnjenge e
Ba ya
Ġuthi xo
Ġowa ba
Ġca ll
ZI PHATHA
era mic
ber ry
Ġnanga yiphi
Bu ffalo
aba tha
Ch el
Bi bli
Ġyokun ciphisa
ãĤ ³
Ġnjengesi xhobo
Ġol ona
zolo l
Kun ye
ĠCy pionate
ĠElect ric
JON GA
N ding
N AS
c lusi
e mbed
g ciwane
i kelo
x us
Ġ qala
ku lo
ku ng
el ly
in ted
Ġn anamhlanje
Ġu gcina
Ġu khula
Ġi yure
Ġe Khayelitsha
Ġa khoyo
Ġuku kwenza
ĠI L
Ġo kwenze
bo phe
Ġin zululwazi
Ġba buyela
ĠU tshintsho
tha katha
Ġum si
Ġnga kwi
ta kwethu
ĠK ho
Ġezi zenzekelayo
Ġezi joliswe
Ġkwe ent
Ġze Zi
Ġle datha
fa za
Ġii tafile
Ġiin coko
Ġla le
ĠT ru
bha lwanga
bh ele
In dlovu
Ġzo qhagamshelwano
ĠKu hlangana
Ġyase Rashiya
Ġon di
tshi xa
Ġp lan
Ġkwii fom
Ġkuma lungu
Ġde velo
Ġan zima
Ġyom culo
Ġobu se
Ca uca
fundisa yo
WA ZI
Bu gcisa
ĠRa w
Bo ard
Ġneeng camango
ĠFor um
.... ....
str ing
nam ent
ĠIsa hluko
Ġesisi gxina
ĠIsiKa biye
room s
INT ONI
kli ya
èĭ± è¯Ń
giji ma
Ġemfa zweni
/ ?
J ROOT
K ing
M onti
U p
b lue
m hlaba
Ġn kcukacha
Ġn elinye
Ġu vumele
Ġi beka
Ġi thole
le se
ĠI tali
Ġo philayo
ko v
kho zi
Ġwa hlabela
ĠU senoku
Ġkwa ko
Ġkwa be
Ġkwi tyala
Ġya khiwe
the mbu
ĠA sian
thu beni
Ġzi bonelela
Ġzi thungelana
ty elelwa
Ġyoku yi
Ġezin okuba
ĠB hala
ĠB IM
Ġko suku
Ġnoku ng
ĠP lan
Ġndi bano
co ck
pa wu
Ġma sipala
bha liswe
vi la
vi tha
Ġsa hluko
Uku bhala
ena lo
10 1
Ġwo luntu
ĠSi ka
12 5
Ġaka ba
Ġumn we
Ġulu dwe
Ġnase zi
TH ANDA
manga lelwa
Ngoku nga
Ge ospatial
Ġlama Ngqina
Ġana manci
Ġarticle I
Ġenge yiyo
ququ zel
Ġeziku futshane
Ġnomn qweno
Ġini kwe
ĠeR hawutini
" ]
- >
B hu
G L
I datha
M usani
N om
R H
S trong
h r
x eli
z ra
Ġu khuphe
Ġe Gu
Ġe vulekile
zi xhobo
Ġku cacile
lo go
lo em
Ġin kokeli
Ġs ms
Ġs quare
zo politiko
Ġum jikelezo
ta g
ta il
Ġngoku fumana
Ġen xibe
re place
Ġka masipala
ĠS ol
ĠS pace
Ġkwe mihla
Ġyoku sika
Ġyoku Sebenza
ĠC rypto
Ġbe ma
xo lel
Ġisi dingo
Ġli hlala
ĠUku gcina
Ġndi bu
... "
ĠD el
Ġ" ,"
am ond
Ġngu mama
Ġf lo
ĠJ e
ĠJ ew
fe ktri
Ġyin yaniso
yin dawo
Ġwaye sa
Ġkuma khaya
Ġyesi hlanu
Isi celo
Ġmi thetho
ama sko
ĠSe ptember
Ġuma sipala
Ġokun jalo
ĠBi o
papa sho
Ġyezo bugcisa
din ceda
gcwa ba
ĠYOKU GQIBELA
Ð°Ð ¼
Ġleen cwadi
ming eni
ug by
Ġser vices
Ġngokwemi qathango
cka ge
ĠPocket Win
ÄŁ lu
ĠQhu bekeka
âĻ ¦
C anzibe
D B
I f
c eni
u cle
Ġ lungisela
Ġu ban
Ġu Pa
Ġu zalise
Ġi jolise
Ġi khutshwe
Ġe khokelela
we et
ma to
Ġuku zalwa
un zi
Ġo Phezulu
ts ini
Ġba fundi
eng isa
wen a
ani um
Ġama cebo
Ġle mfundo
us tan
co ci
Ġizi qwenga
ar ning
sh kir
khu liswa
Ġolu khethekileyo
ĠH onda
ĠMa in
bhe kiswa
EL ELO
Ġ' "
Ġnjenge yona
Ġyesi fo
TH ETHA
Ġg vSIG
ĠMe xican
Ġzesi fuba
vun yiweyo
erbi a
CO D
ebru ary
Nd and
iin daba
Ye yokuqesha
Ġnent liziyo
Ġlwanga phandle
ĠPor tu
Val en
ĠIsiChu vash
ĠVilla ge
ĠAdministra tion
A sa
M in
c ana
i mali
k ers
p ur
Ø ¨
Ġ thumela
Ġn cwadana
Ġi lin
Ġi fikelele
Ġin en
Ġye Google
Ġye TV
Ġye dayimani
Ġs lots
tha za
Ġyo Luntu
Ġezi phuma
Ġka la
Ġka Yohane
qa lile
Ġngo yena
ĠE minye
Ġwe sine
xo xe
Ġw onyaka
Ġiin jineli
Ġnoku thi
Ġnoku Hanjiswa
Ġisi thethi
Ġisi tayile
man ina
ĠUku qala
co okies
hlu zi
sh wanka
Ġeku zi
Ġzo hlanga
Ġyi meko
ĠG B
sebenzi yo
yan isile
Ġwen to
esu l
ĠJ an
Ġeng eka
ĠuM e
Ġni li
Ġsoku nga
hlawu liswa
pp ers
Ġneen tsapho
hlang ano
Ġobu phezulu
jong eka
jong ano
Ġyayi kuku
Ġukwen ze
Ġibha yisekile
Ġeyo meleleyo
Ġeyayi za
ĠISi dama
xine zele
Ġngokuco kisekileyo
dlwengu lwa
Ġwu mbi
Ġekuphum eni
ellen bosch
ANGC ISO
A zure
I leta
Q ES
R AM
V o
y m
Ð ¶
ï ¿
Ġn enze
Ġu la
Ġu mbi
Ġi fayibha
on el
Ġe Bh
Ġku yan
Ġku hambo
Ġku bangele
si fanelanga
Ġuku bonakalisa
Ġuku gqithisa
ka kuhle
Ġo oma
Ġba dlala
Ġba qhubeke
Ġya wa
Ġya fika
Ġyo onyana
Ġum tya
Ġngoku sisigxina
ĠA ye
ĠA ya
ra do
ĠS and
ty l
Ġyoku qhuba
Ġwe qonga
ong ikazi
ki t
Ġbe zama
Ġun it
Ġii mfazwe
bi er
Ġem khombeni
bh li
sh ana
ine ering
Ġngen ani
Ġloku khangela
al pha
Ġwen dalo
tat na
Ġsoku fa
ĠOku fumaneka
Ġumb ingelelo
cing isisa
Yi lwayo
Ra ve
ĠTo wer
onal do
bhan on
misa yo
So dom
ĠRa ilway
Ġneeng cebiso
ĠUbu shushu
rus sels
Ġgi ve
Ubu de
boni yo
ny us
ĠyoM sebenzisi
ĠVi ew
Ġlwezi xhobo
phala za
Ġpla ce
ĠiP OD
hy per
igeri an
Ci alis
tyiki tya
Share Point
henyu kazi
Am sterdam
demo khrasi
smart phone
N ika
T ar
i OS
q weng
w isele
el low
in yathelo
Ġn yani
Ġu zuze
wa she
Ġe chi
Ġe bumnyameni
Ġuku zin
se ya
Ġo yenzayo
Ġwa faka
Ġba kha
Ġba fumanisa
bu hlobo
Ġne engubo
zo the
ĠK ra
Ġaba khoyo
Ġl weli
Ġsi cela
Ġama zulu
Ġbe bona
ĠP res
kwen u
ĠUku thetha
co b
Ġesi qhelekileyo
vi gation
Ġeku nye
Ġloku bhala
... '
Ġngu vulindlela
ni ck
Ġwen konzo
Ġkoku phela
19 60
19 99
Ġnen yama
Ġnen ceba
Ġnama zwi
EL ELA
Ġkwisi vumelwano
gra ph
qha than
Ġre feren
Ġlesi pho
Ġisa khono
Ġema khaya
Ġt ran
gwe vu
xh ela
ĠUKU Z
ĠIsiN yaneka
Ġwi re
Ġwazi va
ĠIsiH mong
thethwa yo
hn di
ĠPi ece
EB E
isu ke
cti onary
phambu ka
thuma yo
Ġow omileyo
yibili ka
xabise ke
ĠYA YE
Ġrecep tors
Europe an
Khen ketho
Cauca sus
C entral
O kanye
c tors
i z
j ane
u bomi
Ġ elele
Ġ thetha
Ġu vula
Ġu titshala
Ġi pho
Ġi luncedo
Ġi khuselwe
Ġe phila
Ġe gqithileyo
Ġku bhalwe
Ġuku thabatha
Ġng an
se rt
mb ingelelo
um mangaliso
Ġba hle
Ġna phakathi
Ġne ws
Ġum culi
wen ya
ro utes
Ġkwe khulu
Ġz enzeka
Ġzi lungile
Ġngo mbono
Ġii propathi
Ġiin kundla
Ġeli thembekileyo
ĠP ic
nga phakathi
ter ia
hlu leka
ĠIn kundla
gc u
Ġzo qeqesho
enz hen
Ġkwin debe
Ġnom gaqo
Ġyase Tshayina
Ġngum zimba
Ġint engo
Ġben gama
Ġngama shumi
Ġkom gaqo
Ġunga m
Ġsta r
kamp ini
Ġso bomi
Ama va
16 0
ON O
Ġr s
Li fe
xh elo
ĠPa ul
Ġyobu qu
ĠKun zima
Pro viron
gqa liselo
ĠNdiya bulela
To ba
Lung elo
Ġwayen oku
Wi kipedia
ÐµÐ ´
thamb ile
stra diol
Ġkwanga xeshanye
thath elwe
ĠÐ½ Ðµ
Ġipha kheji
Ġses ona
Ġpri vate
Brit ane
ĠWen ene
itch en
dya rho
Ġbhanya bhanya
B SF
C lip
F und
H lala
Q HA
n an
o tes
ba lwa
Ġi phone
Ġe thatha
Ġe qingqiweyo
Ġku qonda
Ġa quka
lu dwe
lo gu
ka bi
za lela
ana yo
Ġba phumelele
Ġkwa yi
Ġkwi kona
eni or
ĠN daba
Ġne tyala
Ġne mpembelelo
ti ck
Ġezi yingozi
do cument
Ġy entlalo
Ġyoku cwangcisa
Ġyoku phumla
Ġle S
Ġngo Bukumkani
Ġezin daweni
Ġno lwa
Ġnoku dala
ĠP A
Ġlu thando
Ġkwin tetho
Ġban zi
Ġkoku hamba
ĠCa re
Ġkwii fayile
Ġnama shumi
ĠNgoku sebenzisa
shu kuma
ond eleyo
Ġiing ozi
Ġanga phezulu
ĠIsiS esotho
UN GA
thum elele
gun gqi
ced isana
ĠEn anthate
bene yo
lon yulo
vun yel
Ġkwam kela
sind ise
ĠCha za
Ġsen u
qun yulwa
ĠPre vious
gqo bho
Ġhi t
Ex press
ĠIsa ya
UC H
Ġukuse ka
klini khi
mole cular
mbethi manqindi
Ġek lasini
THEN GA
C lo
D ictionary
E m
F T
K EN
K unga
O lunye
U ma
Z u
g esterone
s que
t ine
y elisa
Ä Į
el kom
Ġn indi
th ise
la lontle
Ġe phathwayo
Ġe krwada
Ġku khangela
Ġku chaza
Ġa shi
kh andlela
Ġuku vuselela
Ġng cwele
Ġo bonisa
di va
Ġin te
ana bol
ĠU mbhali
Ġkwi zindlu
Ġya ze
ĠN AM
Ġne gazi
ona r
va liweyo
Ġngoku dibanisa
wo tshi
Ġen yangeni
ĠA pg
qa lileyo
Ġm thi
Ġz we
Ġama gqabi
Ġnge zwi
ĠB re
ĠC utting
Ġii bhola
bon elele
man zini
ĠW ee
vi et
Ġeku yi
Ġ" _
Ġzo sasazo
Ġnom hlobo
kon tra
Ġyase T
Ġaman cinane
Ġaman qatha
Ku bonakala
Um xholo
zal weni
chi c
Ba gwebi
zini keleyo
ll en
Ġnt lawulo
Ġkwama thandabuzo
Li mo
Ġent lokweni
Ġzen tamo
Ġyaba fundi
Ġkwee veki
qho lo
che mical
The tha
36 5
qeqeshi weyo
Khu mbula
hlalu tye
ĠInt anethi
qhe keka
Ġite khnoloji
londolo ze
ĠIsiBa shkir
Ð°Ð ²
Ġawun ayo
bli cal
Ġngokung qongqo
Yeho ya
Ġukonwa bela
cua dor
gule thu
Ġezila lini
" '
L UNG
L GD
S end
S amuweli
U ZA
h g
l isebenzisa
s plit
u de
w om
× ľ
en ne
Ġu dle
Ġu phahla
Ġi thunyelwe
Ġa phakathi
Ġuku thelekisa
Ġuku xhatshazwa
Ġuku pakisha
un es
Ġin dleko
Ġba suka
Ġye Ma
Ġne mpilo
ta yi
ta rio
Ġezi be
Ġen contra
Ġaba tyali
Ġl ino
qu bha
Ġzi chazwe
Ġnge za
Ġno B
Ġisi hlalo
ĠP ort
Ġesi ye
Ġeku fi
su per
Ġ" ?
gc eni
ĠR oma
Ġubu qaqawuli
fo ta
fan elo
fan iswa
Ġban ama
ling isi
Ġzin kulu
ĠCa lifornia
xi de
Ġnaba bingeleli
fund we
qi lima
Ġkwisi bhedlele
Ba fundi
Ġobu shushu
Ġwaba leka
ano zolol
ĠSa int
Ġpa s
os ted
lum u
jo lisa
Ġzama hhala
Ġawu kho
Ġnes isombululo
Ġneeng xelo
of isini
yam kela
Ġngokunga faniyo
Ġngokwen dlela
Ġelun cedo
ĠNgako lunye
FUND O
bhuku da
Mn yama
Hobby carbon
ustan on
Ġrs quo
C ol
E E
F R
O K
U bume
b g
b lank
c l
d ela
f red
q ini
en tsapho
Ġi bho
Ġi qumrhu
Ġe fumana
le xi
Ġa thabathe
Ġo wan
and isiweyo
ke dama
ĠU mboniso
Ġye oli
Ġya kwenza
ang qondo
Ġezi N
Ġngoku beka
Ġaba fumana
qa lwa
Ġze Ma
Ġle mifanekiso
ĠE lo
bi zela
du tyulwa
Ġsa s
Ġlu bandakanya
ĠG rey
yu kliya
zu kise
iseben zini
Ġkum gama
Ġon wa
19 80
Ġnda ye
Ġeya khiwe
ĠÂ ¶
Ġto uch
Ġkwiin jongo
rha be
thum eli
Ġkwimi phumo
Ġkwizi lwanyana
phuhl ise
os iso
US D
Aba sebenzi
Ġdo es
ĠRa il
ĠYo h
ĠuMa teyu
rekho dwa
ĠIing xaki
ĠIing xelo
Com mand
kwin qanaba
nt ana
Sta tion
urn al
Ġekuda leni
C olo
C loud
F C
m mer
n angona
q ande
t um
Ġi e
Ġi vula
Ġku vula
Ġku qoqosho
ga tive
Ġo dlulileyo
Ġo omama
Ġkwi Sebe
Ġye glasi
pha theni
ĠN inga
ta b
ĠK OKU
Ġezi bangelwa
ĠS ul
Ġlo kwakha
Ġlo sapho
Ġsi hambe
Ġz anamhlanje
Ġzi bini
Ġyoku phuma
ĠC anada
Ġaban alo
ĠUku sukela
Ġkuba zali
Ġizi khalazo
Ġke ep
Ġoku Khawulezayo
Ġma lu
Ġnjeng eli
int ent
Uku thengisa
vum elekileyo
Ġyase Ma
Ġnama gama
Ġwaye cinga
ig er
Ġsoku hambisa
ĠAma Kristu
Ġwesi khumba
Ġwom hlobo
jong ile
Po cket
jo in
cho r
Iin dleko
Fa yile
Ġlwen ziwe
Wa shington
funi yo
PH O
ĠBo babini
ĠTi mes
TV U
Ð¾Ð ¹
layis ensi
ĠyeB hola
HE VC
Bon elela
Har ry
Ġspe cial
NG ABA
ĠBel t
ĠAKU KHO
Ãº mero
. '
J A
M esiya
T ime
c kup
n or
Ġu Bha
Ġu yoku
Ġi J
Ġi dosi
Ġku luncedo
Ġa rt
we khi
Ġuku kholelwa
Ġuku phumla
mb elele
ho di
Ġwa yeli
Ġwa fundisa
Ġkwa caca
Ġna bang
isi gxina
Ġngoku jonga
Ġka wonke
ĠS pain
Ġkwe webhu
Ġlo lwazi
Ġz enzululwazi
ĠB H
ĠM id
Ġiin qanawa
ĠUku dlala
phi lile
Ġndi fumana
ent le
mn yango
Uku dibanisa
Ġloku velisa
ĠD S
Ġzo kwa
ĠH or
Ġubu ye
Ġkum gaqo
Ġyase New
oo bani
Ġbo y
Ġkuma gumbi
ĠNdi ku
ĠAma khosi
Ġkwen ani
Ġnt weni
ĠMo un
Ġsom dlalo
Ġkunge kuphela
ĠX L
Ġidi tyan
Ġzinga phi
Kha di
bhekis ele
ĠCom pany
xhala ba
Sase Caucasus
bhiyo zelwa
Ġkho wudi
Ġenom tsalane
Ġwani kwa
xhapha ke
ĠIB C
On line
HL UK
ĠChe ats
rame ters
ĠCertifi ed
gxe kwa
yne phrine
fle gi
vern ment
; /
A manye
R ute
S ON
l ength
z enzi
Ġ gcina
an eli
Ġi fumaneke
Ġe beka
Ġku hlobo
Ġku hlawula
Ġa fanayo
se ki
Ġo phuma
Ġo sapho
Ġs enzo
Ġaba hleli
Ġkwe Bhayibhile
Ġkwe minye
Ġyoku guqula
Ġyoku khuphela
ĠB es
Ġaban ike
Ġza la
Ġii Nkonzo
phu kileyo
Ġisi bonelelo
tsha ti
man da
Ġndi hambe
201 60
Ġoku ne
ĠT est
po s
bh ang
ĠIn ombolo
Ġlwe xesha
ĠWa phuma
Ġwaye ya
tra tion
phin di
Ġwase Bhabheli
Ġ[ [
Ð¾ Ñģ
Ġha r
ic he
lahle ko
ĠFa ir
Ġukuzi mela
Ġsom oya
onwabisa yo
thethi leyo
ĠUbu tyebi
khonza zana
mbon isa
use um
ĠSt andard
Ġmaka be
Ġ>> >
ĠCent er
Ġmu ch
Ġusu se
vana fil
ĠEN TSHA
gxe ki
referen cia
pat too
ĠTsha tisa
Ġtable t
ĠEnter prise
hlaku lela
Ġhea ders
ĠeNe therlands
C ameroon
H ot
I Ma
Q h
X iv
f one
o re
v or
Ġ xi
Ġu phakathi
Ġu qinisekisa
Ġu kondla
Ġi khon
Ġi talente
Ġi odolo
Ġe qhuba
Ġku thabatha
Ġa ke
Ġuku bhengezwa
se ro
ĠU ne
Ġkwi kamva
Ġye projekthi
Ġya fumana
Ġyo W
ti ves
ĠIsi La
Ġngoku bonelela
Ġlo Lawulo
Ġy univesithi
phe tho
phe mbelela
Ġama qonga
Ġngo kweli
ĠC anopy
ĠL an
Ġisi tyalo
Ġisi betho
Ġem daka
Ġeli vela
ĠP anel
ĠW esuka
Ġndi yin
Ġesi lu
hlu the
Ġzoku bhala
Ġb elu
Ġzo zibini
Ġc rea
bhu logi
ĠMa x
ĠMa buyane
Ġwaye ka
Ġyesi Ngesi
Ġso urce
ĠCasino s
Ġowa khe
Ġili xa
Ġndiya kwazi
Ġlom culo
Me ta
Ġnobu lungisa
ĠHa cker
ĠYi za
Ġlama tyala
ii mpawu
Ġlen dlu
ĠTe chnologies
tshintsh we
kom elela
Ġbama zwe
Iing camango
back ground
Ġyint loko
ked In
Ġithe bhu
Ġzezo diac
xhum ano
xx xx
ĠScra tch
crea te
CG MP
ĠChild hood
= &
B H
D T
J ar
M vulo
N L
N P
N andipha
S an
a pha
e u
m un
m hlawumbi
Ï Ħ
el ungu
Ġu loyiko
ba ya
Ġi th
Ġi qondo
Ġi wonga
Ġi tyhubhu
Ġe Ba
Ġku phi
Ġku Faro
Ġa dlale
Ġa hlangane
ma tics
Ġuku thengwa
Ġuku phunyezwa
ele ase
Ġin fo
Ġwa banika
Ġba tsho
Ġezi Manyeneyo
Ġngoku malunga
ca dastre
sa le
ra g
ra h
hu ku
Ġy elo
Ġsi qithi
Ġze mpawu
ri bbe
Ġnge Cawa
Ġnge phanyazo
fa tyambo
Ġii pro
Ġii bhokisi
Ġii dipozithi
Ġii bhloko
Ġnoku bi
Ġnoku thumela
Ġisi gidimi
Ġizi thako
khu ku
Ġel anga
hlaba yo
âĢĻ ;
il an
Ġim isipha
fo tto
ĠMa xa
at an
ver pool
Ġnama bhinqa
ĠLe yo
bhi zinisi
Ġde al
Isi phumo
rha baxa
Ġ7 2
ven ue
Lu hlu
ĠUn cedo
Ġha rd
Po d
Ġnobu lumko
Ġco uld
ĠKa khulu
sele ct
Ġkwemi da
ãĥ ļ
Ġkwezo bunjineli
Ġeyo mileyo
bamb ene
dlulis elwe
dus he
Ġwobu gcisa
Levi tikus
khasi mende
à¥ į
tuthu ko
Ġnk qi
ÑģÑĤ Ð²
muni cations
Ġosem qoka
entu ry
guty ung
CSR F
mpro feti
Ġekulawu leni
Ġreferen cia
. :
G M
I midlalo
S O
W ood
Z antsi
b hlog
g omo
k ishini
n s
y elweyo
z engalo
ķ Ħ
Ġu mi
la pane
Ġi ce
Ġi plagi
Ġe U
Ġe cela
ga li
Ġa so
Ġa shushu
Ġa cinge
Ġuku bandakanya
Ġuku lahla
un k
Ġo fana
di ctionary
Ġin casa
ke tha
Ġwa thandaza
Ġba soloko
Ġye mpilo
Ġye endlovu
bu xoki
ĠN elson
Ġne oli
Ġezi luhlaza
ca me
ĠA D
ĠA PHA
Ġaba thandana
Ġka Rhulumente
qa di
do ki
Ġy andisa
Ġsi ban
ri do
ce an
Ġama dini
ĠB C
ĠB all
fa de
Ġaban tsundu
Ġiin galo
Ġnoku bonelela
Ġisi fuba
Ġem antla
Ġndi de
201 40
ent ines
po ti
po lisi
00 1
Ġsa so
khu lise
Ġloku jonga
Ġloku shisa
ĠR AD
Ġngu N
Ġubu qhetseba
bhe thri
ĠJ IKELELE
Ġwaye soloko
Ġto ur
mis onto
Ġneen cwadi
13 5
Ġd eli
qonda yo
Ġkwama gama
sus we
Ġas inga
cho li
ĠLi brary
Ġg wenxa
ĠEn ergy
ĠFa ce
liti es
xulu man
Ġane sithandathu
Ġbi blical
Ġeling ena
Ġman qaku
tala tweni
PR O
don sa
Ġusu ke
Ġeyin doda
cross ref
Nor th
meme zela
stru ction
ĠCy ril
Ġexperi ence
Engels ka
( /
) );
C OM
R anges
S un
i ma
ì Ĭ
Ġ ).
Ġ gumbi
Ġ qaphela
en yu
Ġi le
Ġi La
Ġi mashumi
Ġi velise
Ġi jikelezisa
Ġe bandayo
lu tho
Ġuku cwangciswa
Ġng qungquthela
ĠI the
ĠI hlabathi
Ġkw ango
ze ro
yi kisa
and inceda
ĠU si
va mile
Ġl isebenza
ĠS ino
Ġno Yohane
Ġbe webhu
Ġun cwadi
Ġiin kosi
Ġnoku lawulwa
ĠP P
wi ck
Ġkuba khonzi
co late
Ġma k
zwe kazi
Ġloku sebenzisa
fu leni
Ġzo mn
ĠG aming
Ġngu lowo
Ġubu thathaka
der al
gi e
bho ra
at tr
Ġon en
ĠUm gaqo
guqu ko
Ġyen simbi
Ġkuma va
Ġ' #
hluk ene
Ġkwisi zini
Ġnezi fo
Ġanga zi
Ġyom sindo
Ġnemi linganiselo
Ndi yi
thun ywe
Ġimp ort
ĠNge thamsanqa
ĠRa dio
Ġikho boka
cs rf
ĠNgu wuphi
Ä± n
Sele ction
Ġyakwa Yuda
Wi ts
Njeng om
ering i
Fili pu
Gqi rha
TSH IN
sub string
BU ZO
ceke ceke
ffff ff
Bun twana
psy cho
Ġchild ren
exe c
ĠBON ISA
Bibli ca
ribbe an
lapane c
! ";
" _
( ).
* /
C rossRef
D ropshipping
G G
K oloni
N Ãºmero
V erse
\ ;/
c wang
g ang
x ing
th ano
Ġi da
Ġi propati
Ġi tyatyambo
Ġi fakiwe
Ġe bhankini
Ġku lwimi
le itura
Ġkun yanzelekile
to Co
ĠU ko
Ġye sini
bu the
tha yi
ĠN C
Ġne mbali
Ġne minqweno
va lela
Ġezi xabisekileyo
Ġ( );
ĠA cid
ĠS crew
Ġsi thatha
Ġz engalo
Ġzi lungileyo
Ġle itura
he brew
Ġbe suka
Ġisi qulatho
Ġli hamba
hlo mbe
hlo bene
Ġizi thixo
Ġeku khus
Ġ" &
Ġ" ";
Ġ" \"
Ġolu funekayo
Ġb wa
Ġ/ *
âĢĻ ,
yu ziyam
Ġis Mobile
Ġaku bona
=" ;
gi beli
ĠWa kho
fe ct
end Child
sha rer
anethi wekhi
ĠIsiT lapanec
Ġwam isa
Ġto oltip
Ġey enze
Ġey enziweyo
vo lumu
Ġukun cedisa
Ġmi zekelo
Mo dafinil
Ġiint lanzi
Ġd sc
Ġre deSocial
Ġda tha
bele ko
Ġbase Mzantsi
ĠNa ba
Ġas ync
Izi fundo
Ġ{ '
Ġ{ "_
Ġpro file
Ġsase mini
Ġuthe mbe
Ġlama doda
khadi bhodi
can celSelect
Ġngee mpawu
To Clip
share Text
get Element
get Selection
ĠCom mon
ngen elela
/" )
Text Selected
Ġ$( '
Ġ$( '.
TO KEN
Sase Toba
view s
hlangabe za
Ġika ti
Ġulwa lathiso
yang weni
Ho je
Ġose kuqaleni
(' "'
form Bus
Ġget Tool
Ġget Strong
(" ");
(" /")
inter linear
Inter linear
search TextSelected
Ġzobun gcali
') },
Ġcapture Share
Ġcapture Dictionary
Ġcapture CrossRef
Ġcapture Interlinear
remove All
remove Class
app endChild
gree k
ĠDis trict
pane se
Ġtho se
Bus cando
tex toCo
Pay Pal
Ġbefore Send
By Id
class Name
Ġshow tooltip
\" "
pia do
qoko bhe
Ġagu arde
Ġcopy ToClip
zare te
ĠMaga zine
Ġ"... ";
Ġinforma Ã§Ã£o
"] ').
Ġ"," )
Ġ'" ');
Ġencontra do
create Range
select Node
fade In
Ġbiblical Share
(/ \;/
exec Command
Biblica Hoje
Ġleitura BiblicaHoje
Ġ"\" ";
Ġtooltip General
getElement ById
formBus ca
ĠcaptureShare Verse
removeAll Ranges
textoCo piado
ĠcopyToClip Board
G PA
P VC
T urk
c lu
c elayo
f ort
h is
p po
x elelwe
Ã ¯
Ð Ĳ
ã ģ
Ġ hlala
Ġ too
Ġu Bh
wa th
la mu
Ġi yinto
Ġi Microsoft
Ġku khonza
ya khe
ma mele
Ġuku tshatyalaliswa
li fa
Ġin formation
ho yi
Ġwa de
Ġwa dlala
Ġwa yenza
Ġba fa
ĠU mbono
Ġkwa Yuda
Ġs ol
Ġne mfundo
Ġne enzuzo
Ġum qeshi
ĠK wang
ĠS ub
ĠS pring
thu thwa
thu kuthe
Ġle shumi
ĠE yoKwindla
ĠC ur
ĠM en
Ġnoku thengiswa
Ġkuba fazi
fi re
ĠT ime
bh ena
Ġesi wa
Ġesi chengeni
Ġimi zila
Ġzoku phucula
Ġlwe S
ĠH ID
ĠH ydro
st ream
Ġes isebenzayo
Ġez isebenzisa
shi yeka
ĠSi tes
ĠÂ ±
Ġpo wer
Ġowa m
Ġkwama shumi
sasa ze
Ġbase kuhlaleni
ĠÐ ·
UM ongameli
Ġlom dlalo
Ġzama tyala
Ġebe si
ĠPro perty
ĠFa st
Ge ogra
Kwa thi
Ġnaku m
Ya bona
ĠBu ilding
Ġkwemi zuzu
Cha t
kro la
Ro bert
Ġngent lawulelo
Ġcha rter
inike zela
Ġsizi misele
esh umi
isu al
zan si
Ġpla tform
Phu culo
ĠeG cuwa
Ð¸Ð ¼
Web talk
thamb isi
thamb eka
gor y
ĠðŁ ĺ
Ġkufi kwa
Slot Site
Ġngokobu hlanga
Ru bhen
Riphabli khi
geoma tes
G al
M thetho
T B
Y in
k angeleko
w heel
Ġu An
Ġu phononongo
Ġe ka
Ġe qala
Ġku didi
Ġku bonakale
Ġku Facebook
Ġku chaphazela
ga raji
si ti
Ġuku qaphela
li mu
Ġo khu
Ġo lwandle
ho go
Ġwa qonda
Ġba khonza
ĠU tata
Ġkwi Zi
ĠN yana
the mbi
ta mba
Ġka Faro
ĠS as
ĠS witzerland
Ġm om
ani kezela
Ġama phondo
ĠC AD
Ġwe P
Ġno rhulumente
Ġisi luleko
Ġisi hlandlo
ĠUku fa
Ġke y
Ġeku nike
int ing
Ġlu ck
fu za
Ġzoku nga
Ġb in
Ġzo ba
tyenz iswa
ĠBa wo
Ġint langano
Ġwaye se
fund isisa
12 8
mis ile
Ġmi fanekiso
EN GO
Mi di
Ġumn u
Ġkwama lungu
Ġth ree
qeqes hwe
phefum lweni
Un yaka
ĠAn ti
ĠNge zantsi
ĠIsiP idgin
Di ffuser
Ġkunoku khokelela
Ġane sithathu
Khu phela
ĠeS pain
Be at
Ġelina mandla
ĠAndi zange
ĠuR ute
ENK ONZO
oxi de
Air bnb
tori al
ĠYu rophu
ĠIZ enzo
har dware
ĠuNe bhukadenetsare
Mauri tius
Ġlwang oku
ï¿ ½
A luminiyam
C N
C l
D ating
N cedo
V enezuela
Y oku
e mi
g onal
l ly
n ciphisa
Ġ í
in er
Ġu sen
Ġu dibana
Ġku fakwe
Ġku tyelela
Ġku manqaku
Ġa qale
Ġa fake
Ġa fakwe
we zi
Ġuku fihla
ĠI sebenza
Ġo co
Ġo phakamileyo
ĠU zi
mi as
Ġs pace
Ġna si
ĠN andipha
ta ti
Ġezi Phezulu
Ġngoku futshane
Ġ( $
Ġkwe tafile
Ġy ange
Ġsi phumelele
Ġze fowuni
Ġze Google
Ġzi xhomekeke
Ġyoku bala
Ġyoku buyisela
Ġle vel
Ġezin yawo
ĠB at
ĠC B
ĠM P
ĠM is
Ġno vavanyo
Ġaban gaba
Ġko mbuzo
lung isi
Ġnoku dlala
Ġnoku zonwabisa
tsh isayo
ena li
ĠIn dian
go go
Ġngu gqirha
il d
Ġis ango
Ġes ingu
Ġkoku mkani
ĠWa buya
min erali
khus elayo
ĠUm shicileli
Ġeya khe
Ġnama siko
ig angatho
hlawu lwayo
chi p
Ġbabe funa
kis ini
Ġiza kuba
lungis elelwa
Ġr un
Ġlom gangatho
Ġngokwe siko
ĠAfrika ans
Ġpro ble
Ġeyi mfuneko
Ġene en
hlwa ywa
Ġsis enoku
Lwe sine
66 9
zalise ke
ac tive
hlon ele
Ġpla yers
Ġungu Thixo
Ġawun a
layi di
stru cture
Ġmod eli
tyun jwa
Ġebho leni
Ġeying ozi
xokel elwane
poko thweni
ĠeMe xico
loem fontein
C al
E ric
E UR
E astern
I ban
R F
R oulette
\ )
b engu
t loko
µ èªŀ
Î ¼
ku futshane
Ġn komo
en sion
Ġu lahlekelwe
Ġi ti
Ġi fika
Ġe Ga
zi zi
Ġa rhente
Ġuku pha
Ġkwa khiwa
Ġye Mi
Ġum zekeliso
ĠIsi cwangciso
Ġen ti
ĠA BA
ĠA manani
Ġaba bi
ĠS wedish
Ġlo Luntu
Ġlo kwenyani
Ġm ol
Ġsi thuba
Ġama fama
he k
kha bhathi
ĠC r
ĠC oo
Ġaban jalo
ĠL et
ant enna
ĠW or
pa ji
ĠT L
Ġeku thethwe
Ġimi vuzo
Ġsa yi
Ġlu hlala
ĠR ub
ĠR etrieved
Ġngu qulelo
Ġngu Kumkani
qin iswa
Ġngama thuba
Ġsta inless
Ġanga phantsi
bang elwe
ĠIsiK rio
Ġre a
26 5
ok yo
han jiswe
Ġkwimi butho
Ġema gxeni
Ġazi zange
Ar Xiv
Ġt ele
ĠMo del
enge za
Ġase Yurophu
ws ki
Ġobun gena
yd ney
Ġkunoku kunceda
mod el
ĠCha llenge
ĠCom mission
funyan we
ĠTh umela
ĠGe orge
ĠPh um
thandi yo
Ġtra ining
ciphe ko
Ġkwent lawulo
teroid s
Ġukusi lela
phen j
cul ture
ĠKum ele
Tsha we
She kem
ĠJohn son
Qe qesha
Ġekufund eni
cko ut
gqwi rha
plor er
G rade
I ON
K ulula
S onke
U ZO
c weni
o ra
is hed
Ġi kunika
Ġe qu
Ġku thengiswa
Ġa fanele
Ġa dle
Ġuku zuza
ka liso
yi kayo
and ong
Ġwa so
Ġwa phila
Ġye m
Ġye bhokhwe
Ġye gusha
Ġne Ma
Ġum gudu
om eleleyo
ĠIsi fundo
Ġen tshona
Ġaba phambili
Ġaba chaphazelekayo
Ġka lula
Ġm ust
Ġm fundiso
Ġzi mele
Ġama hlwempu
Ġyoku ma
Ġyoku qalisa
Ġyoku hlola
tho ut
kha ka
Ġisi qalo
Ġizi thethe
Ġlwe shishini
Ġzo yilo
Ġnom tsalane
10 5
enga bo
Ġbo Mzantsi
Ġpo ly
dlali fa
Ġan obu
Ġyom khosi
Le bhanon
Da let
tri p
ĠDe cember
Ġlika rhulumente
Ġkwizi celo
ĠMo tu
ĠPo und
Aba zali
khatha la
zon xibelelwano
lay ishwa
kro ba
Ġlwaba thengi
yim fihlo
hloni tshwa
gqo gqa
Ġinter net
Ġimin cili
ĠGen eral
ciki zekileyo
Ġri ght
sentshona langa
Feder ico
hei mer
tamba ma
H lela
H EL
I mba
X HO
b ben
c ongolo
l wano
m est
p elo
ku le
Ġn il
Ġu hlolo
Ġi biza
Ġe beng
Ġuku lunga
Ġng qa
Ġng elinye
be kho
Ġba kuba
ĠU hlaziyo
Ġkwi gram
Ġaba funi
Ġaba malunga
de ba
Ġkwe yo
Ġze cala
Ġezin okwenzeka
Ġbe entlanga
ĠP hu
nga thi
pa ck
ent se
ve zwa
Ġzoku paka
bun gakanani
Ġolu balulekileyo
Ġaku yomfuneko
Ġkoku ngena
kon yana
Ġbu bungqina
Ġzin okuba
Ġnen kosikazi
Ng ena
ĠSi fanele
ĠIi fayile
ĠYe ha
ĠYe yiphi
Ġbam isa
vavan ye
ĠLo gin
xibel elane
sel l
lisi an
Ġebo mnyama
Ġyeen konzo
Ġyobu lungisa
thembe ke
ezi fana
yl propionate
Ġhe t
hlalu tyi
Ġbaku thi
ĠHe ad
Com puter
!âĢĿ +
Ġbaben gama
ker ubhi
thin jweni
Lung iswa
bale ke
Ġunike zelo
konwa ba
ĠNgom nyaka
QH ELEKILEYO
Wal lisian
Ġiqa lile
fudum ele
ĠNJ ENG
fowun elwa
Pri mobolan
Ġume hluko
ĠNGE XESHA
qand eni
Ġokwen ziwe
Vir ginia
qhayi ya
4 50
C HA
E d
E ast
G EO
M fundo
u tshilo
v isayo
th eriya
Ġi bonakalisa
Ġi lungiselelo
Ġi qhinga
Ġe O
Ġe kh
Ġe khasino
ma bini
Ġuku sasazwa
Ġo cocekileyo
Ġkw enzekayo
Ġkw inethiwekhi
er os
zin yoni
Ġba lapha
Ġye khompyutha
Ġs isoloko
Ġne elwimi
ing eni
ĠIsi Welsh
ĠS tory
Ġyoku fundisa
Ġbe bu
Ġii kopi
Ġw hatsapp
ĠL en
Ġnoku hlaziywa
Ġisi Wallisian
ci thin
ĠP ump
bha s
hlu pha
oni tor
ve ment
Ġloku fa
bun inzi
Ġes en
Ġyase N
ĠJ ar
onge zwe
Ġyin tsholongwane
Ġiya ziwa
Ġenga zi
khan yo
Ġmo to
Ġan anye
ĠAma xesha
ĠAma zon
Ii fayile
Ġkwama xabiso
Ġr andom
Ġt est
khutha zo
kr we
Nga ko
ĠBe ku
Uni versal
Ġta gs
ĠTe chnical
Ġelinga phantsi
ĠIing oma
bamb elele
Ġndin oku
En yanisweni
Ġsing ena
ĠEng land
Ġabane minyaka
ras mus
HE A
Ġobunga sifanelanga
Ġipro fayile
phanga leleyo
folo khwe
ĠNgokunga faniyo
zii kubhite
Ġemakha yeni
A AS
I so
N jenge
i k
s oko
s untswana
x ter
x unya
an iswa
th ulula
Ġi pen
Ġi vele
Ġi chazwe
Ġi adaptha
on der
Ġku susela
Ġa vume
Ġa thande
ya yi
si kweni
Ġuku bonwa
ĠI foto
Ġo lawula
di al
bo r
ban dleni
Ġin cwadana
Ġin kxalabo
kho mba
ĠU bungqina
Ġkwi komkhulu
bu lu
Ġs iso
Ġna kw
ben zela
ta ma
ti e
Ġezi ko
Ġezi hlukeneyo
Ġen qa
hu konzo
Ġzi li
Ġngo Matshi
ĠC ute
Ġwe Nkosi
Ġwe bhsayithi
Ġko lwimi
or ange
Ġisi mbo
Ġem thini
Ġeli qaqambileyo
man ya
ĠUku fikelela
phi lise
pa lity
Ġoku ngekho
bha yisekile
bha kuki
Ġesi bi
ĠO ka
Ġb ume
ĠR eso
Ġuya qhubeka
Ġubu khosi
Ġubu thongo
at re
end onga
Ġp lus
Ġnda gqiba
Ġeng en
Ġnama qabane
Ġwaye zi
Ġkwisi zwe
Ġubun zulu
mer cial
Ġkwezi celo
lum kele
ic tor
Po wder
xh wa
EK O
ĠPro gram
lini ka
ĠImi gaqo
gunya ziso
EM I
Ġlaba fundi
Ġzeen kcukacha
ink inki
AND ELO
Ġunike zela
Ġlakwa Kanan
Bhe te
kam sh
Ġ\ (
ĠðŁ Ļ
Ð°Ð½ Ð¸
yitha thela
phithi phithi
kwela pha
oot ball
sat ellite
cun gcuthe
ĠYIB A
Ġngokweli zwi
E ks
I bana
K aloku
U kwazi
f ol
m ono
s anda
Î ½
an ing
Ġn tsapho
th uni
Ġi phakathi
Ġe gcinwe
Ġe qinile
ma ray
Ġuku sondela
Ġuku phazamisa
ĠI Lizwi
Ġkw ele
ĠU Yosefu
Ġkwa kha
Ġs ki
Ġs che
pha thwe
Ġya bangela
Ġne Z
ulu be
wen e
Ġsi khundla
Ġ1 25
xo bo
ĠL ou
Ġisi mboli
Ġla bucala
hlo ride
bha lisela
hlu lela
Ġimi lambo
Uku gcina
Uku lungiswa
cu ku
ĠH PS
st one
ĠR O
Ġubu hlanga
Ġes tate
Ġeya bangela
Ġnee mpahla
shu ku
kwi zi
Ġyama Yuda
Ġiza ma
Ġiza ziso
sase Portugal
Ġelin om
Ngo Januwari
Ġok ona
Th un
Ġelu kholweni
Ne therlands
ĠIsiL hukonzo
Ġyent loko
kali pho
gxa la
wend wele
qhwa la
Ġkwase ku
thakazel isayo
ĠDig est
Wam kelekile
Ibana g
A lex
B lockchain
C UK
D J
D utch
F pub
I van
S L
V O
] [
d ha
m wi
v ange
w elwa
y lor
in ery
Ġu tye
Ġu chithe
Ġu jikeleze
Ġi l
Ġe La
Ġku cace
Ġa bonise
lu bi
Ġuku qeqesha
Ġuku joyina
ĠI so
mb one
to po
and ro
Ġwa l
Ġba dle
Ġs ul
Ġs inye
Ġya li
ca rd
Ġen en
Ġsi zukulwana
Ġzi ganeko
Ġngo hlangothi
Ġezin to
ĠB ed
Ġwe C
Ġno Lawulo
hl iswa
Ġisi jwili
Ġem si
ĠY onyaka
du ct
ĠIn anthate
vu ye
Ġse zinto
ĠF IFA
Ġb lack
ono grafi
Ġim vu
Ġban gazi
gi b
Ġzin gaba
19 70
kw angu
ĠuM ika
Ġnaba xhasi
diban iswa
Ġben gaba
Ġayi funayo
khon zeni
Ġsoku gcina
ganga msha
Ġibe the
14 4
lingan iselwa
Ġawa yena
Ġkwama zwe
ven kileni
Ġunoku yi
tshu tshisa
Ġngeen kcukacha
Ngo Novemba
mihla li
lic on
kholo se
ĠPa ssword
Ġnaku phi
Ġfa cebook
Ġelu bala
Ġsika shukela
Ġngase khohlo
ell s
phendu leni
ĠRo ck
Ġkwan ele
AC HA
ef ish
Ġani kwe
Ġninga ba
gxinin iswa
Ġiba mbe
ĠWi re
Ġabangama Kristu
Ġungu bani
Ġyeng eniso
Ġyomn qophiso
reat ment
Ġemo ticon
ĠAra bia
Ġukwe hla
Ġau dio
bhubh ane
Ġjack pots
hlawulelwa yo
ìĬ ¤
C anton
S al
U HD
t els
x ande
z zi
Ġ qwa
in tsa
Ġu kwenzeka
is elelwe
Ġi Ziko
Ġe beli
Ġe thambileyo
Ġe qinisekisiweyo
Ġku qalisa
le ma
Ġa tsho
we to
Ġuku hlalutya
ĠI YA
ĠI lizwi
Ġwa mn
Ġwa khupha
ĠU fumane
Ġya zisa
Ġum hleli
Ġum hlaza
Ġum thetheli
xa ban
Ġezi chaphazela
ca re
Ġaba khenkethi
Ġze gazi
Ġnge zenzo
Ġno dade
Ġii cawa
Ġii layibrari
Ġiin tsana
Ġem qolo
ci lela
ant liziyo
Ġeli dala
mo yeni
Ġoku za
Ġoku hlala
hlu ma
ve ze
Ġse sa
tya le
na c
Ġf li
Ġnom khosi
Ġyase H
lin o
Ġwoku tya
xha kam
Ġto wn
Ġyesi xhenxe
Pa radesi
13 7
Ama zwi
ĠAma zing
Ġowa yen
cwangc ise
sen ti
Ġkwimi zuzwana
lan si
Ġngesi zathu
ĠKa pa
Di banisa
ĠRa ve
hlangan isi
Ġzobu chwepheshe
ĠEx pert
nike zwa
Lwe sibini
ĠSu ite
Ġbun gqina
phazam iso
Ġlwase khaya
qui re
Ġezingena yo
konwa bela
imi z
ĠIint lobo
Ukwa khiwa
ĠAP I
ĠBul b
Yeho shafati
Py thon
opa rds
Ġkumb indi
omele za
ãĥĪ ãĥ
ĠyoW iso
thukuthe zi
1 19
A kun
F re
M on
M etro
S tu
a mba
p id
r eni
u ght
y enzileyo
an cy
Ġu phile
Ġu khenketho
Ġi fumane
Ġi posi
Ġi phelile
Ġi thuluzi
Ġe mba
Ġuku chithwa
ka yi
Ġng xoxo
ĠI lizwe
Ġo mbi
Ġo fanele
di ki
Ġin ketho
Ġkwi T
Ġya hlukile
ĠN OM
Ġum thendeleko
ing er
Ġezi phakathi
Ġngoku fa
Ġngoku thumela
Ġl ela
Ġl isetyenziswa
ĠS weden
Ġsi khetha
Ġsi hloko
Ġsi khumbule
Ġze D
Ġz isithi
Ġzi qala
Ġyoku khupha
Ġnge qubuliso
kwa m
ĠC S
Ġun yulo
xo lelwe
dwa rd
phu zi
Ġnoku hanjiswa
Ġeli kwi
ĠT en
ĠT rust
go dini
Ġis ini
Ġc ele
Ġ3 60
ango ma
Ġ5 6
cwa tywa
Ġom angalisayo
diban isi
Ġkuma jelo
Ġkom khulu
vo t
bhi da
ĠYa ko
ĠAba linganiswa
Ġumn umzana
Ġabe ke
30 3
Ġth ings
Ġisa phulelo
Ġisa mpuli
Ġwom en
Ġwom culo
Ġkwee mveliso
Ġezinga lunganga
elel ene
Ġsase Mauritius
ĠTo tal
ĠIsiA choli
Ġbanga kwazi
Pi eces
Ing oma
Ġcom ment
Ġine mi
ĠBo ard
ĠIsiM bunda
Com ments
xube vange
Ġsaba kho
Ġwayen o
Ġqu es
Ġnu mbers
Ġqha gamshelana
hydro gen
xibelel anisa
ĠLat in
Ġakusi yo
Feder al
ãĥ¼ãĤ µèªŀ
QHUB EKA
ãĤ³ ãĥ¼ãĤµèªŀ
CUK ACHA
A p
a zi
i int
n tshona
z heimer
Ø ¯
in kampani
Ġu va
Ġu kha
th eleyo
Ġi g
Ġi fanelekile
Ġa dlala
Ġuku gula
ĠI cacile
un ch
ko sazana
Ġin okwenzeka
be d
Ġkwi za
Ġngoku thenga
Ġaba gulayo
ro t
ĠE SI
tho kazi
ki zi
Ġbe Bhayibhile
Ġko omatshini
Ġii bhokhwe
ĠY E
Ġma kanga
po rate
sh unya
ena te
ĠIn ika
ol and
am ino
Ġngu R
Ġkum zimba
bho ti
ĠZ in
ĠJ ordan
bel l
pi li
Ġnjenge en
Ġneen wele
Ġnemi moya
Ġnesi celo
ĠSa thi
Ġunoku kwazi
Ð¾ Ðº
Ġh and
zel eni
Ġnges isa
Ġyezi ganeko
Ġsinga kwazi
ĠuS omandla
ĠKU KHONA
ton in
base tyhini
ĠuE stere
Man zi
Ġbabu ye
Ġyokuzi khethela
Ġelise zantsi
qhum isela
tas sium
lou cester
âĹ Ĩ
K wimi
L IVE
O cta
O disha
U riya
V ac
c isco
è ¨
Ġu Luka
Ġu phephe
is tics
Ġi Ca
Ġi phondo
Ġi hashe
Ġi bhanti
Ġku lungileyo
Ġku khanya
ga w
lo bano
ka ba
ka layo
Ġo yint
es cent
Ġba thabatha
Ġba buya
Ġye Ca
tu be
ta m
ti o
ĠIsi khululo
Ġngoku bona
ng om
sa za
Ġen anthate
ra tory
Ġaba melwane
Ġsi qale
Ġze mvelo
Ġyoku ya
Ġngo mbane
Ġwe endaba
Ġun anamhla
Ġii mpembelelo
Ġiin ombolo
Ġnoku thetha
ĠW heel
Ġizi gwebo
Ġimi rhumo
Ġsa zo
su lelayo
Ġse t
Ma y
ĠH y
Ġnom zi
Ku ye
Ġnama xabiso
Ġenga phandle
Ġwase khaya
ĠYe Bhayibhile
Ġyama Katolika
Ġda de
ut eng
dum ile
Ġbase Yerusalem
ĠSa le
ĠIzi lwanyana
ven tion
Ġkwee mpawu
Iin jongo
Ġong cwele
Ġme hndi
KH E
ĠEli te
ĠTh ere
len si
Ġyokun ceda
ĠuE lisha
Ġomn inzi
Ġlon yango
ĠIsiBa oule
tyhu tyha
Ġbabu yele
xhapha kile
Ġnesa khiwo
Pol and
ĠChampi ons
ragua y
grog r
E lect
I id
K anti
S peyin
c ked
d anisa
u za
Ø ª
Ġi pi
Ġe sem
Ġe dumileyo
Ġuku dityaniswa
za beth
un xwemeni
Ġo riginal
Ġin qanawa
Ġin kanuko
ĠU bume
Ġkwi bandla
Ġum qulu
om la
om er
Ġngoku yi
ane jala
re hu
Ġka Yo
ĠS port
qa li
Ġlo sasazo
Ġz isebenze
Ġwe Sizwe
Ġno lwandle
Ġii filimu
Ġiin tshukumo
Ġnoku tshintsha
Ġli thuba
kwen a
Ġndi mele
pho la
pa s
Ġesi bhozo
ĠO KO
Ġimi bingelelo
Ġimi mangaliso
Uku sukela
cha sayo
In tetho
ol ler
ĠR ugby
Ġngu mbutho
Ġkwin qwelo
Ġc inezela
ĠZ ONKE
min o
ĠUm tshato
Ġeya yin
Ġenga phaya
Ġyesi ko
nd rome
Ġngaba thengi
Ġ9 6
Ġisa yensi
Ġha ck
Ġezinga pheliyo
Izi zathu
Iin didi
Ġyinto mbi
ĠMe dicine
lic y
DA R
Ġsinga zi
ĠNge zi
Ġandi funi
Di di
Ġus wele
Ġnang endlela
bonwa yo
Ġolun oku
Ġte en
Ð» Ð¸
cine zele
Ġenoku yenza
qhagamsh elo
Ri chard
Ġekwa belwana
bs p
ĠKwe zi
Ġngokung qinelana
Ġava reji
fundwa yo
Ġnde dwa
Ana var
Ġbako wabo
PI LO
ĠNgokwa hlukileyo
ĠPho fu
Ġnakan jani
qondakali yo
vitha mini
E thetha
E mirates
I papashwe
N ET
S ub
a ther
a xis
y enzeka
ku vumela
in shorensi
Ġu bo
Ġe uro
Ġe Bhabhiloni
Ġe khitshini
kh ishwa
Ġng uno
Ġkw andula
ho des
Ġkwa ziwa
Ġngoku landela
te o
re z
Ġka K
qa bu
Ġm da
Ġsi profeto
qu lela
Ġnge zin
Ġ1 19
Ġno lwimi
Ġaban ama
Ġbe N
Ġbe zin
Ġko xinzelelo
ĠL om
Ġnoku hlala
Ġli funa
Ġli phuma
ĠUku qeqesha
Ġeku ba
Ġeku futshane
Uku phuculwa
Ġloku thetha
Ġel us
Ġlwe Si
Ġb ro
Ġkum fazi
mbu mbulu
Ġwo lwazi
Ng elo
Ġing xabano
Ġnama lungelo
Ġkuma sipala
ĠYa kha
Ġiint simbi
Ndi cela
Ġawa ba
Ġkwezi thuthi
Na bani
son to
Ġiz onka
ĠKa izer
Ġâ Ĺ
Ġngezi zathu
Ġngobu lungisa
Ġesa hlukileyo
Ġsis ondele
Ġana yithathela
Ġcon si
IT S
Te ch
Ġaza me
Ġnangoku thi
dili li
qolo mba
ĠyaseS pain
ĠHol m
liba zisa
hydra te
chani cal
Ġkano bom
D HEA
H ydro
I sinyathelo
b b
b la
b ly
k ins
p c
t ely
x elise
an ani
in fo
Ġu phila
Ġu Vi
is ter
Ġe ko
Ġe khululekile
Ġe geomates
le st
Ġa sebenzisa
Ġa qhelekileyo
ya lo
si kelele
Ġuku mela
Ġuku tshaya
um bala
Ġin kolelo
be fundisi
Ġwa ziwa
ĠU gqirha
ĠN T
va li
ĠS P
ĠS um
de os
Ġze endlela
ty win
Ġama za
Ġama cala
Ġle Si
Ġngo yaba
ĠB T
ina ry
Ġko lo
Ġeli mangalisayo
Ġli zi
co very
du be
du ction
Ġimi gudu
khu beka
gqi za
ĠF riend
Ġzoku hlawula
ĠH enry
theng we
Ġim fihlelo
Ġwen jenje
.âĢĿ âĢĻ
Ġnen qanaba
Ġyin tsapho
IS H
Ġni ku
bel u
Ġunga khetha
15 2
Ġkh ulula
Ġwase China
Xho bo
Ġowa ziwa
ĠYe yona
Ġ8 6
no wiki
ĠCo re
Ġasi kho
Ġzee dola
Ġong endawo
cono mics
Ta iwan
can ca
khun go
bulala yo
Ġcha tting
ju si
Ty hini
Ġzis enoku
Ġuy andi
londolo zwa
yus elwa
Ġuyaku thanda
Ġyomn twana
à¥ Ģ
ĠJack son
Ġonge zantsi
ĠÐ½ Ð°
Ġstu dents
tyh eli
Ġime yile
Ġsokun ene
Ġezihambelana yo
Wat ch
ĠItali an
A rt
E zin
E cuador
I minyaka
T Ãľ
U I
U mbhali
g ba
m khosi
x ury
Ä Ľ
Ġ ren
wa se
Ġi lawula
Ġi khetha
Ġi hambelana
Ġi dabi
Ġe bandakanya
Ġku lwazi
Ġku fumanisa
Ġku lawulwa
ph ane
li tha
li fe
ĠI tsho
mb indi
yi kisayo
Ġba ban
Ġkwa kuba
Ġkwi mvelaphi
bu ry
Ġs angokuhlwa
Ġyo Lwazi
ini kela
ta se
ti t
Ġaba kho
Ġsi thathe
Ġzi phantsi
ce dwe
Ġwe zandla
ĠW oo
phi a
Ġndi kho
Ġoku futshane
Ġeku thini
Uku fikelela
Ġzo thutho
Ġzo Luntu
cu t
il ling
ĠZ en
bhe je
Ġon tsundu
Ġwoku sebenza
Ġzin ama
tshi phu
Ġnen kululeko
Ġom sebenzi
tra in
phel eli
ino bho
Ġumn inawa
Ka ra
ting s
Ġnobu de
Ngo Septemba
Ġise kela
ric ket
PH P
funyan iswe
Ġeline sithathu
Ġeline sithandathu
phosa kele
ĠkwiN dlu
Iing cali
cor ona
EB HAYIBHILE
Ġkwiint engiso
ĠeG oli
,âĢĻ +
yolo ji
cti ce
ĠIint lawulo
fuz isela
ĠUno kwenza
Ġlwent lalo
Ġezinike zelwa
Ġezingq ondweni
Ġinhibi tor
ato m
ĠuYona tan
Bhar na
mocra tic
clusi ve
Ġechi bini
cwang co
Midi yan
D R
I X
O ka
S unifiram
g ene
m ene
Ġ thu
Ġn ono
Ġn elungelo
ba zi
wa khe
la mba
Ġku yise
Ġuku ni
Ġuku tsho
ĠI ron
ĠI galelo
Ġo sa
um l
zin zo
ĠU Bukumkani
Ġkwi qondo
Ġye mfundo
mi li
Ġs ana
pha lo
Ġya la
Ġyo okumkani
ĠK restu
Ġezi hlanu
sa thi
Ġzi gcinwe
tho r
Ġno G
Ġisi thuthuthu
ĠUku fakwa
hlo bisa
Ġma kunga
ent er
ch wayi
Ġsa me
Uku khetha
ena fil
vu yisana
Ġzoku hlamba
kwe hla
zu ki
Ġubu hlungu
Ġis eli
Ġlwa biwo
ĠMa pper
Ġaman xeba
ver tis
Ġnda cinga
Ku ma
Ġnaba sebenzisi
tra mine
Ġkwisi fundo
yama lala
tye bhetye
cac isela
Ġso mbane
Ġneen daba
Ġneen tsuku
ĠIsiK aren
Ġung andi
Ġca ble
lum ke
jo b
ĠNG EN
themb ileyo
ĠuN kosi
Ngo Juni
Ġukuzi va
ĠX in
ĠTra cker
zithi xo
Ġinoku setyenziswa
Ta ble
Ġnjengom dlali
rg y
Ġnakwi indawo
hlangan isene
ĠIs iseko
Ġalu na
UL UM
ĠTa g
ĠAr rows
khali mela
Ġkuna banye
Ġra illy
ĠIsiD rehu
Ġisin yithi
yibili kisa
yanise ke
ĠYA KHO
Ġisis indo
quzu lwano
Bharna bhas
Ġrailly news
C T
E zo
L D
M gaqo
N T
S tudio
e mail
i Pad
k ris
o xygen
p cs
p lanet
Ã «
ku ngu
Ġn kosikazi
Ġn como
en dlu
Ġu yan
Ġu gaxekile
ye zweni
Ġe thanda
Ġe fihlakeleyo
Ġku manzi
Ġku thethwe
si ble
ĠI khaya
ĠI shaja
um hla
be i
es the
Ġba fe
ĠU khuseleko
Ġkwi mpumelelo
Ġkwi mfundo
Ġkwi zakhiwo
Ġye midlalo
Ġye qonga
Ġezi thatha
Ġngoku landelana
Ġsi cwangciso
Ġzi kwa
ĠC eltic
Ġno K
us ta
Ġko phahla
Ġun ceda
me o
me ter
Ġw ongeza
Ġisi fungo
Ġla bantwana
ant lanu
Ġli lo
Ġkuba mba
phi liswa
Ġoku balulekileyo
Ġesi m
Ġesi fanele
ĠO kokugqibela
Ġimi moya
Ġse G
Ġzoku tyela
Ġzo hlobo
ĠG lass
mbo gia
ol wimi
Ġubu za
Ġwoku dibanisa
Ġiya thengiswa
Ġnda qalisa
ĠSi ze
ĠV isa
Ġbo M
Ġnee mvakalelo
qi la
Ġkuma shumi
ĠNdi m
Ġmi bini
Ġngaba sebenzisi
Ġ9 7
lel wanga
Ġlom lilo
ĠLo ve
Ġsom sebenzi
andu lela
tshe tshe
Ġabanga kumbi
Ġali kho
à¤ ¨
feze kileyo
khumbu ze
Ġzeen komo
Ġib hlog
bamb iswano
nt le
Ġkune zinye
rekhodi weyo
Va ricella
ĠFe deration
Ġyobun gcali
ĠMana ger
ĠAM AN
Ġap pro
auto cad
qeng q
coun ter
ĠÑ į
cot land
print wa
Ġsq ft
ĠeQ once
isol ko
UCH ULE
A G
B T
G et
I khaya
c wina
e hir
h liziyo
Â ©
Ġu thengisa
th iswa
la ka
Ġi la
Ġi buhlungu
Ġi qhube
Ġi cace
Ġku Bawo
si li
Ġuku yo
da ya
ĠU H
bu yi
Ġna manani
Ġum gwebo
Ġum sitho
hi la
Ġezi lahlekileyo
Ġkwe khaya
thu ko
Ġlo kwa
phe hl
Ġnge mpelaveki
Ġngo bo
ina ma
me ga
xo lweni
bi lini
gq ong
Ġeli mhlophe
Ġeli zimeleyo
man u
ĠP E
ĠP T
phi kisa
hlo biso
fi kele
Ġesi jikelezayo
mn qa
du ate
Ġsa singa
Ġloku khula
Ġloku bulala
ĠF estival
ji kelele
Ġubu lungu
Ġnom culo
Ġing qumbo
ĠSi funda
Ġben dinga
Ġnee mpendulo
Ġkuma Yuda
ĠNdi fumene
Ġwam xelela
ir es
Ii N
Ġnemi yalelo
ĠPo x
thenga yo
Izi bane
Ġonoku yi
Ġkwint langano
gue se
hlambulu le
Ġukufa kela
Ġzokun cedisa
Ġzokun xibelelana
Ġungu ye
phakan yiswe
prin tiweyo
beth elela
trans mitter
Ġmen u
folo si
Fin land
Ingl Ã©s
Psy Op
mona bant
FUMAN EKA
Õ¡ Õ
ÄĮ es
B ini
I m
T ur
V E
X H
c ong
i f
n om
o ul
o ut
t ts
v ishini
x eleli
Ø ³
Ġ phinda
in yithi
en olone
Ġu khumbula
is er
la v
Ġi cawa
Ġe biza
Ġe cikizekileyo
Ġku N
Ġku qhutywa
yo ri
Ġuku sasazeka
ph ini
Ġo thandekayo
Ġo tshiswayo
ze kisa
Ġwa fumanisa
zin tambo
Ġba zin
Ġye dolophu
Ġna waphi
Ġne wayini
Ġum dala
Ġngoku suka
te ur
Ġka Julayi
Ġm ono
Ġsi kwa
ri cal
ty ulwe
mp uku
tho tywa
Ġii hagu
ĠL O
Ġkuba xhasi
co il
ĠT ro
hlu thwa
Ġloku shicilela
Ġel okuba
Ġim ile
Ġlwa mandla
Ġkoku zi
Ġkoku funda
khi weni
Ġwoku hamba
Ġbu l
Ġp esenti
IS E
gra de
ir s
Ġyesi khungu
Ġ6 6
Ġwase Bhabhiloni
ĠAba thengi
Ġziya ku
Ġth elekisa
ĠÐ µ
ying cwele
ĠeM dantsane
Ġpa rk
Ġwom sebenzi
coko le
ĠiN gqina
cho line
Aba setyhini
Ġzama doda
Ġene zi
Ġzee moto
Ġco okies
mbula le
Ġdi d
ĠBe ar
Ð½ Ð³
Ġzesi fo
Ġkung enziwa
shuma yele
rho xa
ĠTa mbo
ãĤ ¤
saba tha
Ð°Ð ¹
Siya bonga
Ġseen qwelomoya
hydro xy
bit coin
rith ani
ĠuPi lato
ĠChampi on
doko tela
ĠYako bi
) ="
K ind
K unge
a thi
d l
o se
× ĳ
Ġ thabatha
Ġu sithi
Ġu dliwanondlebe
Ġi bo
Ġi phele
Ġi Windows
Ġi qhutywe
Ġku tsha
Ġku khetha
Ġku lungele
Ġa yenzayo
Ġuku fumaneka
Ġuku bulawa
Ġuku xhaswa
Ġuku xolela
Ġng anto
Ġng unyana
ĠI mpumelelo
se ti
um oya
Ġba chitha
Ġkwi khasi
Ġkwi fomathi
Ġkwi webhsayithi
bu lin
Ġs enziwa
Ġs tereo
pha ke
Ġna manqaku
Ġne xhala
Ġyo kwenyani
ti yo
Ġezi gqwesileyo
ca leka
ĠA mehlo
wen wa
Ġlo s
Ġy enethiwekhi
Ġzi thatha
Ġwe sono
Ġaban esi
Ġbe ben
Ġbe hleli
Ġla manzi
ĠUku dibanisa
ĠUku qwalasela
co mbululo
Ġizi lingo
bha lele
Ġesi the
Ġeku qinisekis
ĠD ouble
Ġzoku lala
Ġolu no
ĠG h
st riya
Ġngu ma
Ġis anti
gaba lin
Ġnom phathi
fri ji
Ġnezi ganeko
Ġyesi khumba
Ġan yukayo
lel anga
ĠMo simane
ĠSe curity
Izi thuba
Aba sebenzisi
Int engiso
Ġebe zinga
Un cedo
xulu n
Ġukuyi qonda
gunya zisa
vun wa
ĠDa vid
ĠIs antya
mpe pha
Ġune minyaka
ĠiS undowns
hlangabe zane
Ġukuva lwa
yang wa
fra structure
Ġndingu ye
Ġchi za
tini b
[...]
