{"<s>":0,"<pad>":1,"</s>":2,"<unk>":3,"<mask>":4,"!":5,"\"":6,"#":7,"$":8,"%":9,"&":10,"'":11,"(":12,")":13,"*":14,"+":15,",":16,"-":17,".":18,"/":19,"0":20,"1":21,"2":22,"3":23,"4":24,"5":25,"6":26,"7":27,"8":28,"9":29,":":30,";":31,"<":32,"=":33,">":34,"?":35,"@":36,"A":37,"B":38,"C":39,"D":40,"E":41,"F":42,"G":43,"H":44,"I":45,"J":46,"K":47,"L":48,"M":49,"N":50,"O":51,"P":52,"Q":53,"R":54,"S":55,"T":56,"U":57,"V":58,"W":59,"X":60,"Y":61,"Z":62,"[":63,"\\":64,"]":65,"^":66,"_":67,"`":68,"a":69,"b":70,"c":71,"d":72,"e":73,"f":74,"g":75,"h":76,"i":77,"j":78,"k":79,"l":80,"m":81,"n":82,"o":83,"p":84,"q":85,"r":86,"s":87,"t":88,"u":89,"v":90,"w":91,"x":92,"y":93,"z":94,"{":95,"|":96,"}":97,"~":98,"¡":99,"¢":100,"£":101,"¤":102,"¥":103,"¦":104,"§":105,"¨":106,"©":107,"ª":108,"«":109,"¬":110,"®":111,"¯":112,"°":113,"±":114,"²":115,"³":116,"´":117,"µ":118,"¶":119,"·":120,"¸":121,"¹":122,"º":123,"»":124,"¼":125,"½":126,"¾":127,"¿":128,"À":129,"Á":130,"Â":131,"Ã":132,"Ä":133,"Å":134,"Æ":135,"Ç":136,"È":137,"É":138,"Ê":139,"Ë":140,"Ì":141,"Í":142,"Î":143,"Ï":144,"Ð":145,"Ñ":146,"Ò":147,"Ó":148,"Ô":149,"Õ":150,"Ö":151,"×":152,"Ø":153,"Ù":154,"Ú":155,"Û":156,"Ü":157,"Ý":158,"Þ":159,"ß":160,"à":161,"á":162,"â":163,"ã":164,"ä":165,"å":166,"æ":167,"ç":168,"è":169,"é":170,"ê":171,"ë":172,"ì":173,"í":174,"î":175,"ï":176,"ð":177,"ñ":178,"ò":179,"ó":180,"ô":181,"õ":182,"ö":183,"÷":184,"ø":185,"ù":186,"ú":187,"û":188,"ü":189,"ý":190,"þ":191,"ÿ":192,"Ā":193,"ā":194,"Ă":195,"ă":196,"Ą":197,"ą":198,"Ć":199,"ć":200,"Ĉ":201,"ĉ":202,"Ċ":203,"ċ":204,"Č":205,"č":206,"Ď":207,"ď":208,"Đ":209,"đ":210,"Ē":211,"ē":212,"Ĕ":213,"ĕ":214,"Ė":215,"ė":216,"Ę":217,"ę":218,"Ě":219,"ě":220,"Ĝ":221,"ĝ":222,"Ğ":223,"ğ":224,"Ġ":225,"ġ":226,"Ģ":227,"ģ":228,"Ĥ":229,"ĥ":230,"Ħ":231,"ħ":232,"Ĩ":233,"ĩ":234,"Ī":235,"ī":236,"Ĭ":237,"ĭ":238,"Į":239,"į":240,"İ":241,"ı":242,"Ĳ":243,"ĳ":244,"Ĵ":245,"ĵ":246,"Ķ":247,"ķ":248,"ĸ":249,"Ĺ":250,"ĺ":251,"Ļ":252,"ļ":253,"Ľ":254,"ľ":255,"Ŀ":256,"ŀ":257,"Ł":258,"ł":259,"Ń":260,"ku":261,"an":262,"el":263,"in":264,"Ġn":265,"en":266,"Ġu":267,"ba":268,"th":269,"wa":270,"is":271,"Ġk":272,"la":273,"ye":274,"Ġi":275,"on":276,"Ġe":277,"zi":278,"Ġku":279,"ha":280,"le":281,"yo":282,"ga":283,"Ġa":284,"ya":285,"si":286,"kh":287,"we":288,"lu":289,"lo":290,"ma":291,"Ġuku":292,"ka":293,"ph":294,"oku":295,"Ġng":296,"ela":297,"za":298,"li":299,"ĠI":300,"se":301,"da":302,"un":303,"Ġo":304,"ko":305,"Ġkw":306,"di":307,"mb":308,"thi":309,"ele":310,"ze":311,"isa":312,"bo":313,"yi":314,"Ġkun":315,"ban":316,"um":317,"to":318,"Ġin":319,"be":320,"ts":321,"ana":322,"kho":323,"es":324,"er":325,"and":326,"ile":327,"ho":328,"ke":329,"Ġwa":330,"zin":331,"Ġba":332,"ĠU":333,"Ġkwa":334,"Ġukuba":335,"Ġkwi":336,"Ġye":337,"âĢ":338,"mi":339,"bu":340,"Ġs":341,"tha":342,"eni":343,"pha":344,"Ġkunye":345,"Ġna":346,"Ġya":347,"ĠN":348,"Ġne":349,"eli":350,"elo":351,"ulu":352,"isi":353,"eng":354,"zo":355,"hla":356,"ona":357,"the":358,"ben":359,"fun":360,"Ġyo":361,"Ġum":362,"Ġnga":363,"ang":364,"ini":365,"va":366,"tu":367,"ta":368,"ti":369,"ise":370,"ing":371,"om":372,"hi":373,"xa":374,"ĠK":375,"iso":376,"kan":377,"Ġezi":378,"ĠIsi":379,"Ġngoku":380,"wo":381,"ng":382,"ca":383,"ane":384,"wu":385,"Ġ(":386,"sa":387,"Ġen":388,"ĠA":389,"ra":390,"Ġaba":391,"te":392,"re":393,"Ġl":394,"Ġka":395,"ĠS":396,"de":397,"wen":398,"qa":399,"khe":400,"anga":401,"ileyo":402,"ro":403,"Ġkwe":404,"thu":405,"Ġlo":406,"do":407,"hu":408,"Ġy":409,"Ġm":410,"Ġsi":411,"Ġze":412,"seben":413,"qu":414,"Ġz":415,"Ġkwaye":416,"Ġzi":417,"mbi":418,"Ġnj":419,"ri":420,"20":421,"ani":422,"onke":423,"ce":424,"lela":425,"ty":426,"phe":427,"Ġama":428,"Ġyoku":429,"Ġnge":430,"Ġle":431,"dla":432,"kwa":433,"Ġngo":434,"mba":435,"..":436,"ĠE":437,"Ġezin":438,"mp":439,"ĠB":440,"he":441,"tho":442,"kha":443,"khulu":444,"Ġ1":445,"ĠC":446,"ĠM":447,"Ġwe":448,"ong":449,"fa":450,"kanye":451,"lwa":452,"ina":453,"Ġno":454,"us":455,"ki":456,"Ġaban":457,"Ġbe":458,"Ġko":459,"Ġza":460,"Ġokanye":461,"Ġun":462,"dlela":463,"ĠâĢ":464,"me":465,"hl":466,"xo":467,"kileyo":468,"Ġii":469,"iswa":470,"dwa":471,"or":472,"bi":473,"gq":474,"fum":475,"phu":476,"lung":477,"Ġw":478,"ĠL":479,"Ġiin":480,"esha":481,"Ġnoku":482,"Ġisi":483,"Ġla":484,"tsha":485,"Ġem":486,"ci":487,"ant":488,"Ġeli":489,"bon":490,"man":491,"tsh":492,"Ġli":493,"ĠP":494,"kwen":495,"wi":496,"ĠY":497,"ĠUku":498,"dawo":499,"ĠNg":500,"mo":501,"xesha":502,"Ġkuba":503,"ene":504,"ĠW":505,"phi":506,"elwa":507,"weni":508,"ula":509,"Ġndi":510,"co":511,"hlo":512,"201":513,"pho":514,"nga":515,"pa":516,"fi":517,"inga":518,"Ġizi":519,"Ġke":520,"Ġoku":521,"inzi":522,"Ġma":523,"ĠT":524,"ent":525,"phez":526,"bha":527,"po":528,"bona":529,"bh":530,"gu":531,"Ġesi":532,"mn":533,"âĢĿ":534,"ter":535,"ĠO":536,"ch":537,"hlu":538,"oni":539,"anda":540,"elela":541,"du":542,"vi":543,"Ġnjeng":544,"ar":545,"00":546,"sh":547,"Ġeku":548,"okuba":549,"ine":550,"Ġimi":551,"qo":552,"int":553,"Ġsa":554,"ja":555,"khu":556,"eka":557,"phaka":558,"oko":559,"andla":560,"sebenz":561,"su":562,"gqi":563,"zinto":564,"eho":565,"Uku":566,"zwe":567,"ve":568,"Ġ-":569,"Ġngen":570,"elele":571,"so":572,"ena":573,"ish":574,"Ġloku":575,"Ġxa":576,"sin":577,"...":578,"ehova":579,"ĠIn":580,"vu":581,"Ġse":582,"ge":583,"Ġel":584,"Ġlu":585,"fu":586,"phambi":587,"antsi":588,"al":589,"Yehova":590,"ĠF":591,"ĠD":592,"elwe":593,"hixo":594,"Ġzoku":595,"gama":596,"Ġlwe":597,"bun":598,"ntu":599,"tya":600,"Ġkakhulu":601,"ĠâĢľ":602,"hle":603,"wana":604,"Ġkodwa":605,"Ġ2":606,"Thixo":607,"Ġ\"":608,"Ġolu":609,"yaka":610,"cha":611,"gc":612,"enza":613,"vel":614,"phand":615,"qala":616,"ck":617,"funa":618,"In":619,"Ġb":620,"Ġzo":621,"kun":622,"Ġ201":623,"enz":624,"funeka":625,"ĠKu":626,"ono":627,"xho":628,"wan":629,"Ma":630,"Ġyi":631,"ĠG":632,"onga":633,"Ġ/":634,"tion":635,"fumana":636,"kile":637,"ji":638,"mbo":639,"cu":640,"ĠH":641,"Ġabantu":642,"Ġukuze":643,"kqu":644,"st":645,"lisa":646,"go":647,"dlu":648,"Si":649,"phezulu":650,"phum":651,"hlaba":652,"kwe":653,"ol":654,"ĠR":655,"am":656,"bantu":657,"theng":658,"âĢĻ":659,"yu":660,"kwazi":661,"Ġuya":662,"je":663,"sebenzi":664,"Ġyakho":665,"phakathi":666,"Ġngu":667,"phela":668,"lawu":669,"qin":670,"zu":671,"il":672,"andi":673,"Ġnto":674,"weyo":675,"Ġubu":676,"kqubo":677,"land":678,"yan":679,"iseben":680,"Ġim":681,"Ġis":682,"kela":683,"fo":684,"thanda":685,"fan":686,"fana":687,"phandle":688,"mali":689,"elekileyo":690,"dlalo":691,"Ġinto":692,"ni":693,"qhu":694,"bini":695,"kwenza":696,"Ġkwin":697,"Ġc":698,"Ġ3":699,"thetha":700,"Ġaku":701,"yana":702,"der":703,"Ġlwa":704,"leni":705,"=\"":706,"qon":707,"one":708,"pro":709,"jalo":710,"Ġkum":711,"lelo":712,"enze":713,"hlala":714,"mandla":715,"tyenz":716,"na":717,"hlobo":718,"hamba":719,"et":720,"Ġban":721,"sebenzisa":722,"gi":723,"elelo":724,"bho":725,"Ġwen":726,"Ġes":727,"Ġkufuneka":728,"qh":729,"kani":730,"lule":731,"Ġkoku":732,"mbu":733,"kelo":734,"qinise":735,"ĠWa":736,"bonaka":737,"Ġkuku":738,"phantsi":739,"ĠZ":740,"cin":741,"ange":742,"bhu":743,"phambili":744,"tsho":745,"sebenza":746,"pe":747,"ur":748,".âĢĿ":749,"elana":750,"uku":751,"kele":752,"Ġemva":753,"hayi":754,"Ġnje":755,"Ġf":756,"gaba":757,"beka":758,"Ġ|":759,"Ġapho":760,"Ġnom":761,"Ġnd":762,"kon":763,"dala":764,"mbe":765,"ĠMa":766,"vum":767,"khi":768,"ango":769,"bhe":770,"min":771,"mpa":772,"enzi":773,"Ġyase":774,"ceda":775,"Ġizinto":776,"mva":777,"Ġez":778,"Ġthe":779,"ongo":780,"Ġngenxa":781,"Ġzonke":782,"ling":783,"khona":784,"veliso":785,"uni":786,"at":787,"zwa":788,"lunga":789,"Ġof":790,"zela":791,"10":792,"Ġon":793,"twana":794,"Ġngayo":795,"Ġaman":796,"doda":797,"Ġ5":798,"rt":799,"qela":800,"lin":801,"Ġwoku":802,"leyo":803,"Ġindlela":804,"esu":805,"xha":806,"Ġbu":807,"khus":808,"Ġzin":809,"tshi":810,"ĠJ":811,"iswe":812,"xhobo":813,"Ġeza":814,"onge":815,"19":816,"bala":817,"ĠCa":818,"sino":819,"Ġnen":820,"phezu":821,"wele":822,"xe":823,"Ġand":824,"cwa":825,"shi":826,"thwa":827,"thand":828,"ĠUm":829,"wule":830,"Ġumntu":831,"fe":832,"mnye":833,"end":834,"Ġyonke":835,"vela":836,"Ġwo":837,"Ġukuya":838,"Ġyin":839,"âĢĶ":840,"enga":841,"ry":842,"men":843,"Ġngaphandle":844,"Yesu":845,"kulu":846,"xi":847,"hlan":848,"KU":849,"Ġiya":850,"ver":851,"Ġp":852,"wano":853,"yin":854,"ĠBa":855,"tshin":856,"Ġ4":857,"Ng":858,"oo":859,"Ġnda":860,"Ku":861,"bela":862,"setyenz":863,"thetho":864,"Ġeng":865,"thuba":866,"zisa":867,"ung":868,"Ġeya":869,"beni":870,"Ġing":871,"ĠuYehova":872,"ly":873,"Ġyaye":874,"bonisa":875,"kisa":876,"ĠKwa":877,"suka":878,"tat":879,"zima":880,"ris":881,"lwazi":882,"biso":883,"Ġngoko":884,"sha":885,"kiso":886,"konzo":887,"Ġ>":888,"Ġngum":889,"Bhayi":890,"mkani":891,"Ġmalunga":892,"Xa":893,"IS":894,"kumbi":895,"eleleyo":896,"ht":897,"Ġkwii":898,"Ġkuphela":899,"Ġoko":900,"Ġnama":901,"guqu":902,"Ġom":903,"Ġyen":904,"ondo":905,"kw":906,"Ġphakathi":907,"too":908,"ĠSi":909,"ĠV":910,"Ġint":911,"ĠNgoku":912,"fumane":913,"rh":914,"anethi":915,"Ġyakhe":916,"umi":917,"ĠLe":918,"olo":919,"khaya":920,"angona":921,"Ġwaye":922,").":923,"bhile":924,"ĠuM":925,"lw":926,"Ġnaba":927,"AN":928,"ĠUkuba":929,"nye":930,"Ġni":931,"fund":932,"ĠÂ":933,"funda":934,"diban":935,"yile":936,"odwa":937,"Ġbo":938,"thile":939,"Ġixesha":940,"Ġ20":941,"Sa":942,"Ġben":943,"EL":944,"ika":945,"zinye":946,"Ġngama":947,"eneyo":948,"Ġnee":949,"yeli":950,"Ġezininzi":951,"qi":952,"Ġkuma":953,"Ġkom":954,"Ġ...":955,"loko":956,"Um":957,"balule":958,"Ġayi":959,"Ġkukho":960,"meko":961,"ĠIsiT":962,"thatha":963,"zwi":964,"Ġ'":965,".+":966,"id":967,"cinga":968,"ig":969,"hlabathi":970,"bel":971,"IN":972,"fri":973,"bomi":974,"ĠuThixo":975,"minyaka":976,"Ġnjengoko":977,"Ġkaku":978,"khon":979,"Ġunga":980,"Ġngom":981,"ul":982,"shu":983,"ĠNdi":984,"tra":985,"Ġkan":986,"Ġenga":987,"Ġngokuba":988,"phin":989,"qe":990,"kelela":991,"mveliso":992,"Ġwathi":993,"Ġpo":994,"zantsi":995,"Ġnjani":996,"khawule":997,"Ġsoku":998,"Bhayibhile":999,"zekelo":1000,"Ġsta":1001,"hluk":1002,"hamb":1003,"hlawu":1004,"12":1005,"fane":1006,"pi":1007,"Ġwam":1008,"Ġto":1009,"jeng":1010,"yanga":1011,"ted":1012,"Ġkwisi":1013,"lis":1014,"Ġnezi":1015,"bani":1016,"Ġwakhe":1017,"bonakala":1018,"Ġey":1019,"ĠâĢĺ":1020,"eleyo":1021,"Ġnjenge":1022,"khan":1023,"Ġdu":1024,"intoni":1025,"15":1026,"tsa":1027,"dlali":1028,"Ġenye":1029,",+":1030,"Ġwakho":1031,"Ġkokuba":1032,"daba":1033,"yama":1034,"Ġyokuba":1035,"Ġkwiin":1036,"setyenziswa":1037,"vo":1038,"lungu":1039,"ps":1040,"mis":1041,"gra":1042,"ĠNga":1043,"kosi":1044,"cinci":1045,"Ġkuye":1046,"zal":1047,"ir":1048,"kamp":1049,"bhi":1050,"11":1051,"âĢľ":1052,"chi":1053,"ĠKodwa":1054,"phumo":1055,"wane":1056,"dlala":1057,"com":1058,"ond":1059,"Ġbakhe":1060,"Ġabo":1061,"Ġiing":1062,"tic":1063,"Ġ+":1064,"Ġimali":1065,"elayo":1066,"ziwa":1067,"Ġindawo":1068,"lawulo":1069,"Ġyesi":1070,"fazi":1071,"Ġdur":1072,"las":1073,"kayo":1074,"ne":1075,"res":1076,"tye":1077,"cac":1078,"mbini":1079,"Ba":1080,"qha":1081,"pu":1082,"fanelekileyo":1083,"fanekiso":1084,"ganga":1085,"cwadi":1086,"hlukeneyo":1087,"\">":1088,"Pa":1089,"Ġibe":1090,"tyala":1091,"Ġso":1092,"Se":1093,"Ġ.":1094,"khang":1095,"Ġstart":1096,"khawuleza":1097,"enye":1098,"Ġubun":1099,"wang":1100,"gam":1101,"endu":1102,"Ġkuyo":1103,"suku":1104,"xaki":1105,"zimba":1106,"Ġkakuhle":1107,"Ġmo":1108,"Ġbonke":1109,"Ġukun":1110,"Ġde":1111,"Ġ6":1112,"pp":1113,"phel":1114,"ĠCasino":1115,"oma":1116,"yis":1117,"Ġapha":1118,"qes":1119,"Ġanga":1120,"ĠYa":1121,"Ġkuya":1122,"yithi":1123,"ĠâĢĵ":1124,"ster":1125,"Ġneen":1126,"Ġkh":1127,"13":1128,"fanele":1129,"Ġngexesha":1130,"Ġkoko":1131,"pheleleyo":1132,"diyo":1133,"kampani":1134,"Isi":1135,"van":1136,"gcina":1137,"14":1138,"Ġkule":1139,"ĠNgoko":1140,"Ġbaya":1141,"zini":1142,"Ġwase":1143,"zeka":1144,"Ġuthi":1145,"mfun":1146,"theni":1147,"banda":1148,"lelwa":1149,"mini":1150,"mer":1151,"zulu":1152,"ru":1153,"lwe":1154,"xabiso":1155,"ww":1156,"Ġan":1157,"Ġmi":1158,"Ama":1159,"ishini":1160,"wder":1161,"ct":1162,"bang":1163,"zana":1164,"est":1165,"hen":1166,"Ġkulo":1167,"EN":1168,"bile":1169,"18":1170,"isebenzi":1171,"Ġphantsi":1172,"kwi":1173,"qaku":1174,"webhu":1175,"ama":1176,"ziyo":1177,"tattoo":1178,"Mi":1179,"ll":1180,"cala":1181,"thathu":1182,"Ġukwenza":1183,"qhelekileyo":1184,"Ġbabe":1185,"ran":1186,"Mo":1187,"Ġloo":1188,"Ġyom":1189,"fundi":1190,"lala":1191,"ad":1192,"lileyo":1193,"ristu":1194,"Ġaka":1195,"ĠIi":1196,"Le":1197,"rha":1198,"ywa":1199,"ction":1200,"Xho":1201,"16":1202,"kcu":1203,"elwano":1204,"hlang":1205,"ĠAma":1206,"enxa":1207,"yela":1208,"ĠOku":1209,"gqina":1210,"Ġobu":1211,"Ġakukho":1212,"Ii":1213,"ĠIsiS":1214,"ew":1215,"ĠIsiK":1216,"ree":1217,"tal":1218,"ĠXa":1219,"ĠAba":1220,"kanga":1221,"usa":1222,"Ġyam":1223,"Yu":1224,"Da":1225,"Yo":1226,"000":1227,"wangc":1228,"phepha":1229,"nd":1230,"),":1231,"mente":1232,"rayeli":1233,"yiphi":1234,"Ġinga":1235,"Ġung":1236,"Ġ10":1237,"lele":1238,"frika":1239,"Ġuza":1240,"Ġemi":1241,"lingan":1242,"UN":1243,"ĠQ":1244,"zele":1245,"mpawu":1246,"kis":1247,"Ġnemi":1248,"Ġukusuka":1249,"Ġnam":1250,"Ġumsebenzi":1251,"Ġzabo":1252,"Xhosa":1253,"17":1254,"Sirayeli":1255,"Ġkwen":1256,"Ġkube":1257,"qana":1258,"ino":1259,"Ġyethu":1260,"banye":1261,"Ġngaba":1262,"Ġowa":1263,"Ġumn":1264,"hlanje":1265,"sebenzisi":1266,"Ġiint":1267,"Ġili":1268,"Ġnokuba":1269,"wimi":1270,"gangatho":1271,"Ġd":1272,"Ġca":1273,"line":1274,"Ġkwakhona":1275,"inye":1276,"phuma":1277,"per":1278,"ĠIsiC":1279,"lula":1280,"wun":1281,"Ġabe":1282,"iseko":1283,"Ġsele":1284,"Ġphambi":1285,"kazi":1286,"Ġufuna":1287,"Ġngakumbi":1288,"phila":1289,"Ġwaba":1290,"tor":1291,"bisa":1292,"zayo":1293,"Ġre":1294,"mbulu":1295,"26":1296,"xt":1297,"ss":1298,"langa":1299,",âĢĿ":1300,"thengi":1301,"thum":1302,"ĠYe":1303,"50":1304,"Ġnt":1305,"Ġlakho":1306,"Ġyama":1307,"Ġkunjalo":1308,"Ġ7":1309,"iselo":1310,"cwangc":1311,"Ġkuthi":1312,"Zi":1313,"Ġ$":1314,"dle":1315,"Ġ19":1316,"qonda":1317,"Ġezinye":1318,"Ndi":1319,"Ġ0":1320,"Ġawa":1321,"vidiyo":1322,"ft":1323,"tri":1324,"Ġzakho":1325,"Ġiza":1326,"veki":1327,"qhubeka":1328,"ĠuYesu":1329,"Ġda":1330,"ĠIin":1331,"fika":1332,"yona":1333,"vaka":1334,"ON":1335,"Ġenkulu":1336,"thini":1337,"Ġpowder":1338,"intanethi":1339,"Ġ8":1340,"ut":1341,"kukho":1342,"chu":1343,"onwa":1344,"ere":1345,"mele":1346,"HA":1347,"Ġ,":1348,"sem":1349,"celo":1350,"ren":1351,"ok":1352,"ĠKe":1353,"gen":1354,"Ġlesi":1355,"gamsh":1356,"dum":1357,"AB":1358,"sen":1359,"Ġngokukhawuleza":1360,"jongo":1361,"Ġomnye":1362,"Ġnesi":1363,"tywa":1364,"han":1365,"Ġkwama":1366,"sta":1367,"theth":1368,"no":1369,"ĠRe":1370,"Ġziya":1371,"quka":1372,"Kristu":1373,"Ġulu":1374,"enziwe":1375,"eko":1376,"lungis":1377,"yina":1378,"Ġbaka":1379,"fanayo":1380,"kelele":1381,"onyana":1382,"30":1383,"thun":1384,"fundo":1385,"ĠNgo":1386,"lungileyo":1387,"Ġukufumana":1388,"ĠDe":1389,"bandakan":1390,"cinane":1391,"kolo":1392,"sasa":1393,"kel":1394,"ulumente":1395,"datha":1396,"sithi":1397,"alo":1398,"Ġkwimi":1399,"tes":1400,"Ġr":1401,"lawula":1402,"qanaba":1403,"jonga":1404,"tetho":1405,"ĠKwi":1406,"lise":1407,"Ġth":1408,"as":1409,"Ġngendlela":1410,"Ġ9":1411,"zandla":1412,"loo":1413,"bane":1414,"cedo":1415,");":1416,"bele":1417,"kwenene":1418,"lwini":1419,"Ġam":1420,"ano":1421,"Ġfor":1422,"Ġkwezi":1423,"Ġndiya":1424,"Ġphezu":1425,"landelayo":1426,"ble":1427,"ome":1428,"balulekileyo":1429,"Ġbakho":1430,"onasi":1431,"Ġbase":1432,"liwe":1433,"banzi":1434,"Ġkwindawo":1435,"shumi":1436,"thengisa":1437,"Ġkubo":1438,"lel":1439,"ĠÂ£":1440,"kisi":1441,"manye":1442,"Ġimp":1443,"Ġlika":1444,"gaqo":1445,"gca":1446,"vide":1447,"bhonasi":1448,"Ġkhona":1449,"ers":1450,"ys":1451,"24":1452,"zelo":1453,"lweni":1454,"ĠÐ":1455,"phakam":1456,"Li":1457,"Ġumb":1458,"ĠNa":1459,"ou":1460,"ed":1461,"Ġkwizi":1462,"Na":1463,"Ġabaninzi":1464,"eleli":1465,"rd":1466,"Ġisa":1467,"kacha":1468,"Ġent":1469,"Ġbam":1470,"unda":1471,"Ġsiya":1472,"UM":1473,"lan":1474,"kcukacha":1475,"yango":1476,"ĠCo":1477,"andelo":1478,"Ukuba":1479,"Ġ&":1480,"Ġwaza":1481,"Ġasi":1482,"zange":1483,"Ġyena":1484,"Ġema":1485,"Ġezahlukeneyo":1486,"wuni":1487,"Ġkwesi":1488,"Ġzen":1489,"hala":1490,"khusele":1491,"phando":1492,"faka":1493,"sayithi":1494,"ying":1495,"Ġazi":1496,"yeni":1497,"Ġyabo":1498,"isana":1499,"Ġlom":1500,"Ġigama":1501,"Ca":1502,"Ġleyo":1503,"Ġkukuba":1504,"Ġkwaba":1505,"Ġngokwa":1506,"oya":1507,"engiso":1508,"khethe":1509,"kca":1510,"ĠSa":1511,"Ġngeli":1512,"khosi":1513,"sus":1514,"kwenzeka":1515,"OKU":1516,"Ġlakhe":1517,"Ġamandla":1518,"xelo":1519,"manzi":1520,"wn":1521,"La":1522,"ĠIzi":1523,"cing":1524,"yaniso":1525,"Ġabanye":1526,"Ġ=":1527,"Ar":1528,"ĠeM":1529,"Ġnase":1530,"qwa":1531,"Yi":1532,"Ġpa":1533,"htt":1534,"ike":1535,"ment":1536,"cula":1537,"Ġt":1538,"tshintsha":1539,"Ġend":1540,"phuhl":1541,"Ġkuwe":1542,"gun":1543,"Ġmna":1544,"it":1545,"tshane":1546,"kuba":1547,"thando":1548,"os":1549,"25":1550,"gwe":1551,"Ġkwakhe":1552,"LE":1553,"bum":1554,"inyaka":1555,"ven":1556,"thaba":1557,"angoku":1558,"TH":1559,"eb":1560,"khangela":1561,"enziwa":1562,"khutha":1563,"qondo":1564,"Lu":1565,"Ġ[":1566,"Ġndlela":1567,"qeqes":1568,"dwe":1569,"Ġwesi":1570,"Ġwom":1571,"coko":1572,"phula":1573,"anisa":1574,"Ġlase":1575,"zathu":1576,"thelo":1577,"esi":1578,"zama":1579,"ĠUn":1580,"ces":1581,"dolo":1582,"isetyenz":1583,"mntu":1584,"Ġzethu":1585,"Ġas":1586,"khetha":1587,"dia":1588,"vavan":1589,"ms":1590,"khiwo":1591,"jong":1592,"bantwana":1593,"lum":1594,"Ġunoku":1595,"fowuni":1596,"futshane":1597,"AD":1598,"gqibela":1599,"Ġwonke":1600,"Ġube":1601,"phinda":1602,"endulo":1603,"liziyo":1604,"tshu":1605,"Ġezifana":1606,"Ġyaba":1607,"bizwa":1608,"gle":1609,"Ġentsha":1610,"Ġwena":1611,"ĠMo":1612,"khanya":1613,"ĠLo":1614,"khula":1615,"vumela":1616,"lobo":1617,"Ġebu":1618,"Ð¾":1619,"jikele":1620,"Ġubomi":1621,"ĠNangona":1622,"enzeka":1623,"yen":1624,"sho":1625,"bali":1626,"ĠPo":1627,"Ġnabo":1628,"qwen":1629,"gx":1630,"Ġha":1631,"lenye":1632,"moto":1633,"fumaneka":1634,"bhala":1635,"cam":1636,"Ġh":1637,"isiweyo":1638,"kalo":1639,"lungisa":1640,"kra":1641,"âĢ¦":1642,"ĠEmva":1643,"mpahla":1644,"anye":1645,"themba":1646,"tsuku":1647,"Ġkwee":1648,"ced":1649,"fono":1650,"thenga":1651,"Ðµ":1652,"cid":1653,"23":1654,"ld":1655,"ic":1656,"Ġlonke":1657,"Me":1658,"phefum":1659,"ĠNgaba":1660,"Ġngokwe":1661,"Ka":1662,"Ra":1663,"ĠiN":1664,"Ha":1665,"lahle":1666,"bangela":1667,"ĠKwaye":1668,"isebenzisa":1669,"lind":1670,"pan":1671,"fayile":1672,"21":1673,"son":1674,"xholo":1675,"IM":1676,"qinisekisa":1677,"Nge":1678,"Ġkwabo":1679,"ting":1680,"thela":1681,"Ġezinga":1682,"Ġyee":1683,"US":1684,"rin":1685,"mu":1686,"ses":1687,"bandakanya":1688,"200":1689,"hina":1690,"Po":1691,"ding":1692,"LA":1693,"lwan":1694,"ako":1695,"jo":1696,"Ġphambili":1697,"Ġkuzo":1698,"cal":1699,"yise":1700,"dlulileyo":1701,"kelwe":1702,"lack":1703,"Ġkwaku":1704,"midlalo":1705,"ĠAfrika":1706,"Ġimidlalo":1707,"Ġinkqubo":1708,"Ġnaye":1709,"kxa":1710,"xibel":1711,"mbalwa":1712,"hlabeni":1713,"22":1714,"ĠSe":1715,"Ġuze":1716,"ĠkaYehova":1717,"Izi":1718,"Ġezimbini":1719,"manga":1720,"Ġulwazi":1721,"Ġuyi":1722,"yisa":1723,"liswa":1724,"Ġngeen":1725,"xeko":1726,"Ġnobu":1727,"zalwana":1728,"cho":1729,"rhulumente":1730,"enge":1731,"waka":1732,"ĠNG":1733,"tshini":1734,"Aba":1735,"Ġ2018":1736,"Ġuye":1737,"Ġ2019":1738,"ĠSlo":1739,"jek":1740,"Ġ{":1741,"liso":1742,"Iin":1743,"vula":1744,"khatha":1745,"bone":1746,"Ð°":1747,"zel":1748,"yenza":1749,"Ġ200":1750,"ĠNo":1751,"Ġuma":1752,"Ġndawo":1753,"rk":1754,"phumelela":1755,"sase":1756,"themb":1757,"mon":1758,"ĠLi":1759,"gumbi":1760,"//":1761,"Ġzama":1762,"kr":1763,"buzo":1764,"thele":1765,"Ġsin":1766,"ff":1767,"ĠuN":1768,"Ġelin":1769,"fikelela":1770,"thumela":1771,"dibanisa":1772,"yathelo":1773,"Ġ}":1774,"lang":1775,"Ngqina":1776,"sini":1777,"khoyo":1778,"://":1779,"hlanu":1780,"Ġpro":1781,"Fa":1782,"ĠHa":1783,"Ġg":1784,"kelwa":1785,"luntu":1786,"onyaka":1787,"ĠBon":1788,"xalenye":1789,"Ġeyi":1790,"Int":1791,"ĠEn":1792,"ciph":1793,"ĠKuba":1794,"gamshelana":1795,"hleli":1796,"elel":1797,"Ġngesi":1798,"Ġezo":1799,"Ġnayiphi":1800,"oogle":1801,"Ġonke":1802,"lwanyana":1803,"xu":1804,"Ġyinto":1805,"Ġ12":1806,"candelo":1807,"Ġkanye":1808,"jekthi":1809,"ort":1810,"xh":1811,"Ġnamhlanje":1812,"Ġnges":1813,"Ġnangona":1814,"elweyo":1815,"susela":1816,"tsapho":1817,"Ġase":1818,"Ġkweli":1819,"uto":1820,"mpi":1821,"Ġzase":1822,"Ġzom":1823,"ext":1824,"bhola":1825,"Ġntoni":1826,"Ġene":1827,"'s":1828,"Ġsase":1829,"phawu":1830,"Ġzee":1831,"und":1832,"Ġiindlela":1833,"ĠTo":1834,"AS":1835,"Ġyayo":1836,"phatha":1837,"lwimi":1838,"chaza":1839,"Ġyezi":1840,"Ġukwa":1841,"qinisekileyo":1842,"Ġsisi":1843,"Ġco":1844,"velisa":1845,"Ġkwakho":1846,"cebo":1847,"Ġyayi":1848,"dalo":1849,"onal":1850,"Ġebe":1851,"mela":1852,"Ġzakhe":1853,"Ngo":1854,"ZI":1855,"Ġtattoo":1856,"moya":1857,"mbululo":1858,"Ġawu":1859,"https":1860,"Ġabantwana":1861,"Ngaba":1862,"cela":1863,"Ġuthe":1864,"bula":1865,"cwangciso":1866,"gazi":1867,"Ġyokuqala":1868,"Yuda":1869,"hlawumbi":1870,"Ġlula":1871,"ĠMe":1872,"Ġunyana":1873,"Lo":1874,"ES":1875,"Ġuzi":1876,"kunye":1877,"Ġong":1878,"gqibo":1879,"Ġkonke":1880,"Ġngokupheleleyo":1881,"wanga":1882,"posi":1883,"Ġezint":1884,"zali":1885,"eri":1886,"EK":1887,"Ġkuka":1888,"ĠYi":1889,"Co":1890,"ĠUni":1891,"log":1892,"sel":1893,"Ġnezinye":1894,"mihla":1895,"yalelo":1896,"lic":1897,".âĢĻ":1898,"wel":1899,"mvu":1900,"An":1901,"ĠPro":1902,"mbula":1903,"Ġngaphambi":1904,"Ġizixhobo":1905,"gidi":1906,"leka":1907,"Ga":1908,"ĠLa":1909,"indi":1910,"Ġlwen":1911,"kxaso":1912,"Re":1913,"lini":1914,"Ġngqo":1915,"ord":1916,"Un":1917,"mpu":1918,"khawun":1919,"40":1920,"Ġelide":1921,"ongeza":1922,"era":1923,"thombo":1924,"thwe":1925,"isombululo":1926,"ĠFa":1927,"Ġumdlalo":1928,"ĠIsiA":1929,"Ġngaphezu":1930,"entla":1931,"khusela":1932,"tyi":1933,"fundisa":1934,"shishini":1935,"Wa":1936,"Ngoku":1937,"khawunti":1938,"Ġngaphakathi":1939,"Ġbethu":1940,"Ġukuzi":1941,"Ja":1942,"Ge":1943,"XO":1944,"IB":1945,"sia":1946,"ili":1947,"gcin":1948,"lish":1949,"etro":1950,"28":1951,"ole":1952,"Ġway":1953,"bhan":1954,"tshilo":1955,"DA":1956,"meli":1957,"ĠUKU":1958,"mbali":1959,"Ġ2017":1960,"Ġuba":1961,"webhusayithi":1962,"ingu":1963,"rl":1964,"iseka":1965,"Ġ15":1966,"Ġkunga":1967,"rea":1968,"Ġesin":1969,"jengoko":1970,"Ġsinga":1971,"Ġkuni":1972,"yazi":1973,"gcisa":1974,"ĠAn":1975,"Ġxesha":1976,"ber":1977,"cy":1978,"27":1979,"Ġizin":1980,"org":1981,"misa":1982,"kholo":1983,"ĠWathi":1984,"Ġwama":1985,"Ġlowo":1986,"Indlela":1987,"He":1988,"cro":1989,"ress":1990,"nolo":1991,"qho":1992,"andle":1993,"hlazi":1994,"www":1995,"WA":1996,"Ġonline":1997,"thethweni":1998,"Ð¸":1999,"hlanga":2000,"sis":2001,"xhome":2002,"ĠPa":2003,"Ph":2004,"okwenzeka":2005,"Ġnayo":2006,"phend":2007,"kanani":2008,"ĠNge":2009,"buza":2010,"Ġ11":2011,"jwa":2012,"ungu":2013,"So":2014,"Ġese":2015,"ELA":2016,"dini":2017,"Ġemhlabeni":2018,"misebenzi":2019,"indo":2020,"hagamshelana":2021,"YE":2022,"bing":2023,"mbono":2024,"shiya":2025,"ĠBlack":2026,"Ġdi":2027,"lide":2028,"kelayo":2029,"wulo":2030,"Google":2031,"unga":2032,"xelela":2033,"phucula":2034,"cono":2035,"ĠuA":2036,"Ġendi":2037,"ĠEzi":2038,"Davide":2039,"Ġaye":2040,"Ġkween":2041,"Ġngaphezulu":2042,"mbuzo":2043,"xhomeke":2044,"hoqo":2045,"Ġiz":2046,"khasino":2047,"ont":2048,"ngena":2049,"lungele":2050,"jack":2051,"Ġbabo":2052,"rike":2053,"Ġkwiindawo":2054,"Ġnes":2055,"ciphisa":2056,"long":2057,"Ġamaninzi":2058,"Ġzinto":2059,"ĠZi":2060,"jani":2061,"roid":2062,"ĠKa":2063,"layo":2064,"che":2065,"ws":2066,"phendula":2067,"wini":2068,"isebenza":2069,"ĠSta":2070,"gram":2071,"omdla":2072,"elanga":2073,"hlaza":2074,"Ġnjalo":2075,"Ġok":2076,"bonelela":2077,"gena":2078,"okuqala":2079,"Ġimisebenzi":2080,"29":2081,"enzo":2082,"yuka":2083,"Ġsom":2084,"Ġkunge":2085,"bra":2086,"phathi":2087,"ento":2088,"Ġiminyaka":2089,"60":2090,"qhuba":2091,"xhe":2092,"caka":2093,"Ġmobile":2094,"Ġnanga":2095,"dy":2096,"Ġesithi":2097,"Vi":2098,"ĠX":2099,"kiswa":2100,"Ġkalo":2101,"lungelo":2102,"Ġonga":2103,"Ġwethu":2104,"yani":2105,"Ġoo":2106,"keli":2107,"Ġukumkani":2108,"Ġph":2109,"Ġandi":2110,"dinga":2111,"liweyo":2112,"qond":2113,".âĢĶ":2114,"ĠImi":2115,"rom":2116,"ĠkaThixo":2117,"mbazana":2118,"wela":2119,"Ġabadlali":2120,"Kwa":2121,"Ġusebenzisa":2122,"Ġ13":2123,"Ġiqela":2124,"Ġamaxesha":2125,"ight":2126,"Ġdo":2127,"xolo":2128,"Ġobun":2129,"isela":2130,"hluko":2131,"Ġrhoqo":2132,"The":2133,"Ġzika":2134,"khuseleko":2135,"tshwa":2136,"Ġlama":2137,"ĠTra":2138,"hlwa":2139,"Th":2140,"Ġâ":2141,"Ġphezulu":2142,"YO":2143,"Ġmfono":2144,"hambisa":2145,"qaleni":2146,"Funda":2147,"mbane":2148,"engu":2149,"lisi":2150,"xhen":2151,"zon":2152,"welo":2153,"îĻ":2154,"bene":2155,"andu":2156,"îĻŁ":2157,"zithi":2158,"ĠîĻŁ":2159,"Nga":2160,"Ġnaku":2161,"Ġme":2162,"tathu":2163,"qwalas":2164,"ĠThe":2165,"Ġngathi":2166,"she":2167,"biza":2168,"ĠIsiMa":2169,"iselwa":2170,"ĠSo":2171,"Ġ18":2172,"lon":2173,"KH":2174,"sele":2175,"ĠEli":2176,"daweni":2177,"IP":2178,"ser":2179,"Ġbaye":2180,"khethekileyo":2181,"aniso":2182,"beke":2183,"tan":2184,"ĠEku":2185,"Ġidi":2186,"kweni":2187,"Ġukusebenza":2188,"rophu":2189,"Ġif":2190,"kcazo":2191,"beleni":2192,"culo":2193,"khwe":2194,"liti":2195,"Kwi":2196,"AM":2197,"cebiso":2198,"Ġbanga":2199,"tr":2200,"ĠUM":2201,"tter":2202,"Ġkunokuba":2203,"Ġinoku":2204,"ĠNgenxa":2205,"yure":2206,"ĠBe":2207,"Ġfun":2208,"Ġdata":2209,"gas":2210,"ĠIN":2211,"Ġsakho":2212,"phath":2213,"ente":2214,"Ġbathi":2215,"for":2216,"engqondo":2217,"xhenxe":2218,"kundla":2219,"Ġomkhulu":2220,"umelelo":2221,"Home":2222,"Ġebo":2223,"Imi":2224,"Ġyeen":2225,"Ġfa":2226,"Ġkang":2227,"Ġamabini":2228,"Ġkuwo":2229,"iswano":2230,"ÑĤ":2231,"Ġutshilo":2232,"Ġela":2233,"ot":2234,"ĠuS":2235,"uka":2236,"khadi":2237,"mfuno":2238,"gane":2239,"Ġyoko":2240,"ill":2241,"lile":2242,"sion":2243,"mehlo":2244,"hloko":2245,"ĠeN":2246,"lisayo":2247,"hambo":2248,"xulu":2249,"thint":2250,"Oku":2251,"ity":2252,"Ġezintsha":2253,"hlophe":2254,"chane":2255,"qalisa":2256,"bisi":2257,"mfa":2258,"cel":2259,"Ġzezi":2260,"sibini":2261,"ĠYezandla":2262,"Ġkude":2263,"thengisi":2264,"Ġ14":2265,"Ġkwayo":2266,"hlale":2267,"33":2268,"Ġbazi":2269,"mera":2270,"Ġwabo":2271,"thathe":2272,"angela":2273,"projekthi":2274,"ther":2275,"\".":2276,"kunceda":2277,"phakamileyo":2278,"thethe":2279,"qale":2280,"Ġakho":2281,"khupha":2282,"Ġwenza":2283,"lelwe":2284,"Ð½":2285,"eshe":2286,"Ġmntu":2287,"dolophu":2288,"thandwa":2289,"sika":2290,"Ta":2291,"khuthaza":2292,"Ġho":2293,"Ġoyi":2294,"gqibeleni":2295,"zise":2296,"ware":2297,"ĠIntetho":2298,"chapha":2299,"landela":2300,"den":2301,"dlel":2302,"Intanethi":2303,"zenze":2304,"Ġukuyi":2305,"uba":2306,"phaya":2307,"Ġzesi":2308,"Ñģ":2309,"andisa":2310,"PS":2311,"Ġngokwenene":2312,"Ġiindawo":2313,"Ġithi":2314,"Ġbaza":2315,"Ġhayi":2316,"Yurophu":2317,"Ġyobu":2318,"ĠIsiN":2319,"didi":2320,"gqiba":2321,"les":2322,"xheba":2323,"Ġnjengo":2324,"lilo":2325,"Ngesi":2326,"ndroid":2327,"yini":2328,"ee":2329,"Ġuhlobo":2330,"ĠKun":2331,"yili":2332,"unive":2333,"uro":2334,"phondo":2335,"buyis":2336,"Ġ2016":2337,"Ġzinga":2338,"Uni":2339,"lezo":2340,"linganiselo":2341,"Ġaya":2342,"cacileyo":2343,"Ġnjengom":2344,"luhlu":2345,"jonge":2346,"LO":2347,"gqith":2348,"hlawula":2349,"Ġithuba":2350,"Ġimihla":2351,"ĠIsiP":2352,"Ġngezi":2353,"Ġsakhe":2354,"qesha":2355,"Ġyenza":2356,"lindele":2357,"gunya":2358,"Ġinani":2359,"ĠSlots":2360,"gqib":2361,"Ġnganye":2362,"ind":2363,"Ġelu":2364,"rhwe":2365,"Ġ#":2366,"Ġby":2367,"mm":2368,"let":2369,"yame":2370,"rou":2371,"xhasa":2372,"Bha":2373,"Ġngobu":2374,"Ġboku":2375,"Ġkuthetha":2376,"vun":2377,"fike":2378,"No":2379,"thabatha":2380,"pala":2381,"xaxheba":2382,"ĠBlackjack":2383,"zuzu":2384,"gn":2385,"Ġukwazi":2386,"hlukileyo":2387,"100":2388,"dlo":2389,"Ġkuyi":2390,"Ġlwakho":2391,"SA":2392,"Ġ*":2393,"nge":2394,"Ġngalo":2395,"Ġngokun":2396,"Ġlokuba":2397,"zulwini":2398,"Ġang":2399,"tyalo":2400,"ĠOn":2401,"Ġyintoni":2402,"andleni":2403,"ĠYintoni":2404,"Yintoni":2405,"Ġesa":2406,"Ġingaba":2407,"ous":2408,"phinde":2409,"yoku":2410,"Ġbaba":2411,"Kha":2412,"Ġise":2413,"univesithi":2414,"Ġamadoda":2415,"phefumlo":2416,"cali":2417,"funde":2418,"Ġsis":2419,"ii":2420,"wer":2421,"Ġukutya":2422,"mnyama":2423,"ĠlesiXhosa":2424,"rg":2425,"profe":2426,"tali":2427,"ĠDi":2428,"pla":2429,"chule":2430,"FUN":2431,"Pro":2432,"onwabisa":2433,"Ġ17":2434,"ganeko":2435,"SE":2436,"Ġkaloku":2437,"ĠKukho":2438,"ks":2439,"ĠUya":2440,"Ġabafundi":2441,"Di":2442,"Ġus":2443,"Ġyou":2444,"ture":2445,"tshe":2446,"khonzi":2447,"Isa":2448,"can":2449,"vavanyo":2450,"foto":2451,"Ġiimveliso":2452,"Ġabanga":2453,"thethi":2454,"Bu":2455,"Ġsu":2456,"ĠAkukho":2457,"mfuneko":2458,"Ġnang":2459,"ishino":2460,"weli":2461,"CAD":2462,"Ġji":2463,"win":2464,"Ġkuza":2465,"Ġukususela":2466,"simbi":2467,"Ġidatha":2468,"Ġkwenza":2469,"Ġsika":2470,"kala":2471,"35":2472,"Ġezinkulu":2473,"Ġga":2474,"ĠIng":2475,"Ġyanga":2476,"ĠUkuze":2477,"gcwele":2478,"ĠKU":2479,"ĠNda":2480,"Ġiye":2481,"wari":2482,"lem":2483,"80":2484,"Pi":2485,"khuph":2486,"zer":2487,"ĠiBhayibhile":2488,"ĠQhagamshelana":2489,"hlas":2490,"Ġamanzi":2491,"Ġlen":2492,"Jam":2493,"Ġ16":2494,"Ġwi":2495,"bhokisi":2496,"ĠBonus":2497,"Ġekhaya":2498,"chwe":2499,"Ġngamnye":2500,"Ġkwam":2501,"khulule":2502,"ĠNd":2503,"anu":2504,"gqa":2505,"hane":2506,"Ġnawe":2507,"yelwa":2508,"mnandi":2509,"ley":2510,"ziwe":2511,"riya":2512,"IC":2513,"Ġyekhasino":2514,"ĠâĢ¢":2515,"phume":2516,"gqirha":2517,"ĠIBhayibhile":2518,"tshintsho":2519,"ĠNdiya":2520,"Ġeyona":2521,"hambelana":2522,"Afrika":2523,"polisa":2524,"xibelelwano":2525,"Ġzaba":2526,"::":2527,"ime":2528,"mitha":2529,"phakade":2530,"Ġwaya":2531,"ard":2532,"con":2533,"Ġkubu":2534,"attoo":2535,"Ġkubalule":2536,"keni":2537,"tions":2538,"Yer":2539,"mpilo":2540,"Ġukusebenzisa":2541,"funi":2542,"Ġ2014":2543,"kumkani":2544,"mpyu":2545,"Ġindoda":2546,"gy":2547,"Ġngokubanzi":2548,"cebook":2549,"ĠRa":2550,"Nt":2551,"mv":2552,"zamo":2553,"Ġwenze":2554,"camango":2555,"Ġukunga":2556,"qwelo":2557,"Ġezili":2558,"Ġngomhla":2559,"ham":2560,"ric":2561,"lar":2562,"hlali":2563,"khetho":2564,"soloko":2565,"Ġat":2566,"tive":2567,"kto":2568,"xin":2569,"Ġelo":2570,"Ġkanga":2571,"Ġal":2572,"Ġaze":2573,"ĠAbantu":2574,"Ing":2575,"Ġ100":2576,"Ġilizwe":2577,"qula":2578,"ket":2579,"mbutho":2580,"AL":2581,"tyhi":2582,"Ġta":2583,"Ġmhlawumbi":2584,"soft":2585,"lomo":2586,"jiswa":2587,"Ġezintathu":2588,"sind":2589,"Ġindlu":2590,"tional":2591,"ozi":2592,"tshato":2593,"Ã©":2594,"Ġezingama":2595,"Ġnzima":2596,"tshona":2597,"Ġokun":2598,"kise":2599,"phaza":2600,"Ġngase":2601,"ILE":2602,"Ġiziphumo":2603,"Ġcom":2604,"ral":2605,"iseni":2606,"Ya":2607,"Ġikho":2608,"phulo":2609,"ĠUnga":2610,"dleko":2611,"akhawunti":2612,"Ġana":2613,"Ġmn":2614,"ando":2615,"lawuli":2616,"Ġumzekelo":2617,"khono":2618,"bonelelo":2619,"dima":2620,"ĠYo":2621,"Ġ2013":2622,"Bh":2623,"Jo":2624,"ĠkuYehova":2625,"thembe":2626,"kwenkwe":2627,"banga":2628,"lam":2629,"ininzi":2630,"ezi":2631,"Ġngokuqinisekileyo":2632,"ton":2633,"36":2634,"kwakha":2635,"Bo":2636,"dio":2637,"phupha":2638,"Ġekubeni":2639,"taba":2640,"dibana":2641,"fumene":2642,"',":2643,"45":2644,"hini":2645,"yd":2646,"Ġjikelele":2647,"Ġukuthi":2648,"Ġnakwi":2649,"ongameli":2650,"ĠBi":2651,"py":2652,"mahla":2653,"amandla":2654,"tele":2655,"Ġkunoku":2656,"ĠÂ»":2657,"hlungu":2658,"Ġkung":2659,"Ġkuqala":2660,"Ġukufunda":2661,"yalezo":2662,"GIS":2663,"sapho":2664,"Chi":2665,"hambe":2666,"Ġneeng":2667,"shayina":2668,"khun":2669,"Gen":2670,"Ġngee":2671,"chitha":2672,"thiwe":2673,"Ġonoku":2674,"umkani":2675,"khamera":2676,"Ġumthetho":2677,"qabane":2678,"cial":2679,"ishishini":2680,"mbeni":2681,"bonakalayo":2682,"Ġumzimba":2683,"igh":2684,"Ġar":2685,"De":2686,"Ġ24":2687,"swa":2688,"Ġngabantu":2689,"cwele":2690,"To":2691,"endawo":2692,"Ġendaweni":2693,"lumko":2694,"OM":2695,"SI":2696,"khokelo":2697,"vuma":2698,"ĠDa":2699,"puma":2700,"YA":2701,"Ġefanelekileyo":2702,"usalem":2703,"phucu":2704,"phy":2705,"bonwa":2706,"thandayo":2707,"xhomekeke":2708,"Ġkwel":2709,"hlangan":2710,"ler":2711,"ĠuMa":2712,"thengiswa":2713,"Ġelinye":2714,"Ġethile":2715,"posit":2716,"Ġevela":2717,"zonwabisa":2718,"Ġkuquka":2719,"file":2720,"Ġiintlobo":2721,"xulum":2722,"Ġlwee":2723,"ywe":2724,"Ġnathi":2725,"Pha":2726,"Qu":2727,"tombazana":2728,"ukumkani":2729,"cwe":2730,"EM":2731,"xhasi":2732,"of":2733,"antya":2734,"ID":2735,"Ġuluhlu":2736,"Ġv":2737,"ĠIs":2738,"Ġemn":2739,"lizwe":2740,"bhin":2741,"sterone":2742,"zenzekelayo":2743,"jini":2744,"ER":2745,"share":2746,"ĠUS":2747,"yisi":2748,"Ġkwenzeka":2749,"ron":2750,"zelwa":2751,"Ġtha":2752,"Ġsiza":2753,"ĠUbu":2754,"khangele":2755,"Ġnabanye":2756,"Ġumhlaba":2757,"Ġzobu":2758,"Ġolun":2759,"yste":2760,"komo":2761,"Jamani":2762,"rans":2763,"phumelele":2764,"Ġathi":2765,"Ġfunction":2766,"Ġnabantu":2767,"Ġva":2768,"khonk":2769,"cimbi":2770,"Ġiimpawu":2771,"fin":2772,"vule":2773,"Ġakun":2774,"Ġwazi":2775,"pr":2776,"zuzo":2777,"Ġimpendulo":2778,"olezwe":2779,"Ġngokuthi":2780,"ĠFree":2781,"Gu":2782,"mpendulo":2783,"Ġlobu":2784,"ĠTe":2785,"Mzantsi":2786,"lungile":2787,"langaniso":2788,"hlabathini":2789,"ĠYaye":2790,"longwane":2791,"site":2792,"antse":2793,"vume":2794,"lasi":2795,"yam":2796,"undo":2797,"Ġngokusebenzisa":2798,"kholelwa":2799,"ght":2800,"sond":2801,"Ġababe":2802,"get":2803,"pozithi":2804,"Yerusalem":2805,"phele":2806,"Ġte":2807,"Ġbesi":2808,"zalwa":2809,"tsholongwane":2810,"wendwe":2811,"art":2812,"zweni":2813,"antoni":2814,"Ġali":2815,"Ġnan":2816,"od":2817,"Ġukudlala":2818,"umba":2819,"tyo":2820,"sindo":2821,"34":2822,"Ġefanayo":2823,"ingqi":2824,"bhekis":2825,"qoqo":2826,"Ġhlobo":2827,"Ġezine":2828,"Ġngelixa":2829,"andela":2830,"mbona":2831,"bhenge":2832,"shuma":2833,"Ġengama":2834,"Ġumfazi":2835,"khonza":2836,"Ġngokunga":2837,"Ġufumane":2838,"ist":2839,"mpe":2840,"Ġezimbalwa":2841,"fake":2842,"zala":2843,"chweph":2844,"IV":2845,"bandla":2846,"Ġsokuba":2847,"Emva":2848,"__":2849,"Ġiindaba":2850,"qulo":2851,"ishi":2852,"yawo":2853,"zelelo":2854,"leko":2855,"yl":2856,"bulala":2857,"jw":2858,"qonga":2859,"papa":2860,"Ġlokuqala":2861,"landeli":2862,"ziphi":2863,"mod":2864,"Ġine":2865,"Ġbuka":2866,"Eli":2867,"noloji":2868,"mpumelelo":2869,"Ġcon":2870,"sipala":2871,"zinga":2872,"rol":2873,"Ġumdla":2874,"khala":2875,"wulos":2876,"qulu":2877,"pto":2878,"Ġukusetyenziswa":2879,"ĠCha":2880,"Ġ2015":2881,"vus":2882,"Ġephezulu":2883,"ĠBu":2884,"cs":2885,"Ġnazo":2886,"mephu":2887,"à¤":2888,"shishino":2889,"mthetho":2890,"Ġakhe":2891,"Ġoonyana":2892,"Ġunako":2893,"UR":2894,"Ġkwakunye":2895,"Ġane":2896,"wudi":2897,"kana":2898,"pen":2899,"rus":2900,"ell":2901,"yeke":2902,"venkile":2903,"shushu":2904,"Ġkwemi":2905,"99":2906,"kwan":2907,"rho":2908,"fune":2909,"fakwe":2910,"sesi":2911,"IT":2912,"Ġ25":2913,"Ġbona":2914,"jen":2915,"Ġyona":2916,"ĠCom":2917,"Ġeziphambili":2918,"Ġ30":2919,"Ġfree":2920,"Ġthina":2921,"Ġabathengi":2922,"aba":2923,"Ġebalulekileyo":2924,"ceba":2925,"zuku":2926,"mzekelo":2927,"sity":2928,"Ġeno":2929,"jin":2930,"mbolo":2931,"kongeza":2932,"Pawulos":2933,"tosterone":2934,"Ġweb":2935,"BA":2936,"net":2937,"sing":2938,"Ġlam":2939,"oloni":2940,"Ġlin":2941,"nika":2942,"des":2943,"qalelo":2944,"Ġibhonasi":2945,"37":2946,"dlelwane":2947,"Ġkwexesha":2948,"PH":2949,"Ġsen":2950,"ãĥ":2951,"Ti":2952,"qhele":2953,"puta":2954,"ĠNew":2955,"Ġuno":2956,"Ġethi":2957,"ero":2958,"thiwa":2959,"coca":2960,"Ġimeko":2961,"Ġnjenga":2962,"ess":2963,".âĢĿâĢĶ":2964,"ziwayo":2965,"Ġkubantu":2966,"kodwa":2967,"Ð»":2968,"sebenzise":2969,"isayo":2970,"baluleke":2971,"ziko":2972,"yeza":2973,"qhubi":2974,"tlo":2975,"Ġusi":2976,"ande":2977,"enti":2978,"Ġkwezinye":2979,"lungelel":2980,"thuthu":2981,"phendu":2982,"Ġuphando":2983,"ĠIsiF":2984,"tyho":2985,"car":2986,"phuhliso":2987,"cts":2988,"Ġex":2989,"!!":2990,"ÑĢ":2991,"cakaza":2992,"cale":2993,"Ġbi":2994,"Ġezilungileyo":2995,"Ġndinga":2996,"Ġumntwana":2997,"Ġ2020":2998,"cre":2999,"Ġngaphambili":3000,"Ġhe":3001,"Ġluka":3002,"Ġkwinqanaba":3003,"Ġwith":3004,"jol":3005,"ĠIsiH":3006,"phelo":3007,"khwa":3008,"lungiselela":3009,"bikho":3010,"yon":3011,"khompyu":3012,"Ġilizwi":3013,"lwayo":3014,"yika":3015,"Ġlethu":3016,"zona":3017,"krele":3018,"Bukumkani":3019,"tombi":3020,"Ġkwezo":3021,"Ġkutheni":3022,"Ġzibe":3023,"tywe":3024,"Ġeliphezulu":3025,"Micro":3026,"fer":3027,"qeqeshi":3028,"zemidlalo":3029,"ngcakaza":3030,"politi":3031,"umana":3032,"ĠRo":3033,"Post":3034,"tch":3035,"Yiputa":3036,"Ġukubona":3037,"ork":3038,"Ġzam":3039,"Ġimveliso":3040,".\"":3041,"Ġalu":3042,"Ġamazwi":3043,"Ch":3044,"Ġixabiso":3045,"ĠIsiTa":3046,"Ġone":3047,"hili":3048,"Ġendlwini":3049,"United":3050,"Ġabafazi":3051,"32":3052,"Khu":3053,"ĠDeposit":3054,"Ġingq":3055,"Ġabasebenzisi":3056,"Ġelikhulu":3057,"Pre":3058,"sr":3059,"pheleni":3060,"Ġzokubeka":3061,"endlela":3062,"ĠNgu":3063,"hlalu":3064,"beko":3065,"Ġbaku":3066,"WE":3067,"xulumene":3068,"lungiswa":3069,"Ġthat":3070,"rs":3071,"Ġamazwe":3072,"Ġisicelo":3073,"Te":3074,"Ġnjengokuba":3075,"loni":3076,"tur":3077,"Ġukwen":3078,"Ġune":3079,"?âĢĿ":3080,"Rom":3081,"dade":3082,"gqwe":3083,"mbon":3084,"vuzo":3085,"31":3086,"Ġincoko":3087,"tiki":3088,"chanekileyo":3089,"yiswa":3090,"zenza":3091,"yele":3092,"ĠKwakhona":3093,"thuthi":3094,"zelela":3095,"GA":3096,"gon":3097,"gcine":3098,"ĠIsiChi":3099,"Ġezise":3100,"ketho":3101,"Ġkangang":3102,"ĠUYehova":3103,"Ġumoya":3104,"zobo":3105,"Ġeling":3106,"70":3107,"cine":3108,"gin":3109,"lay":3110,"hluka":3111,"golide":3112,"ĠkuThixo":3113,"elika":3114,"Ġman":3115,"ingatha":3116,"bileyo":3117,"Ġkwint":3118,"vumelwano":3119,"feze":3120,"Nkosi":3121,"funekayo":3122,"ĠuYo":3123,"pati":3124,"bhetri":3125,"buya":3126,"isweni":3127,"Ġumgangatho":3128,"Ġnjl":3129,"Seben":3130,"khonkco":3131,"qun":3132,"funyan":3133,"oli":3134,"Ġngazo":3135,"Roma":3136,"Ġuyazi":3137,"mvo":3138,"Ġiku":3139,"by":3140,"anti":3141,"Ġenoku":3142,"Ġnendlela":3143,"Ġukugcina":3144,"finder":3145,"Ġlaba":3146,"qweno":3147,"Ġkwan":3148,"lot":3149,"khululo":3150,"gh":3151,"Ġsesi":3152,"ngen":3153,"guqula":3154,"khethi":3155,"rekho":3156,"ania":3157,"Ġiinkonzo":3158,";+":3159,"data":3160,"angaphambili":3161,"Ġngoba":3162,"wtlo":3163,"mfundo":3164,"srcid":3165,"wtlocale":3166,"luleko":3167,"/\"":3168,"qoqosho":3169,"jineli":3170,"qong":3171,"ticle":3172,"ĠMar":3173,"ngaba":3174,"mbelelo":3175,"Auto":3176,"China":3177,"seM":3178,"tshabala":3179,"sisi":3180,"lock":3181,"UK":3182,"Ġkwiminyaka":3183,"ĠTh":3184,"Ġwokuqala":3185,"thana":3186,"fumanisa":3187,"fani":3188,"cede":3189,"gakanani":3190,"bili":3191,"belana":3192,"kudala":3193,"lunye":3194,"Ġsibe":3195,"sela":3196,"Ġ21":3197,"Ġfi":3198,"ĠGa":3199,"Ġkubekho":3200,"Ġbeku":3201,"bhalo":3202,"diya":3203,"Ġwayo":3204,"bhozo":3205,"miselo":3206,"ogra":3207,"dium":3208,"Ġngubani":3209,"fom":3210,"Ġiinkcukacha":3211,"Ġiinkqubo":3212,"Ġimini":3213,"semthethweni":3214,"ĠBo":3215,"lishumi":3216,"Ġividiyo":3217,"wula":3218,"Ġngosuku":3219,"oid":3220,"ĠUK":3221,"Ġamakhulu":3222,"mkela":3223,"Ġuthando":3224,"zing":3225,"Ġwayi":3226,"Ġkwihlabathi":3227,"tata":3228,"Ġisetyenz":3229,"Ġndiza":3230,"pti":3231,"ncedo":3232,"thethwa":3233,"kcubeko":3234,"ence":3235,"Ġamagama":3236,"Nangona":3237,"coce":3238,"elizwe":3239,"ĠNe":3240,"tyhini":3241,"shici":3242,"38":3243,"ĠSer":3244,"Ġlizwe":3245,"Ġeban":3246,"Text":3247,"ĠNgokomzekelo":3248,"Ġamanqaku":3249,"tshintsh":3250,"Ġelung":3251,"qeqesho":3252,"Ġliya":3253,"Cha":3254,"Ġukuhamba":3255,"tics":3256,"khumbula":3257,"thandathu":3258,"44":3259,"ĠuY":3260,"Ġkwis":3261,"ĠIsiE":3262,"ĠEx":3263,"AC":3264,"Ġngemi":3265,"Ġzombini":3266,"ple":3267,"elelwa":3268,"qhosha":3269,"ĠInt":3270,"ĠeS":3271,"tt":3272,"Ġare":3273,"OS":3274,"ĠIindaba":3275,"xoxo":3276,"ayo":3277,"lwana":3278,"ĠeB":3279,"Ġad":3280,"ĠTi":3281,"lawulwa":3282,"Ġengena":3283,"Ġinkonzo":3284,"Ġimifanekiso":3285,"khumbu":3286,"kwandisa":3287,"Ġezithile":3288,"Ġkubalulekile":3289,"mail":3290,"fakwa":3291,"xeba":3292,"twini":3293,"Ġbanoku":3294,"2019":3295,"Ġekuqaleni":3296,"Ġkufumana":3297,"Ġebomini":3298,"video":3299,"use":3300,"marike":3301,"versity":3302,"hland":3303,"undu":3304,"Ġeline":3305,"taka":3306,"cinge":3307,"pte":3308,"hare":3309,"ĠKoloni":3310,"all":3311,"tso":3312,"Ġingqalelo":3313,"Ġfu":3314,"phosa":3315,"gcinwa":3316,"Ġzeen":3317,"Ðº":3318,"Ġumxholo":3319,"bhanki":3320,"ĠuK":3321,"misele":3322,"Ġngemihla":3323,"keleyo":3324,"Ġeziyi":3325,"khuselekileyo":3326,"Bi":3327,"Ġkwixesha":3328,"up":3329,"lia":3330,"sebenzayo":3331,"lapho":3332,"phathe":3333,"isele":3334,"ĠIsiU":3335,"zindlu":3336,"Ġumfanekiso":3337,"ziso":3338,"Ġnokun":3339,"ub":3340,"Ġehlabathini":3341,"ĠGe":3342,"mas":3343,"Ġabayi":3344,"MS":3345,"TS":3346,"xelele":3347,"ust":3348,"tates":3349,"Ġiingxaki":3350,"ĠPh":3351,"Ġkunokwenzeka":3352,"Ġnkqubo":3353,"ZA":3354,"ef":3355,"debe":3356,"nike":3357,"Ġlwama":3358,"gula":3359,"ĠSt":3360,"ĠJo":3361,"Ġyokwenza":3362,"yeka":3363,"Ġ$(":3364,".)":3365,"Ġibha":3366,"UL":3367,"ĠNjengoko":3368,"Ġyezo":3369,"len":3370,"ĠAndroid":3371,"enzelwe":3372,"Ġ:":3373,"ĠiS":3374,"Ġbayo":3375,"entengiso":3376,"qhagamsh":3377,"etros":3378,"tambo":3379,"khiwa":3380,"khundla":3381,"TV":3382,"kelelo":3383,"zekel":3384,"ĠyeN":3385,"phandi":3386,"sebe":3387,"mbha":3388,"lingana":3389,"mel":3390,"yn":3391,"ĠkwiN":3392,"Ġomtsha":3393,"shumayela":3394,"ĠEsi":3395,"90":3396,"Ġarticle":3397,"Ġophezulu":3398,"xhala":3399,"ĠCh":3400,"xy":3401,"bumba":3402,"buyela":3403,"hlangana":3404,"Ġukufikelela":3405,"ftware":3406,"Ndiya":3407,"dibene":3408,"indows":3409,"Fran":3410,"butho":3411,"Ġ22":3412,"ĠTa":3413,"kom":3414,"caleni":3415,"Ġbama":3416,"Ġawaye":3417,"Ġelula":3418,"zwana":3419,"then":3420,"bonakali":3421,"kcazelo":3422,"mbisa":3423,"Mar":3424,"teyu":3425,"ĠHe":3426,"ĠAr":3427,"kum":3428,"yilo":3429,"ĠIndlela":3430,"qhe":3431,"thintela":3432,"Ġukukhanya":3433,"rypto":3434,"NAB":3435,"Ġeziphezulu":3436,"Ġzayo":3437,"anduva":3438,"anto":3439,"Ġelithi":3440,"hlula":3441,"Ġor":3442,"bhinqa":3443,"din":3444,"lane":3445,"rhwebo":3446,"hn":3447,"Ġeyo":3448,"phelileyo":3449,"Ġisixhobo":3450,"Ġ50":3451,"Eng":3452,"UB":3453,"ĠJa":3454,"zimbeni":3455,"TO":3456,"xanduva":3457,"Ġsama":3458,"Ġezinoku":3459,"ISO":3460,"Ġubudala":3461,"way":3462,"ating":3463,"Al":3464,"zil":3465,"Ġuninzi":3466,"Ġemininzi":3467,"bunzima":3468,"Sase":3469,"tshala":3470,"Ġisebenza":3471,"isekileyo":3472,"Ġyemi":3473,"tia":3474,"Ġishishini":3475,"kuma":3476,"vumele":3477,"Ġaza":3478,"bhere":3479,"caciso":3480,"daka":3481,"ĠStates":3482,"Ġay":3483,"amu":3484,"lambo":3485,"Ġukum":3486,"ject":3487,"sign":3488,"qeqesha":3489,"39":3490,"anje":3491,"Ġukuthetha":3492,"Ġani":3493,"Ġnalo":3494,"tar":3495,"Ġngaloo":3496,"Ġamathuba":3497,"zekeliso":3498,"veni":3499,"ĠLu":3500,"Ġbaze":3501,"xoki":3502,"belo":3503,"âĢĭ":3504,"isiwe":3505,"wuphi":3506,"fudu":3507,"Kh":3508,"dumiso":3509,"Ġiintsuku":3510,"ĠNjeng":3511,"Ġit":3512,"ĠuDavide":3513,"Ġukhetho":3514,"zeni":3515,"Ġumhla":3516,"Ġgi":3517,"ĠAku":3518,"tyebi":3519,"thunywa":3520,"Ġnina":3521,"2017":3522,"balulekile":3523,"Iing":3524,"bonakale":3525,"yusa":3526,"onti":3527,"Ġngonyaka":3528,"Ġurl":3529,"Ġsinoku":3530,"lette":3531,"docid":3532,"Kukho":3533,"kro":3534,"Ġelinga":3535,"guqulelo":3536,"Ġuncedo":3537,"zila":3538,"betha":3539,"Ġekun":3540,"Ġzon":3541,"chas":3542,"ondolo":3543,"Ġibonisa":3544,"qanda":3545,"Ġubha":3546,"phathiswa":3547,"kqubela":3548,"gqibeleleyo":3549,"Ġbayi":3550,"Ġimibuzo":3551,"wandle":3552,"Ne":3553,"Ä±":3554,"2018":3555,"pt":3556,"ziphatha":3557,"Ġngabo":3558,"fundisi":3559,"Ġokokuba":3560,"pter":3561,"Ro":3562,"ĠIsiM":3563,"Ġekugqibeleni":3564,"ĠKutheni":3565,"Ġib":3566,"ulayi":3567,"bonakalisa":3568,"ins":3569,"Ġkwabantu":3570,"que":3571,"ĠKufuneka":3572,"Itali":3573,"thweni":3574,"Is":3575,"ĠWe":3576,"ĠUYesu":3577,"qhubeke":3578,"Ġnangoku":3579,"funayo":3580,"misela":3581,"Ġngale":3582,"Ġmusa":3583,"Ġepheleleyo":3584,"thoba":3585,"Ġti":3586,"ĠPar":3587,"kululeko":3588,"onde":3589,"Ġnon":3590,"Ġkubonakala":3591,"cina":3592,"ffi":3593,"Rashiya":3594,"gqithis":3595,"Lwe":3596,"esis":3597,"thali":3598,"ĠuSa":3599,"\").":3600,"vious":3601,"Ġeyayi":3602,"ĠIing":3603,"Ġedlulileyo":3604,"mbela":3605,"base":3606,"Ġangama":3607,"ĠiM":3608,"yinto":3609,"Ġkuloo":3610,"nu":3611,"bonise":3612,"Ġokunga":3613,"lumini":3614,"gosa":3615,"wenza":3616,"ulti":3617,"UT":3618,"khali":3619,"inin":3620,"banjwa":3621,"ishumi":3622,"port":3623,"inte":3624,"ombolo":3625,"Ġkuse":3626,"dile":3627,"thathwa":3628,"ans":3629,"âĢ¢":3630,"tshanje":3631,"Ġisigqibo":3632,"Japan":3633,"Kutheni":3634,"lwandle":3635,"ĠuB":3636,"ĠTattoo":3637,"Ġngaphantsi":3638,".âĢĿ+":3639,"Ġabazi":3640,"Ri":3641,"zoku":3642,"Ġwas":3643,"Ġnoo":3644,"ĠNGOKU":3645,"Ġiphepha":3646,"catshu":3647,"gcwa":3648,"Car":3649,"mg":3650,"phile":3651,"Ġkwing":3652,"ĠCon":3653,"linye":3654,"profeti":3655,"ptemba":3656,"ĠiB":3657,"erbi":3658,"ĠSu":3659,"ĠInter":3660,"Ġyokun":3661,"Com":3662,"Unga":3663,"rit":3664,"kiyo":3665,"tyan":3666,"ĠOnline":3667,"view":3668,"dwendwe":3669,"Ġnantoni":3670,"Ġamava":3671,"ET":3672,"zileyo":3673,"Ġyindlela":3674,"yelwe":3675,"Ġezivela":3676,"qokelela":3677,"tory":3678,"Ġlabo":3679,"ĠEwe":3680,"jithali":3681,"Ġeni":3682,"Ġngent":3683,"ĠCity":3684,"pathi":3685,"hlola":3686,"qonde":3687,"65":3688,"ĠChina":3689,"Ġezis":3690,"Ġinxaxheba":3691,"Ġyenye":3692,"eso":3693,"Ġyeyona":3694,"sinye":3695,"CO":3696,"PA":3697,"Thu":3698,"cum":3699,"keka":3700,"dam":3701,"ĠneN":3702,"Ġnoko":3703,"Ñĥ":3704,"ceta":3705,"bhaka":3706,"senoku":3707,"vele":3708,"kude":3709,"thixo":3710,"ĠnoM":3711,"Ġuse":3712,"qaqa":3713,"bindi":3714,"thambo":3715,"fihla":3716,"witter":3717,"bhaliweyo":3718,"Ġinkampani":3719,"bucala":3720,"ria":3721,"HO":3722,"Ġbantu":3723,"cast":3724,"tattoos":3725,"bhodi":3726,"hlamba":3727,"amhlanje":3728,"mart":3729,"Ġlwakhe":3730,"redi":3731,"Ġ23":3732,"qwalasela":3733,"kwin":3734,"phon":3735,"Ġmihla":3736,"zis":3737,"eniso":3738,"ĠIndawo":3739,"onia":3740,"75":3741,"galelo":3742,"Ġingxelo":3743,"ĠKuya":3744,"Hla":3745,"cation":3746,"kunzi":3747,"dili":3748,"post":3749,"ĠIsiTshayina":3750,"Ġufumana":3751,"meni":3752,"Ð¾Ð":3753,"mber":3754,"bulela":3755,"qesh":3756,"elelwe":3757,"ongezel":3758,"THI":3759,"Ġbon":3760,"bamb":3761,"mpazamo":3762,"ls":3763,"Ġicala":3764,"ua":3765,"Ġubunzima":3766,"Ġkulula":3767,"Ġiimeko":3768,"eleni":3769,"phulaphu":3770,"Ubu":3771,"hlela":3772,"thunyelwa":3773,"Ġutshintsho":3774,"DI":3775,"cks":3776,"phakamisa":3777,"hlandlo":3778,"cer":3779,"yane":3780,"phanda":3781,"cle":3782,"loliwe":3783,"qingatha":3784,"engxaki":3785,"dlalweni":3786,"Ġndin":3787,"Ġbom":3788,"ĠWaye":3789,"qhamo":3790,"kunika":3791,"stan":3792,"En":3793,"dlula":3794,"ofisi":3795,"hawu":3796,"modeli":3797,"Ġinkxaso":3798,"Ġuyakwazi":3799,"Ġnyaka":3800,"OL":3801,"phethe":3802,"hanjiswa":3803,"Ġekwa":3804,"dli":3805,"web":3806,"Ġninga":3807,"road":3808,"kwenkwezi":3809,"Ġcha":3810,"Ġisandla":3811,"mpembelelo":3812,"Esi":3813,"yisebenzisa":3814,"khuphela":3815,"linganisa":3816,"qina":3817,"Ġukuqinisekisa":3818,"2016":3819,"xinzelelo":3820,"gqitha":3821,"than":3822,"wuli":3823,"Ġlwaba":3824,"Kodwa":3825,"Ġinike":3826,"Ġmeko":3827,"gwebo":3828,"Ġkwilizwe":3829,"qobo":3830,"Ġingxaki":3831,"politiko":3832,"Ġkwimeko":3833,"Ġziye":3834,"ĠPi":3835,"vuya":3836,"ril":3837,"andarin":3838,"Ko":3839,"ĠIS":3840,"Ġentle":3841,"Ġityala":3842,"Ġkwethu":3843,"Ġezintle":3844,"chwepheshe":3845,"ĠKo":3846,"ĠKristu":3847,"fikelele":3848,"cur":3849,"Ġkwindlela":3850,"Yohane":3851,"buyisela":3852,"ĠuP":3853,"liswe":3854,"ves":3855,"donga":3856,"dalwa":3857,"gxinin":3858,"thandi":3859,"Ġite":3860,"Ġzizi":3861,"entlalo":3862,"Ġiindleko":3863,"jongene":3864,"dleni":3865,"qua":3866,"akobi":3867,"Ġeme":3868,"Ġsiye":3869,"tshat":3870,"ngoku":3871,"qum":3872,"red":3873,"tro":3874,"Ġwatsho":3875,"Ġfrom":3876,"!âĢĿ":3877,"ĠOko":3878,"sebenzisana":3879,"ĠTrain":3880,"Ġukuqonda":3881,"Ġamathathu":3882,"mama":3883,"zukulwana":3884,"Ġluya":3885,"rhafu":3886,"Ġiso":3887,"ings":3888,"ĠFi":3889,"Ġwakwa":3890,"gue":3891,"outh":3892,"deni":3893,"gozi":3894,"cra":3895,"anjalo":3896,"tyelela":3897,"ĠUniversity":3898,"Ġingakumbi":3899,"New":3900,"Ngoko":3901,"khethiweyo":3902,"Ġziza":3903,"tyambo":3904,"bheja":3905,"Ġefana":3906,"Ġkuhlala":3907,"\",":3908,"gxina":3909,"ystem":3910,"ju":3911,"Ġx":3912,"Ġbezi":3913,"manani":3914,"Ġneent":3915,"tshaba":3916,"inike":3917,"Grike":3918,"liphi":3919,"khutshwa":3920,"Ġnako":3921,"2015":3922,"Ġizindlu":3923,"Ġkamva":3924,"ĠLight":3925,"Ġkubandakanya":3926,"We":3927,"ger":3928,"Es":3929,"Ġngaye":3930,"hetha":3931,"sukela":3932,"Ġwee":3933,"Facebook":3934,"banj":3935,"Ġ000":3936,"selula":3937,"bal":3938,"Ke":3939,"izi":3940,"Ġlwesi":3941,"Ġelungileyo":3942,"lli":3943,"setyhini":3944,"yiweyo":3945,"gxo":3946,"kolweni":3947,"ester":3948,"Ġsizi":3949,"Ġmali":3950,"Ġmaka":3951,"velaphi":3952,"rhu":3953,"won":3954,"Ġnale":3955,"ĠAbanye":3956,"ĠYork":3957,"Ġdating":3958,"AR":3959,"Ġkusi":3960,"Ġabu":3961,"Ġyabantu":3962,"Ġeyenza":3963,"ml":3964,"balo":3965,"khen":3966,"cia":3967,"ongezelelweyo":3968,"una":3969,"kokh":3970,"thamo":3971,"Ġeninzi":3972,"rls":3973,"Ġbaben":3974,"rid":3975,"shin":3976,"qolo":3977,"philayo":3978,"Ġnezinto":3979,"Ġphi":3980,"rm":3981,"elani":3982,"ISA":3983,"bandakanye":3984,"Ġungum":3985,"bomvu":3986,"manqaku":3987,"kwangoku":3988,"esh":3989,"Ġabadala":3990,"chine":3991,"ungqu":3992,"Zulu":3993,"inn":3994,"Ġozi":3995,"Ġkuna":3996,"funyanwa":3997,"luphi":3998,"ĠKW":3999,"Ġiy":4000,"pes":4001,"vemba":4002,"hlaziywa":4003,"ĠPha":4004,"ank":4005,"tsal":4006,"ILEYO":4007,"khumba":4008,"47":4009,"zinyo":4010,"Hebhere":4011,"Previous":4012,"how":4013,"esa":4014,"Mateyu":4015,"cess":4016,"Su":4017,"qam":4018,"Ġemzimbeni":4019,"hulumente":4020,"Ġuli":4021,"Ġeso":4022,"Ġzii":4023,"hlaleni":4024,"Ġngethuba":4025,".,":4026,"babini":4027,"sti":4028,"Ġihlabathi":4029,"em":4030,"ĠSaseM":4031,"thembekileyo":4032,"ĠSaseMandarin":4033,"siseko":4034,"ĠIsiSlo":4035,"Ġra":4036,"Ġoya":4037,"dijithali":4038,"Ġabasebenzi":4039,"yer":4040,"Ġwawu":4041,"--":4042,"simi":4043,"Ġphantse":4044,"panish":4045,"Ġeye":4046,"ĠZonke":4047,"Ġtra":4048,"Ġyalo":4049,"Ġzokuhamba":4050,"ELO":4051,"mfazwe":4052,"thande":4053,"ĠiNkosi":4054,"Ġnqaku":4055,"Ġinyaniso":4056,"ĠBest":4057,"Ġndiyi":4058,"zeleka":4059,"ĠbakaSirayeli":4060,"46":4061,"Ġzabantu":4062,"Ġakazange":4063,"ĠAfri":4064,"ĠUnited":4065,"thandaza":4066,"ungquthela":4067,"elisa":4068,"Ġukuthatha":4069,"buhlungu":4070,"boni":4071,"Ġsam":4072,"chazwe":4073,"Ġintliziyo":4074,"48":4075,"Ġuhambo":4076,"ror":4077,"Ġowaye":4078,"PHA":4079,"Ġona":4080,"zile":4081,"anam":4082,"Eku":4083,"gqu":4084,"seleyo":4085,"Ġeba":4086,"Ġngokufanelekileyo":4087,"ĠNoko":4088,"xhoba":4089,"back":4090,"thandana":4091,"Ġac":4092,"gqibe":4093,"Ġ28":4094,"Ġmini":4095,"hlweni":4096,"Ġulawulo":4097,"qwenela":4098,"imeyile":4099,"ãĤ":4100,"ĠÃ":4101,"ments":4102,"enzeke":4103,"ĠIsiD":4104,"ube":4105,"Ty":4106,"engo":4107,"layis":4108,"Ġeziqhelekileyo":4109,"ker":4110,"Ġulwimi":4111,"phone":4112,"ĠUThixo":4113,"gus":4114,"work":4115,"Ġkunzima":4116,"sazi":4117,"Ġzis":4118,"ĠlikaThixo":4119,"ĠWeb":4120,"Moses":4121,"Ġamehlo":4122,"Ġkubakho":4123,"elu":4124,"rates":4125,"Ġkabini":4126,"Sh":4127,"âĢĺ":4128,"ebru":4129,"KO":4130,"ky":4131,"Ġgo":4132,"Ġngamandla":4133,"ĠuMo":4134,"Yunivesithi":4135,"yena":4136,"Ġkwizinto":4137,"ography":4138,"fuman":4139,"Ġkwelinye":4140,"dityan":4141,"Ġamawaka":4142,"dlulis":4143,"Amazon":4144,"Ġoza":4145,"jenge":4146,"au":4147,"Ġnani":4148,"Ġkula":4149,"Ġkwisa":4150,"gasti":4151,"ED":4152,"Ġyaku":4153,"huma":4154,"ĠkuM":4155,"stagram":4156,"ĠNgaphandle":4157,"kethi":4158,"sebenze":4159,"cedisa":4160,"pheli":4161,"Ġbun":4162,"Ġezisi":4163,"Ġenge":4164,"Ġkakubi":4165,"ĠOlu":4166,"phathwa":4167,"ram":4168,"nt":4169,"mar":4170,"phan":4171,"Ġamalungu":4172,"fundiso":4173,"ĠSlot":4174,"mal":4175,"matshini":4176,"Ġabazali":4177,"susa":4178,"ĠeMzantsi":4179,"ĠKh":4180,"Ġubungqina":4181,"Ġngeendlela":4182,"Ġiba":4183,"Ġimpahla":4184,"bul":4185,"Nd":4186,"xwe":4187,"eral":4188,"Ġngokuzenzekelayo":4189,"ny":4190,"ries":4191,"coin":4192,"dana":4193,"Ġekha":4194,"lue":4195,"Ġnabani":4196,"Ġekupheleni":4197,"thwalo":4198,"obu":4199,"Ġeland":4200,"phazam":4201,"Ġsonke":4202,"Ġkobu":4203,"ĠMobile":4204,"Be":4205,"Ġet":4206,"Ġyour":4207,"Ġmsebenzi":4208,"cebisa":4209,"tors":4210,"Ġngezinto":4211,"funyen":4212,"gcono":4213,"ekayo":4214,"Ġlwabo":4215,"ĠIsiSerbi":4216,"qondiso":4217,"Ġlee":4218,"dish":4219,"Ġkune":4220,"Ġsing":4221,"lapha":4222,"ĠFor":4223,"vid":4224,"lus":4225,"chnolo":4226,"ĠBonisa":4227,"ZE":4228,"Ġamaqela":4229,"NC":4230,"Ġutsho":4231,"Ġkuzi":4232,"ĠIsiL":4233,"fazwe":4234,"Ġlayo":4235,"ciphe":4236,"iin":4237,"Ġyamandla":4238,"chaphazela":4239,"Ġyehlabathi":4240,"isemba":4241,"Ġelizayo":4242,"qinisekiso":4243,"leleni":4244,"catshulwa":4245,"lizi":4246,"tsing":4247,"fayili":4248,"Ġenze":4249,"Ġzazi":4250,"Ġkwenye":4251,"Ġyazo":4252,"urope":4253,"Ġsite":4254,"Ġizandla":4255,"dibano":4256,"senza":4257,"Ġabazalwana":4258,"vil":4259,"hlangabe":4260,"press":4261,"gs":4262,"Fi":4263,"Ġyokuhlala":4264,"rentshi":4265,"tsingiselo":4266,"Ġngon":4267,"qhelekanga":4268,",\"":4269,"hlalo":4270,"Geor":4271,"sefu":4272,"Ġzanga":4273,"ĠPre":4274,"kunjalo":4275,"ukuba":4276,"Ġsiyi":4277,"ĠEzinye":4278,"ĠCar":4279,"isetyenziswa":4280,"kokheli":4281,"tus":4282,"lungiselelo":4283,"Ġngawo":4284,"ĠEnye":4285,"via":4286,"ĠYehlabathi":4287,"Ġngelo":4288,"thandazo":4289,"Ġesandleni":4290,"Ġiingu":4291,"lass":4292,"Microsoft":4293,"ntwana":4294,"Ġngamanye":4295,"angalisayo":4296,"amp":4297,"sine":4298,"Phone":4299,"Ġibi":4300,"ĠHigh":4301,"ydro":4302,"fili":4303,"cor":4304,"thelekiswa":4305,"leli":4306,"yim":4307,"ĠIsiQu":4308,"Ġgu":4309,"kwenziwa":4310,"Ġizimvo":4311,"Ġ27":4312,"98":4313,"phun":4314,"por":4315,"Za":4316,"Ĥ¬":4317,"knoloji":4318,"66":4319,"Ġngokulula":4320,"Ġivideo":4321,"wayo":4322,"ĠAl":4323,"ubai":4324,"Ġsize":4325,"Ġnjengesi":4326,"ĠEng":4327,"mpela":4328,"Ġ@":4329,"Ġziin":4330,"fuphi":4331,"ĠuPawulos":4332,"ĠIsiB":4333,"ĠSiya":4334,"ĠRi":4335,"ngekho":4336,"Ġimithetho":4337,"thiwekhi":4338,"Ġukwenzela":4339,"Ġemehlweni":4340,"bingeleli":4341,"Ġndiku":4342,"lingo":4343,"zenz":4344,"elung":4345,"qulelo":4346,"luminium":4347,"xwebhu":4348,"Ġumphefumlo":4349,"thobela":4350,"Ġekufuneka":4351,"Ġnezo":4352,"tala":4353,"ĠZa":4354,"Ġkunyaka":4355,"xab":4356,"Ġkwinkqubo":4357,"AT":4358,"thathi":4359,"bhen":4360,"ktobha":4361,"Ġincwadi":4362,"Ġ26":4363,"konge":4364,"Ġkwezinto":4365,"Ġlwethu":4366,"cacisa":4367,"testosterone":4368,"khululekile":4369,"ingeleli":4370,"ĠKor":4371,"wona":4372,"yweni":4373,"bathi":4374,"thango":4375,"Ġyint":4376,"Ġlwase":4377,"Ġuphawu":4378,"thin":4379,"ala":4380,"entley":4381,"anuwari":4382,"OR":4383,"Ġngokucacileyo":4384,"gia":4385,"kulung":4386,"endaba":4387,"ĠyoM":4388,"Ġiincwadi":4389,"velisi":4390,"ĠGu":4391,"efs":4392,"ĠamaNgqina":4393,"hloni":4394,"sinceda":4395,"ĠDating":4396,"ance":4397,"Ġukholo":4398,"sihlanu":4399,"Ġmveliso":4400,"body":4401,"hlambulu":4402,"mbewu":4403,"tsi":4404,"Ġngcono":4405,"Ġunyango":4406,"urk":4407,"xham":4408,"Ġurhulumente":4409,"xoko":4410,"ĠVi":4411,"Ġuy":4412,"Ġisizathu":4413,"tshiswa":4414,"ulula":4415,"Ġezizi":4416,"bana":4417,"Ġelina":4418,"Ġol":4419,"veliswa":4420,"Ġezama":4421,"UNYE":4422,"wonke":4423,"buze":4424,"tafile":4425,"Ġukuthenga":4426,"tec":4427,"ishwa":4428,"chua":4429,"Kho":4430,"boka":4431,"Kapa":4432,"Ġukubonisa":4433,"âĢĿ,":4434,"Ġkumazwe":4435,"IZ":4436,"une":4437,"bhalwe":4438,"Ġnange":4439,"dlale":4440,"Ġayikho":4441,"ĠIsiTs":4442,"Ġ)":4443,"Ġika":4444,"Ġbenga":4445,"ikhaya":4446,"lani":4447,"jongana":4448,"Ġulwa":4449,"khokelela":4450,"ked":4451,"ĠYenza":4452,"vakalelwa":4453,"undoqo":4454,"Akukho":4455,"Ġro":4456,"saba":4457,"oyile":4458,"Ġesinga":4459,"Ġkuthiwa":4460,"Ġvar":4461,"Ġeqhelekileyo":4462,"mvaka":4463,"khankan":4464,"mano":4465,"gital":4466,"ĠUmzekelo":4467,"Ġty":4468,"tsala":4469,"Ġkweminyaka":4470,"gqo":4471,"lenze":4472,"Ġ29":4473,"bai":4474,"Do":4475,"Ye":4476,"Ġngokukodwa":4477,"Ġzazo":4478,"ĠuT":4479,"Ġezikhoyo":4480,"bhiyo":4481,"Ġuluntu":4482,"Ġyon":4483,"Ġesis":4484,"lima":4485,"ileta":4486,"Ġlwezi":4487,"mbileyo":4488,"ĠIsiKi":4489,"Ġncwadi":4490,"Ġethu":4491,"sasazo":4492,"ĠStadium":4493,"Ġucinga":4494,"vuka":4495,"key":4496,"Ġifowuni":4497,"ray":4498,"mantombazana":4499,"jika":4500,"Ġndandi":4501,"zalise":4502,"Ġiimfuno":4503,"FUNDA":4504,"angena":4505,"xibelelana":4506,"Ġkungekho":4507,"ges":4508,"Ġono":4509,"inika":4510,"yuli":4511,"ĠIsiSwa":4512,"vavanya":4513,"Ġeluhlaza":4514,"ast":4515,"dus":4516,"swe":4517,"Ġnceda":4518,"Ġzenu":4519,"qule":4520,"cket":4521,"shiye":4522,"roulette":4523,"liver":4524,"phakama":4525,"isebenzise":4526,"gangathweni":4527,"Ġukhuseleko":4528,"Ġbafuna":4529,"Ġokwe":4530,"engum":4531,"qhelo":4532,"Ġngona":4533,"ĠAd":4534,"razil":4535,"ĠChi":4536,"arch":4537,"sentla":4538,"Ġngumntu":4539,"ĠuE":4540,"Ġoma":4541,"Ġomn":4542,"Ġbenze":4543,"jikeleza":4544,"qaba":4545,"Ġyokugqibela":4546,"Ġesing":4547,"Ġezweni":4548,"illi":4549,"Ġnding":4550,"http":4551,"mvakalelo":4552,"ĠZe":4553,"khompyutha":4554,"bs":4555,"wonye":4556,"king":4557,"Ġyale":4558,"Sele":4559,"Ġibhola":4560,"....":4561,"Ġkanti":4562,"();":4563,"ters":4564,"papash":4565,"pin":4566,"Ġngokuqhelekileyo":4567,"Ġiiyure":4568,"logi":4569,"Ġyokusebenza":4570,"Ġngezantsi":4571,"bhileni":4572,"RE":4573,"Ġhi":4574,"ĠIbali":4575,"yensi":4576,"str":4577,"Ġubuncinane":4578,"ĠKwe":4579,"Ġzinoku":4580,"KHO":4581,"96":4582,"Ġofuna":4583,"ĠWi":4584,"ĠKule":4585,"Ġemibini":4586,"95":4587,"aku":4588,"olomon":4589,"Ġyesibini":4590,"saseC":4591,"kona":4592,"Ġukhethe":4593,"elosi":4594,"ĠlikaYehova":4595,"Or":4596,"ĠFunda":4597,"ebruwari":4598,"Ġnent":4599,"GQ":4600,"ĠuH":4601,"lath":4602,"thombe":4603,"klasi":4604,"Ġehamba":4605,"setyenziselwa":4606,"EB":4607,"Ġge":4608,"Ġecaleni":4609,"MA":4610,"Ġyent":4611,"Ġiimpahla":4612,"fuma":4613,"qondweni":4614,"Lung":4615,"els":4616,"xabisa":4617,"Ġundi":4618,"late":4619,"khutsh":4620,"foma":4621,"zanga":4622,"IL":4623,"qui":4624,"liziyweni":4625,"xokozelo":4626,"Ġukuza":4627,"unge":4628,"propathi":4629,"phonon":4630,"ĠeYerusalem":4631,"Ġbee":4632,"braham":4633,"Ni":4634,"wazi":4635,"uso":4636,"Ġiibhonasi":4637,"Ġkwenu":4638,"khuphiswano":4639,"Ġnawo":4640,"Ġelitsha":4641,"sebenziswano":4642,"Ġcrypto":4643,"isile":4644,"Ġkwalo":4645,"bungqina":4646,"Ġkwiwebhusayithi":4647,"Ġencinci":4648,"nikelo":4649,"mileyo":4650,"Ġintombi":4651,"Ġkwazo":4652,"ĠNgokuba":4653,"kisha":4654,"ĠnguThixo":4655,"Iint":4656,"Ġezingena":4657,"qoph":4658,"Ġnguye":4659,"ĠMna":4660,"phuhlisa":4661,"Ex":4662,"HD":4663,"Ã¼":4664,"kelelwa":4665,"Ġkwenziwa":4666,"Bhayibhileni":4667,"yaniseka":4668,"ĠKwaku":4669,"zelwe":4670,"Ġinzuzo":4671,"rian":4672,"Ġ500":4673,"500":4674,"ziweyo":4675,"kali":4676,"Ġ2012":4677,"Ġbani":4678,"ĠeT":4679,"Cy":4680,"Ġtu":4681,"fileyo":4682,"Ġsasi":4683,"Ġelandelayo":4684,"Ġokulungileyo":4685,"ondon":4686,"hlaselwa":4687,"Ġaphezulu":4688,"Ġying":4689,"told":4690,"bemi":4691,"jelo":4692,"ĠKung":4693,"Geo":4694,"42":4695,"Ã§":4696,"Ġuqa":4697,"qiniseka":4698,"roadcast":4699,"my":4700,"meleyo":4701,"Ġnjen":4702,"vuyo":4703,"wns":4704,"ach":4705,"londolo":4706,"ĠuG":4707,"ququ":4708,"Ġabane":4709,"Ġndim":4710,"lands":4711,"qulun":4712,"Ġukuphucula":4713,"Ġslot":4714,"khuphe":4715,"ĠTop":4716,"lunganga":4717,"Ġwan":4718,"Ngu":4719,"bale":4720,"titshala":4721,"elane":4722,"ĠyeB":4723,"Ġmoya":4724,"ĠUnoku":4725,"kade":4726,"Ġbenza":4727,"bulawa":4728,"zeli":4729,"Ġneng":4730,"Ġemdlalweni":4731,"ĠAndi":4732,"ac":4733,"zane":4734,"malunga":4735,"phelele":4736,"Ġize":4737,"qathango":4738,"Ġngoxa":4739,"Ġndifuna":4740,"Abantu":4741,"77":4742,"Ġukunika":4743,"gqwetha":4744,"43":4745,"cacile":4746,"thuke":4747,"welonke":4748,"nkqubo":4749,"cri":4750,"fes":4751,"Ġuko":4752,"Ġukufa":4753,"mvelo":4754,"phathekayo":4755,"rand":4756,"Ġeze":4757,"Ġubuso":4758,"bangelwa":4759,"CC":4760,"ĠNi":4761,"kanti":4762,"Ġukunciphisa":4763,"tle":4764,"tyiswa":4765,"endle":4766,"Ġthis":4767,"eleko":4768,"Ġsimahla":4769,"thembiso":4770,"ppa":4771,"ziva":4772,"Ġayina":4773,"xowa":4774,"ĠuD":4775,"isu":4776,"Ġumyalelo":4777,"minye":4778,"Ġnezixhobo":4779,"Ġukulawula":4780,"ĠNAB":4781,"Ġlinga":4782,"Ġyile":4783,"yanzel":4784,"SEO":4785,"Ġumgca":4786,"dom":4787,"bhapti":4788,"Ġngenyanga":4789,"Kumkani":4790,"Ġngokuthe":4791,"Ġyokuzonwabisa":4792,"yanisweni":4793,"Lizwi":4794,"Ġngonaphakade":4795,"dlele":4796,"qendu":4797,"ĠAir":4798,"balaseleyo":4799,"Ġngesandla":4800,"MP":4801,"das":4802,"ĠIsiKir":4803,"ons":4804,"ktop":4805,"phala":4806,"ĠEyona":4807,"KE":4808,"Man":4809,"Ġukunceda":4810,"lahlekelwa":4811,"Android":4812,"done":4813,"Ġubone":4814,"ĠEye":4815,"Ġezifanelekileyo":4816,"ngciphe":4817,"ĠFumana":4818,"ĠKwathi":4819,"Ġukuva":4820,"Ġiifayile":4821,"Ġisisombululo":4822,"vulekileyo":4823,"\";":4824,"Next":4825,"koku":4826,"Ġukubu":4827,"qhutywa":4828,"Ġ});":4829,"Ġyezinto":4830,"ds":4831,"Ġaben":4832,"ĠAs":4833,"Ġabahlobo":4834,"Ġndawonye":4835,"low":4836,"Ġshare":4837,"chiza":4838,"Ġintloko":4839,"Ġidipozithi":4840,"sic":4841,"tshisa":4842,"pub":4843,"Ġngalinye":4844,"ĠeYurophu":4845,"Ġezibalulekileyo":4846,"Ġkancinci":4847,"sithathu":4848,"arth":4849,"zerbai":4850,"ÂŃ":4851,"Ġimoto":4852,"baninzi":4853,"reen":4854,"Ġzange":4855,"ĠInto":4856,"41":4857,"Ewe":4858,"Ġapp":4859,"Ġndithi":4860,"ner":4861,"ĠiT":4862,"vumi":4863,"chasene":4864,"âĨ":4865,"Ġpe":4866,"Ġusebenzise":4867,"Ġinkqubela":4868,"Ġcan":4869,"gcinwe":4870,"Â«":4871,"enaku":4872,"bumn":4873,"ĠuMoses":4874,"qophiso":4875,"55":4876,"lindeleke":4877,"elwimi":4878,"andula":4879,"Ġndiye":4880,"lana":4881,"qinileyo":4882,"kathi":4883,"kokeli":4884,"Ġsiku":4885,"Ġnabantwana":4886,"ĠnguM":4887,"dibeneyo":4888,"yang":4889,"into":4890,"yiyo":4891,"Ġsine":4892,"zolo":4893,"qakra":4894,"sebenzini":4895,"EC":4896,"Ġnamandla":4897,"ulung":4898,"tshuku":4899,"zisi":4900,"angeli":4901,"ĠIsiO":4902,"Septemba":4903,"Ġebizwa":4904,"Ġkus":4905,"Ġlun":4906,"Mveliso":4907,"mbonakalo":4908,"Ġyefowuni":4909,"temp":4910,"fama":4911,"Ġkukuthi":4912,"bong":4913,"Ġkangaka":4914,"Ġukuhlala":4915,"hlon":4916,"AutoCAD":4917,"fihlo":4918,"Ġkungekhona":4919,"KA":4920,"bhali":4921,"thumele":4922,"Ġikhadi":4923,"kunene":4924,"lanzi":4925,"Melika":4926,"Ġiqhosha":4927,"Ġinjongo":4928,"Sityhi":4929,"Ġkuthatha":4930,"Ġinxalenye":4931,"ngo":4932,"2014":4933,"Luka":4934,"ZO":4935,"Ġsel":4936,"NA":4937,"Ġngokwen":4938,"Ġisiqe":4939,"Ġekusebenz":4940,"ING":4941,"Ġhave":4942,"hai":4943,"Ġabatsha":4944,"Ġabangama":4945,"ĠPla":4946,"Januwari":4947,"gxa":4948,"zan":4949,"Ġkumn":4950,"mic":4951,"Ġzokuba":4952,"mpuma":4953,"ud":4954,"Ġfo":4955,"UKU":4956,"Ġyokwenene":4957,"tyu":4958,"qhube":4959,"tywala":4960,"Ho":4961,"IF":4962,"ï¼":4963,"fundiswa":4964,"Ġfuthi":4965,"sian":4966,"bhalwa":4967,"Ġjo":4968,"Ġose":4969,"ĠAnd":4970,"xube":4971,"toli":4972,"Ezi":4973,"PC":4974,"thabathe":4975,"postile":4976,"Ġpla":4977,"cted":4978,"Ġindima":4979,"Ġyathi":4980,"futha":4981,"ĠLed":4982,"gcini":4983,"leji":4984,"mark":4985,"Ġumbala":4986,"Ġamanye":4987,"Ġamanyathelo":4988,"Ġebantwini":4989,"hiya":4990,"Ġengu":4991,"qhubekayo":4992,"hashe":4993,"Ġukutshintsha":4994,"nam":4995,"Ġwobu":4996,"mile":4997,"Ġizicelo":4998,"Press":4999,"Ġzawo":5000,"kethe":5001,"artin":5002,"ĠFacts":5003,"Ġneli":5004,"khowudi":5005,"hente":5006,"dis":5007,"mazi":5008,"Ġelifanelekileyo":5009,"dumileyo":5010,"mori":5011,"Ġukungena":5012,"Ġngokwan":5013,"CD":5014,"Ġesinye":5015,"ĠbukaThixo":5016,"Phe":5017,"Ġngxaki":5018,"funeko":5019,"lanu":5020,"Ġkusetyenziswa":5021,"bhedlele":5022,"Ġkhangela":5023,"curren":5024,"('":5025,"td":5026,"ĠĊ":5027,"khulula":5028,"tikiti":5029,"chnology":5030,"Ġver":5031,"ELE":5032,"unithi":5033,"Ġyenu":5034,"âĢ¦âĢ¦":5035,"Ġup":5036,"ĠIM":5037,"Ġkwabanye":5038,"Ġintanethi":5039,"Ġngelithi":5040,":\"":5041,"Ġngokugqithis":5042,"arhente":5043,"Ġsaba":5044,"futhe":5045,"isebenze":5046,"filimu":5047,"tshukumo":5048,"Ġintlawulo":5049,"Ġkomhlaba":5050,"Ġkangangokuba":5051,"wina":5052,"inoku":5053,"ener":5054,"yoM":5055,"Ġkwiint":5056,"ĠMatshi":5057,"ĠLive":5058,"Ġlang":5059,"ĠamaSirayeli":5060,"yint":5061,"ink":5062,"Ġkukunceda":5063,"Phu":5064,"ĠIsiMala":5065,"ingo":5066,"Ġelithile":5067,"kelekile":5068,"tshintshe":5069,"Kuba":5070,"Iimpawu":5071,"sasaza":5072,"ĠeG":5073,"bingelelo":5074,"tse":5075,"Ġithe":5076,"onka":5077,"Ġsho":5078,"Instagram":5079,"ANG":5080,"ĠImidlalo":5081,"ĠIsiNgesi":5082,"Ġ31":5083,"Ġngamazwe":5084,"49":5085,"cele":5086,"Ġolunga":5087,"stanbul":5088,"kulungwane":5089,"TU":5090,"mbala":5091,"Ġyimi":5092,"Ġbakwazi":5093,"sasazwa":5094,"okanye":5095,"Ġephakamileyo":5096,"Ġekhethekileyo":5097,"mashumi":5098,"Ġzemi":5099,"VA":5100,"lekele":5101,"ĠIsa":5102,"Ġnaluphi":5103,"Ġinika":5104,"miya":5105,"val":5106,"Ġlon":5107,"ĠInkqubo":5108,"Ð¸Ð":5109,"Ġabaphandi":5110,"Ġyindawo":5111,"change":5112,"kokuqala":5113,"many":5114,"Ġizifundo":5115,"zuzwana":5116,"elli":5117,"rie":5118,"anamhlanje":5119,"luncedo":5120,"ĠUkun":5121,"fanelekile":5122,"phulaphula":5123,"chaphazele":5124,"Ġvi":5125,"untu":5126,"ĠHayi":5127,"____":5128,"Ġngenye":5129,"AND":5130,"dlulayo":5131,"ook":5132,"Ġukuvelisa":5133,"ume":5134,"qanawa":5135,"cwangcisa":5136,"ase":5137,"vin":5138,"gulane":5139,"joliswe":5140,"bongo":5141,"hlangu":5142,"88":5143,"Ġwona":5144,"bhokhwe":5145,"funyenwe":5146,"Ġyaying":5147,"jenjalo":5148,"ĠiC":5149,"boniswa":5150,"old":5151,"guqulwa":5152,"ĠBiography":5153,"09":5154,"fini":5155,"ĠiP":5156,"funo":5157,"hed":5158,"hlwe":5159,"esheya":5160,"hlalutyo":5161,"Ġkwent":5162,"Ġzona":5163,"Ġkho":5164,"tywayo":5165,"Ġukuqala":5166,"cama":5167,"Ġkwawo":5168,"Ġneza":5169,"tabeni":5170,"Ġiim":5171,"Ġesikolweni":5172,"Nkonzo":5173,"mthethweni":5174,"ĠuR":5175,"Ġakwa":5176,"Ġwenu":5177,"yinyaniso":5178,"Ġumatshini":5179,"Ġuthetha":5180,"unt":5181,"kane":5182,"Ġnexesha":5183,"vd":5184,"tyana":5185,"Ġwemi":5186,"khulisa":5187,"station":5188,"Ġngokwaneleyo":5189,"Ġuyise":5190,"Ġbeen":5191,"bhedi":5192,"Okulandelayo":5193,"Ġnxa":5194,"ĠReview":5195,"hlaziya":5196,"Kwaye":5197,"ste":5198,"Ġukudala":5199,"Indawo":5200,"Tes":5201,"ziswa":5202,"mhlophe":5203,"OT":5204,"khange":5205,"Mpuma":5206,"Ġngokuzi":5207,"ĠMusa":5208,"phelisa":5209,"qheke":5210,"05":5211,"siko":5212,"Ġukukhusela":5213,"ĠUbun":5214,"Ġesikhulu":5215,"linganiswa":5216,"Ġebusuku":5217,"tshata":5218,"thwala":5219,"ĠLea":5220,"andulo":5221,"qhel":5222,"khiqi":5223,"donesia":5224,"ĠOmnye":5225,"zerbaijani":5226,"Enye":5227,"kwabo":5228,"Ġezincinci":5229,"Ġomhle":5230,"Ġkwangaphambili":5231,"HLA":5232,"Ġkubonisa":5233,"landele":5234,"xhaswa":5235,"ĠUninzi":5236,"ilo":5237,"Ġsifuna":5238,"Roman":5239,"Ã¶":5240,"Ġezulwini":5241,"kholwa":5242,"Ġeyahlukileyo":5243,"jikelezayo":5244,"Ġkubona":5245,"raw":5246,"Ġndoda":5247,"Ġkusen":5248,"Ġbesithi":5249,"ssa":5250,"caphu":5251,"ĠPe":5252,"ĠIt":5253,"miti":5254,"isithi":5255,"ĠNgaphezu":5256,"cetate":5257,"Ġkha":5258,"Ġayo":5259,"Ġyoluntu":5260,"roa":5261,"ĠYonke":5262,"gubo":5263,"More":5264,"Ġakayi":5265,"chool":5266,"livere":5267,"pri":5268,"uma":5269,"Ġkwiing":5270,"ĠMachine":5271,"form":5272,"ĠNews":5273,"Ġifayile":5274,"ten":5275,"Ġababini":5276,"kumisa":5277,"zaku":5278,"ken":5279,"Ġnez":5280,"Ġngolu":5281,"teroid":5282,"Windows":5283,"sekelwe":5284,"phathelele":5285,"ĠYOKU":5286,"VC":5287,"Ġwokuba":5288,"Ġget":5289,"Ġuthathe":5290,"UA":5291,"echua":5292,"plas":5293,"ĠIzinto":5294,"khoboka":5295,"ĠCor":5296,"bume":5297,"amuweli":5298,"Ġethe":5299,"orld":5300,"Ġelihle":5301,"turn":5302,"DL":5303,"Ġukukhangela":5304,"ĠUL":5305,"Ġmasi":5306,"Ġuqinise":5307,"Ġumtshato":5308,"Ġngako":5309,"Ġkwicala":5310,"elungelo":5311,"unu":5312,"tyelwa":5313,"Ġizilwanyana":5314,"Ġolukhulu":5315,"Ġ>>":5316,"ĬĤ":5317,"Ġokwa":5318,"Ġneendlela":5319,"thukezi":5320,"86":5321,"Ġveki":5322,"Ġumdlali":5323,"yiki":5324,"Ġyokugcina":5325,"onic":5326,"ĠIsiAzerbaijani":5327,"romo":5328,"07":5329,"Ġiqabane":5330,"mangalisayo":5331,":?":5332,"Jonga":5333,"ĠIbhonasi":5334,"Theng":5335,"56":5336,"Ġukubeka":5337,"phumla":5338,"mailto":5339,"DXO":5340,"Fwww":5341,"Ffinder":5342,"Per":5343,"ahttps":5344,"âĬĤ":5345,"Fe":5346,"Njengoko":5347,"Ġphandle":5348,"Ġukujonga":5349,"Ġenom":5350,"Ġnjengoku":5351,"Ġubukhulu":5352,"Ġamane":5353,"Ġikhaya":5354,"ĠGcina":5355,"ood":5356,"Ġubungakanani":5357,"Ad":5358,"Yenza":5359,"Ġngaphaya":5360,"vis":5361,"katha":5362,"Untold":5363,"hlangabezana":5364,"Ġwill":5365,"Ġesinoku":5366,"ĠIsiQuechua":5367,"elelana":5368,"vale":5369,"97":5370,"tis":5371,"ngeni":5372,"gan":5373,"khiwe":5374,"Ġ40":5375,"komfa":5376,"thenge":5377,"qakraza":5378,",âĢĻ":5379,"bano":5380,"ĠLtd":5381,"Ġlibe":5382,"moti":5383,"chain":5384,"Isaya":5385,"Ġubani":5386,"joni":5387,"Ġusa":5388,"hali":5389,"rade":5390,"singa":5391,"Ġekhoyo":5392,"Ġencinane":5393,"thotho":5394,"ican":5395,"kongezelela":5396,"Ġilungelo":5397,"kosikazi":5398,"ÃŃ":5399,"Ġolo":5400,"iler":5401,"ĠIsiBa":5402,"khuba":5403,"Ġdis":5404,"burg":5405,"ĠCent":5406,"Ġnawuphi":5407,"isoloko":5408,"hlelo":5409,"powder":5410,"Inkqubo":5411,"Yakobi":5412,"Ġbahlala":5413,"col":5414,"qhubela":5415,"Ġngokunjalo":5416,"Des":5417,"zech":5418,"Ġzokun":5419,"yamezela":5420,"Ġkangakanani":5421,"tshintshwa":5422,"kisayo":5423,"elin":5424,"Ġeman":5425,"Ġemsebenzini":5426,"ĠYoku":5427,"Ð°Ð":5428,"mes":5429,"galog":5430,"rds":5431,"HT":5432,"wayini":5433,"qungquthela":5434,"isti":5435,"ĠAmer":5436,"ðŁ":5437,"lusi":5438,"lity":5439,"Ġiifoto":5440,"Indonesia":5441,"Ġeyenziwe":5442,"ump":5443,"Ġuni":5444,"iti":5445,"Ġabalandeli":5446,"ANC":5447,"xwa":5448,"Ġezilishumi":5449,"ĠIsiLu":5450,"calu":5451,"cima":5452,"mboniso":5453,"rekhodi":5454,"06":5455,"Ġwawa":5456,"Ġziquka":5457,"Ġezino":5458,"qiqo":5459,"ving":5460,"tip":5461,"lali":5462,"Ġkomnye":5463,"Datshi":5464,"Ġingqondo":5465,"ĠIsiSwahili":5466,"diza":5467,"Ġkunceda":5468,"Ġuna":5469,"Ġndizi":5470,"ĠuSi":5471,"Ġst":5472,"ream":5473,"ĠOkanye":5474,"Ġhas":5475,"Ġyawo":5476,"Ġimigaqo":5477,"Ġphaya":5478,"âĢĵ":5479,"hlulo":5480,"Nda":5481,"bolic":5482,"Ġinter":5483,"Ġumbuzo":5484,"Ġiyi":5485,"tsalane":5486,"Ġmdlalo":5487,"ship":5488,"Genesis":5489,"Uya":5490,"Ã¡":5491,"yiwe":5492,"taly":5493,"Hlabathi":5494,"Ġolung":5495,"Ġsh":5496,"onakalo":5497,"Ġuhla":5498,"Ġnamanye":5499,"GQIB":5500,"load":5501,"ames":5502,"qabileyo":5503,"ful":5504,"Ġ...]":5505,"Ġibu":5506,"ĠIm":5507,"xico":5508,"Bawo":5509,"ĠDo":5510,"qhinga":5511,"lythe":5512,"Ġnangoko":5513,"dan":5514,"Ġinyama":5515,"erika":5516,"boniso":5517,"Ġbonus":5518,"St":5519,"Ġkusebenza":5520,"Ġunike":5521,"Ġbeli":5522,"zululwazi":5523,"Levi":5524,"krini":5525,"beli":5526,"Ġiinjongo":5527,"phendule":5528,"kuku":5529,"tain":5530,"Ġlakwa":5531,"ĠElitsha":5532,"?âĢĶ":5533,"Ġj":5534,"Ġnini":5535,"omnye":5536,"cep":5537,"qithi":5538,"boniswe":5539,"chazwa":5540,"lango":5541,"Ġakhawunti":5542,"Ġbebe":5543,"Ġwani":5544,"pesenti":5545,"Georgia":5546,"pli":5547,"Ġee":5548,"khnoloji":5549,"bango":5550,"Ġngempumelelo":5551,"ĠReal":5552,"qwe":5553,"dal":5554,"Ġgirls":5555,"Ġigazi":5556,"Ġngokubhekis":5557,"qatha":5558,"khuselekile":5559,"Ġumahluko":5560,"tifike":5561,"Ġmazwi":5562,"cokola":5563,"jolise":5564,"Februwari":5565,"jenga":5566,"Ġuqale":5567,"Ġink":5568,"Ngenxa":5569,"):":5570,"01":5571,"xenye":5572,"inya":5573,"thyl":5574,"ongwa":5575,"ary":5576,"ccess":5577,"Ġlawo":5578,"Ġsoftware":5579,"Ġungu":5580,"Tattoo":5581,"ia":5582,"sy":5583,"Ġnaseku":5584,"Ġephambili":5585,"Ġkutsho":5586,"hushu":5587,"wal":5588,"khohlo":5589,"Ġleen":5590,"ffu":5591,"Ġwaku":5592,"ubu":5593,"ĠuJ":5594,"wabo":5595,"Ġinkulu":5596,"tudio":5597,"reet":5598,"pper":5599,"Ġwasi":5600,"Ġemangalisayo":5601,"thathaka":5602,"Ġkangangoko":5603,"Ġyes":5604,"ĠFran":5605,"Lawulo":5606,"Ġowen":5607,"xhomekeka":5608,"Ġuxolo":5609,"anqa":5610,"ĠBill":5611,"Faro":5612,"Ġyakwa":5613,"coma":5614,"ruity":5615,"pheliyo":5616,"App":5617,"Word":5618,"Ġuvavanyo":5619,"Ġ==":5620,"phunye":5621,"Ġnot":5622,"fumadas":5623,"Ġubude":5624,"Ġngesondo":5625,"PR":5626,"Ñı":5627,"mbuso":5628,"fil":5629,"thethayo":5630,"cocekileyo":5631,"tonga":5632,"ustra":5633,"rmone":5634,"ĠIngaba":5635,"Ġsina":5636,"Ġsenze":5637,"Ġndand":5638,"Ġukwakha":5639,"(\"":5640,"Khan":5641,"Ġwalo":5642,"ĠMhlawumbi":5643,"vili":5644,"Ġpre":5645,"Ġeziliqela":5646,"LC":5647,"gazini":5648,"lockchain":5649,"bamba":5650,"Ġukubheja":5651,"ĠAuto":5652,"isiseko":5653,"wedish":5654,"hlwele":5655,"thole":5656,"pot":5657,"Ġ\"/":5658,"Ġamanani":5659,"vakalisi":5660,"âĢĭâĢĶ":5661,"redit":5662,"Ġnango":5663,"Sathana":5664,"Arc":5665,"bre":5666,"zame":5667,"Mizekeliso":5668,"yenzayo":5669,"tyhu":5670,"Ġ\"/\"":5671,"ĠIsiTurk":5672,"Ġwebsite":5673,"oltip":5674,"Ġimin":5675,"rist":5676,"Ġihlala":5677,"omo":5678,"tshela":5679,"lex":5680,"jax":5681,"Ġkumdlalo":5682,"cingo":5683,"trong":5684,"Ġ$(\".":5685,"ĠshareText":5686,"phephe":5687,"ĠPower":5688,"cedisi":5689,"Ġele":5690,"Ġeziza":5691,"hlolis":5692,"Ġumama":5693,"Ġuhlala":5694,"Ġibali":5695,"Ġebonakalayo":5696,"hambi":5697,"Ġnakwe":5698,"Ġumvuzo":5699,"Ġezimbi":5700,"UC":5701,"pre":5702,"ĠUthi":5703,"inian":5704,"bhsayithi":5705,"oney":5706,"ĠEurope":5707,"Ġiinkampani":5708,"Ġnokusebenza":5709,"Ġzokusebenza":5710,"Ġpm":5711,"ĠKaYehova":5712,"melwane":5713,"ĠBit":5714,"Ġnobun":5715,"Ġunyaka":5716,"Bhulu":5717,"yolo":5718,"Section":5719,"feni":5720,"ĠIgama":5721,"banika":5722,"ĠUN":5723,"ngu":5724,"lls":5725,"QA":5726,"tayile":5727,"ams":5728,"ungary":5729,"Ġyiyo":5730,"ffuser":5731,"Free":5732,"lamano":5733,"Ġembi":5734,"ĠUmntu":5735,"ĠCol":5736,"ders":5737,"Ġnomhlaba":5738,"omatshini":5739,"Ġezamahala":5740,"Ġwayen":5741,"khwen":5742,"Ġbali":5743,"ĠMic":5744,"ĠLoo":5745,"gowuli":5746,"ĠBay":5747,"cti":5748,"eld":5749,"Ġzokuqala":5750,"Du":5751,"gent":5752,"enoku":5753,"Ġkwiqela":5754,"ĠzeN":5755,"ĠngoM":5756,"onobumba":5757,"xiba":5758,"Ġyendawo":5759,"patial":5760,"TE":5761,"cawa":5762,"ull":5763,"kini":5764,"tshatyala":5765,"Ġsayo":5766,"58":5767,"swele":5768,"umo":5769,"Ġumyalezo":5770,"table":5771,"Ġesiphezulu":5772,"kunkuma":5773,"endleko":5774,"cent":5775,"iselwe":5776,"Ġukusa":5777,"zuko":5778,"Ġbobu":5779,"ENZA":5780,"khumbule":5781,"08":5782,"ĠeP":5783,"kolelo":5784,"huthukezi":5785,"Ġsim":5786,"phulu":5787,"sese":5788,"Ġwali":5789,"Moya":5790,"ĠIsiPhuthukezi":5791,"thon":5792,"Ġkwamanzi":5793,"ĠNext":5794,"Ġsokuqala":5795,"onwabo":5796,"nyaka":5797,"ĠngoLwe":5798,"Ġkudala":5799,"yila":5800,"Ġkwakukho":5801,"reole":5802,"ĠStra":5803,"ĠFo":5804,"linde":5805,"ĠMeyi":5806,"ÑĮ":5807,"Ġkhu":5808,"thandwayo":5809,"76":5810,"fra":5811,"thulu":5812,"ĠKhu":5813,"peyin":5814,"hlukana":5815,"RI":5816,"mka":5817,"Ġhttp":5818,"lesi":5819,"phuhliswa":5820,"300":5821,"Â»":5822,"Ġkwamanye":5823,"ĠKhawu":5824,"media":5825,"yanzele":5826,"ĠBaya":5827,"inter":5828,"ĠIxesha":5829,"ĠamaKristu":5830,"bung":5831,"Ġnento":5832,"ilip":5833,"kuhlaleni":5834,"Ġkulungile":5835,"Ġkwang":5836,"hlathi":5837,"Ġkwedatha":5838,"thutho":5839,"Va":5840,"ĠNgaloo":5841,"Izinto":5842,"beng":5843,"Ġizicwangciso":5844,"Siya":5845,"Ġfe":5846,"Ġkufuna":5847,"Ġumzi":5848,"Ġgqitha":5849,"thathwe":5850,"vice":5851,"konwa":5852,"khilo":5853,"ISEK":5854,"elise":5855,"inise":5856,"Ġefuna":5857,"Ġawun":5858,"yifumana":5859,"Ġnamnye":5860,"pheka":5861,"Ġbeza":5862,"qondi":5863,"Ġanoku":5864,"VD":5865,"mvume":5866,"Ġzezo":5867,"Sebe":5868,"vakalisa":5869,"bandakanywa":5870,"roatia":5871,"okumkani":5872,"ĠApha":5873,"urkey":5874,"hwe":5875,"lor":5876,"rog":5877,"ĠâĢĶ":5878,"mozulu":5879,"Inter":5880,"ĠIimpawu":5881,"orway":5882,"Ġzine":5883,"Sityhilelo":5884,"Ġimiyalelo":5885,"hy":5886,"Ġukung":5887,"funwa":5888,"Ġenjalo":5889,"Ġyeng":5890,"Ġunayo":5891,"ANI":5892,"twe":5893,"Ġukwandisa":5894,"Ġngokwakho":5895,"diliya":5896,"ngcipheko":5897,"sana":5898,"lick":5899,"bekwa":5900,"krainian":5901,"sondela":5902,"Ġyenziwe":5903,"Ġminyaka":5904,"chan":5905,"Tha":5906,"lone":5907,"pil":5908,"Ġgama":5909,"Ġufunde":5910,"dapter":5911,"Ġyokufumana":5912,"Ġizigqibo":5913,"andipha":5914,"luleka":5915,"Ġokokuqala":5916,"Con":5917,"iselwano":5918,"qaphela":5919,"Ġokukhulu":5920,"lahleka":5921,"bonakaliyo":5922,"ndi":5923,"yus":5924,"Ġnezin":5925,"Ġezinzima":5926,"Ġnendawo":5927,"phuculwa":5928,"2013":5929,"IMI":5930,"Chippa":5931,"78":5932,"imi":5933,"Ġigumbi":5934,"Ġngeenxa":5935,"ĠEzemidlalo":5936,"bhalisa":5937,"tana":5938,"Ġithetha":5939,"vanyo":5940,"Ġabase":5941,"Ġsabo":5942,"ongoma":5943,"qongqo":5944,"Wi":5945,"Âł":5946,"èª":5947,"come":5948,"Social":5949,"ĠMicro":5950,"Kun":5951,"bande":5952,"Ġubudlelwane":5953,"Juni":5954,"QIN":5955,"èªŀ":5956,"iss":5957,"khumbuzo":5958,"guquka":5959,"SIG":5960,"vala":5961,"Ġmu":5962,"Ġnaziphi":5963,"Ġezinge":5964,"ĠServer":5965,"Ġqu":5966,"ras":5967,"program":5968,"INdumiso":5969,"msanqa":5970,"tyiwe":5971,"vuselela":5972,"Ġnkqu":5973,"Ġmg":5974,"mesi":5975,"Ġengcono":5976,"Ġumbon":5977,"bin":5978,"anisi":5979,"Ġephelileyo":5980,"Ġamalungelo":5981,"2012":5982,"Ġlwam":5983,"ĠQu":5984,"mbulula":5985,"Qhagamshelana":5986,"bwe":5987,"phulaphuli":5988,"Ġkwiimeko":5989,"Ġyokuthengisa":5990,"Ukuze":5991,"chaze":5992,"chithe":5993,"Ġall":5994,"kwenze":5995,"fuba":5996,"Ġolunye":5997,"cwecwe":5998,"ross":5999,"Ġngasemva":6000,"onate":6001,"Ġamahlanu":6002,"ĠPri":6003,"Ġeyadlulayo":6004,"General":6005,"'...":6006,"ĠuL":6007,"Ġkwiphepha":6008,"vie":6009,"Ġubuchule":6010,"jikeleze":6011,"Ġibhokisi":6012,"Ġbafumane":6013,"ĠkaSirayeli":6014,"ĠJulayi":6015,"ĠSouth":6016,"Ġndibe":6017,"jikelezo":6018,"Asi":6019,"Ġwokugqibela":6020,"Dubai":6021,"khondo":6022,"Fumana":6023,"Fdocid":6024,"limi":6025,"Matshi":6026,"zuza":6027,"national":6028,"Ġuyilo":6029,"AMA":6030,"ULA":6031,"Ġiwebhusayithi":6032,"khwela":6033,"khosini":6034,"Ġbabu":6035,"Ġyay":6036,"khululwa":6037,"Ġwon":6038,"Ġkanjalo":6039,"ĠAfrica":6040,"Cyril":6041,"Ġizibonelelo":6042,"ĠInkampani":6043,"gesi":6044,"xes":6045,"hat":6046,"Ġyemoto":6047,"xake":6048,"yano":6049,"steroid":6050,"Ġmidlalo":6051,"mangaliso":6052,"Pe":6053,"RA":6054,"Ġakana":6055,"Ġukufaka":6056,"ĠkweN":6057,"Ġlween":6058,"sesikweni":6059,"Ġhttps":6060,"khuni":6061,"Ġkarhulumente":6062,"Ġsimele":6063,"usin":6064,"Ġakuyi":6065,"Ġendleleni":6066,"chaphazelekayo":6067,".[":6068,"seni":6069,"elinye":6070,"Ġyokuzi":6071,"ĠFruity":6072,"Ġngamaxesha":6073,"ĠIsiCreole":6074,"sondo":6075,"Ġesuka":6076,"search":6077,"zodwa":6078,"Ġzihlala":6079,"ĠWo":6080,"ĠNgokuqinisekileyo":6081,"hambeni":6082,"Ġemithathu":6083,"wanda":6084,"Ġethetha":6085,"Ġumsebenzisi":6086,"khasi":6087,"Ġliphela":6088,"kuni":6089,"creen":6090,"Ġniya":6091,"gxininisa":6092,"Ġtype":6093,"Ġimizuzu":6094,"dlule":6095,"Ġumele":6096,"Ġzehlabathi":6097,"Ukun":6098,"ĠZo":6099,"Rus":6100,"ĠIsiXhosa":6101,"ĠEkubeni":6102,"gwa":6103,"thengwa":6104,"shuwa":6105,"Go":6106,"Ġibhetri":6107,"Ġukukhula":6108,"sayi":6109,"Ġengqondweni":6110,"Armeni":6111,"Ġ×":6112,"Ġsiba":6113,"::::":6114,"Bho":6115,"Ñĭ":6116,"leki":6117,"mbisana":6118,"andathu":6119,"Kwin":6120,"ctor":6121,"dast":6122,"Ġumthombo":6123,"ĠKan":6124,"ÐµÐ":6125,"ming":6126,"wabhi":6127,"Ġothile":6128,"ĠkaM":6129,"linda":6130,"don":6131,"Ġukuthanda":6132,"Ġkwela":6133,"manqanaba":6134,"gqitywa":6135,"Ġuyaku":6136,"preli":6137,"ĠLeague":6138,"danga":6139,"Ġweza":6140,"jeni":6141,"ĠUmn":6142,"ĠYehova":6143,"olish":6144,"Ġesina":6145,"wnload":6146,"stitu":6147,"Ġkuze":6148,"Ġinyanga":6149,"shoni":6150,"Ops":6151,"Ġesebenzayo":6152,"yoka":6153,"phambu":6154,"inaku":6155,"Ġebomvu":6156,"Ġroulette":6157,"Ġyomn":6158,"Ġikhowudi":6159,"ĠuZ":6160,"Ġephantsi":6161,"Ġukudibanisa":6162,"Ġumda":6163,"Ġngetyala":6164,"ĠLula":6165,"Vidiyo":6166,"ĠâĤ¬":6167,"THIXO":6168,"GQIBELA":6169,"Ġusapho":6170,"sebenzela":6171,"jikelo":6172,"ĠIya":6173,"Ġndingu":6174,"qununu":6175,"sweni":6176,"uri":6177,"ism":6178,"mpo":6179,"Ġelincinci":6180,"Igama":6181,"Ġbubu":6182,"gameni":6183,"Ġumbono":6184,"llion":6185,"Ġimbali":6186,"yatyambo":6187,"reat":6188,"faki":6189,"Ġezazi":6190,"Ġisebenzisa":6191,"lahla":6192,"xhapha":6193,"ĠPay":6194,"ura":6195,"ĠYena":6196,"Ġengum":6197,"thembisa":6198,"Ġumculo":6199,"Ġelishumi":6200,"yeki":6201,"ĠyeC":6202,"khethwa":6203,"ĠCup":6204,"Ġliza":6205,"Ġlomntu":6206,"hluke":6207,"engubo":6208,"eza":6209,"pon":6210,"Ġinqaku":6211,"tifi":6212,"Ġukucinga":6213,"Ġnalapho":6214,"Ġngasentla":6215,"Ġlona":6216,"kwanda":6217,"ONA":6218,"mbhalo":6219,"English":6220,"anish":6221,"zekile":6222,"Ġintetho":6223,"Ġzent":6224,"Ġnolwazi":6225,"ĠNgom":6226,"Ġngenjongo":6227,"ĠbakaThixo":6228,"EKA":6229,"labo":6230,"Ġebi":6231,"phakan":6232,"Ġabafuna":6233,"Ġiinwele":6234,"Ġisixeko":6235,"Ġndicinga":6236,"Ġisiseko":6237,"ĠEkugqibeleni":6238,"Twitter":6239,"yunivesithi":6240,"2020":6241,"tshayina":6242,"phawula":6243,"ĠIsiChitonga":6244,"less":6245,"dola":6246,"ĠHD":6247,"estile":6248,"wend":6249,"Ġnxamnye":6250,"ĠIP":6251,"roma":6252,"qubu":6253,"Fil":6254,"Web":6255,"Ġsteroid":6256,"ĠEarth":6257,"ved":6258,"Ġ32":6259,"57":6260,"Njeng":6261,"kalisa":6262,"ĠPer":6263,"ĠNgamanye":6264,"Armenia":6265,"GO":6266,"ĠImali":6267,"Ġbafumana":6268,"ĠGen":6269,"anada":6270,"code":6271,"khule":6272,"Ġugqirha":6273,"sets":6274,"Ġina":6275,"tishi":6276,"Ġkumntu":6277,"Ġngokutsha":6278,"Ġnjengen":6279,"indawo":6280,"Ġkwigumbi":6281,"phazamiseka":6282,"Ġpha":6283,"Ġifuna":6284,"Ġlis":6285,"gubung":6286,"Ġumbingeleli":6287,"doloph":6288,"ĠProdu":6289,"gne":6290,"ens":6291,"Ġubona":6292,"ĠUhlobo":6293,"ĠIsiNa":6294,"Ġiindwendwe":6295,"cker":6296,"Ġukuli":6297,"Ġbobabini":6298,"esotho":6299,"lonyeni":6300,"ustralia":6301,"yamekela":6302,"zeki":6303,"hite":6304,"Ġiinyanga":6305,"bheli":6306,"ightener":6307,"ĠKorinte":6308,"sole":6309,"ĠHo":6310,"qambi":6311,"Ġemo":6312,"ĠDC":6313,"yinxalenye":6314,"Ġeyenziwa":6315,"Ziko":6316,"ĠState":6317,"Sebenza":6318,"cto":6319,"Ġkubangela":6320,"bonga":6321,"pain":6322,"gweba":6323,"mbhali":6324,"ĠKhangela":6325,"Bhe":6326,"QH":6327,"Ġembalwa":6328,"hlolo":6329,"yulo":6330,"thandekayo":6331,"Ġyinxalenye":6332,"Ġfal":6333,"ĠNgubani":6334,"Julayi":6335,"mana":6336,"tyeni":6337,"Ġngemali":6338,"yunithi":6339,"Ġamaxabiso":6340,"ines":6341,"tsundu":6342,"holide":6343,"bugcisa":6344,"rabhu":6345,"xibe":6346,"ordan":6347,"Ġnu":6348,"Ġkuhamba":6349,"Ġkoonyana":6350,"vutha":6351,"ĠGIS":6352,"vumelana":6353,"Ġselection":6354,"Romania":6355,"Ġbeng":6356,"ĠJuni":6357,"komkhulu":6358,"Ġujonge":6359,"Ġikhonkco":6360,"Ġsethu":6361,"Ġiintlanga":6362,"ĠUKUZE":6363,"innish":6364,"WO":6365,"ug":6366,"Ġsisa":6367,"ĠNet":6368,"mbho":6369,"Ġeziphathekayo":6370,"viwo":6371,"Ġuty":6372,"Ġsithi":6373,"Ġngeveki":6374,"Ġlokugqibela":6375,"Ġbendi":6376,"thunyelwe":6377,"Ven":6378,"kla":6379,"band":6380,"ĠMi":6381,"ongi":6382,"usani":6383,"aloku":6384,"ystems":6385,"Gra":6386,"Ġzilandelayo":6387,"Ġcap":6388,"Ġreal":6389,"Disemba":6390,"WIMI":6391,"Ġihamba":6392,"Ġlali":6393,"Ġentliziyweni":6394,"ĠâĨ":6395,"Ġilanga":6396,"Ġezayo":6397,"hlukahlukeneyo":6398,"Ġusuku":6399,"Ġekhuselekileyo":6400,"Ġelise":6401,"pping":6402,"Ġezintlanu":6403,"Ġukubonelela":6404,"ĠII":6405,"Ġndiba":6406,"Ref":6407,"fomathi":6408,"bli":6409,"Ġbakwa":6410,"benga":6411,"caca":6412,"qesho":6413,"Ġwomntu":6414,"mveli":6415,"undowns":6416,"kes":6417,"set":6418,"Ġop":6419,"ĠUkongeza":6420,"ĠkaYesu":6421,"Ġnokunga":6422,"Ġchi":6423,"John":6424,"Esiqhelekileyo":6425,"ĠPlus":6426,"mbeko":6427,"lindlela":6428,"phandaba":6429,"lalo":6430,"Ġling":6431,"Bentley":6432,"gal":6433,"Ġukuthengisa":6434,"phephandaba":6435,"Ġkwiziko":6436,"Ġyedwa":6437,"cetyiswa":6438,"ĠweN":6439,"Ġiilwimi":6440,"Eliya":6441,"siwe":6442,"sikelelo":6443,"yibhile":6444,"thamb":6445,"ĠleN":6446,"culi":6447,"pedia":6448,"khuselo":6449,"hlawulwa":6450,"Ixesha":6451,"Ġkwale":6452,"Ġwandi":6453,"Ġesiya":6454,"Ġ$.":6455,"Ġusu":6456,"simini":6457,"Ġobe":6458,"Ġolwa":6459,"Ġkunika":6460,"Ġnaliphi":6461,"Ġlomn":6462,"Ġesisi":6463,"Ġnomntu":6464,"rekhoda":6465,"Eyona":6466,"UMa":6467,"kre":6468,"ĠeK":6469,"Ġngeng":6470,"aniyeli":6471,"\");":6472,"Ġqha":6473,"Ġebonisa":6474,"Ġoli":6475,"zempilo":6476,"ĠNamhlanje":6477,"ulungile":6478,"ning":6479,"Ġkoo":6480,"atl":6481,"talk":6482,"Esenziwe":6483,"Ġkukwazi":6484,"phelela":6485,"Ġothi":6486,"enzekayo":6487,"rhulu":6488,"indow":6489,"phazamisa":6490,"');":6491,"Ġafana":6492,"tures":6493,"Ġemfutshane":6494,"stonia":6495,"lungelelanisa":6496,"lebe":6497,"ĠNokuba":6498,"backlin":6499,"Nyana":6500,"à¥":6501,"Ġipa":6502,"Ġyendalo":6503,"igeri":6504,"Ġkwendawo":6505,"Ġukuzama":6506,"Ġkwicandelo":6507,"Ġbest":6508,"hliso":6509,"Ġithemba":6510,"ĠIB":6511,"Ġngobun":6512,"ĠBonke":6513,"Ġluncedo":6514,"ĠFilip":6515,"And":6516,"On":6517,"dong":6518,"kube":6519,"Ġibandla":6520,"Ġumva":6521,"Ġlixesha":6522,"software":6523,"Ġisetyenziswe":6524,"kwaye":6525,"vulindlela":6526,"Ġkwinto":6527,"langano":6528,"usiness":6529,"melo":6530,"xela":6531,"Ġegameni":6532,"ties":6533,"propati":6534,"ulga":6535,"Ġfalse":6536,"glasi":6537,"im":6538,"ĠiMa":6539,"Ġer":6540,"Ġlezo":6541,"Ġezenziwe":6542,"forma":6543,"Ġcryptocurren":6544,"siphi":6545,"rop":6546,"Ġekuthiwa":6547,"Aron":6548,"ospatial":6549,"Ġyezigidi":6550,"ica":6551,"uzo":6552,"Ġino":6553,"Ġunxibelelwano":6554,"Ġiziganeko":6555,"vakala":6556,"67":6557,"Ġkuso":6558,"sixhenxe":6559,"Ġezizodwa":6560,"khilomitha":6561,"CJ":6562,"rine":6563,"Ġkuxhomekeke":6564,"Ġkuthelekiswa":6565,"Luntu":6566,"iseli":6567,"Ġezinxulumene":6568,"Ġzobun":6569,"Ġikhona":6570,"khokela":6571,"benza":6572,"Ġumthamo":6573,"vak":6574,"coiler":6575,"khanyisa":6576,"Ġkuyimfuneko":6577,"ĠIsiFrentshi":6578,"khwenkwe":6579,"ajax":6580,"Ġukulungiswa":6581,"tooltip":6582,"Ġmkhulu":6583,"Ġimpilo":6584,"tshabalalisa":6585,"({":6586,"dlw":6587,"ĠeBhayibhileni":6588,"deSocial":6589,"thuma":6590,"Ġnokusetyenziswa":6591,"Ġ},":6592,"Lat":6593,"dale":6594,"ded":6595,"ĠUmsebenzi":6596,"CL":6597,"Ġukusukela":6598,"Ġamazinyo":6599,"qinisekile":6600,"pionate":6601,"ĠYase":6602,"shicilela":6603,"gusha":6604,"sitho":6605,"huatl":6606,"ANA":6607,"chukumisa":6608,"Ġwayenga":6609,"memori":6610,"Ġiindidi":6611,"stra":6612,"Chiefs":6613,"ÅŁ":6614,"ML":6615,"UD":6616,"ksi":6617,"Ġinkcazelo":6618,"Ġwezi":6619,"ĠNGOL":6620,"vana":6621,"Ġms":6622,"ĠWena":6623,"kwane":6624,"eries":6625,"ĠPark":6626,"ĠULWIMI":6627,"Ġukhetha":6628,"rown":6629,"Ġzalo":6630,"qhwa":6631,"Lithu":6632,"Ġyeendaba":6633,"thamsanqa":6634,"SS":6635,"XES":6636,"Ġci":6637,"ĠGer":6638,"mbatho":6639,"fier":6640,"Ġelun":6641,"ĠSite":6642,"ĠISpanish":6643,"zwelonke":6644,"Ġiliso":6645,"ngcwa":6646,"Ġwezo":6647,"Ġ35":6648,"LED":6649,"philileyo":6650,"nceda":6651,"Ġve":6652,"Ġres":6653,"Ġathe":6654,"Ġmahala":6655,"Ġbel":6656,"Ġesenza":6657,"Ġebusweni":6658,"Ġyangaphandle":6659,"venia":6660,"Edlulileyo":6661,"Ġukuhlawula":6662,"Ġkwelanga":6663,"ĠAbo":6664,"Ġsezi":6665,"profeto":6666,"QL":6667,"Ġikwa":6668,"Ġibhe":6669,"Ġkufutshane":6670,"Ġkwamandla":6671,"ĠSI":6672,"Ġongum":6673,"chwephesha":6674,"Ġukusi":6675,"ĠyeSi":6676,"ĠAka":6677,"mnika":6678,"cwadana":6679,"uld":6680,"yingozi":6681,"velo":6682,"phen":6683,"Ġwabona":6684,"Ġumhlobo":6685,"Ġngokuchanekileyo":6686,"ĠNGOLUNYE":6687,"inda":6688,"undi":6689,"ĠIsiBhulu":6690,"text":6691,"tshatyalaliswa":6692,"AP":6693,"Ezinye":6694,"Ġkwenziwe":6695,"ĠAsi":6696,"Ġkolu":6697,"pedi":6698,"ĠyaseS":6699,"Ġumbane":6700,"xhon":6701,"wethu":6702,"Ġumxokozelo":6703,"Ġmy":6704,"ĠMakhe":6705,"assets":6706,"87":6707,"lm":6708,"vSIG":6709,"lola":6710,"etnam":6711,"Ġezantsi":6712,"bania":6713,"khutshwe":6714,"'.":6715,"led":6716,"yobisi":6717,"dali":6718,"Ġamapolisa":6719,"Ġkangange":6720,"khelo":6721,"cambu":6722,"ĠGo":6723,"mboleko":6724,"ĠWaza":6725,"ĠJonga":6726,"ĠIsiNahuatl":6727,"EO":6728,"ita":6729,"Ntengiso":6730,"Ġkwiveki":6731,"rogen":6732,"nikela":6733,"gic":6734,"zelayo":6735,"OB":6736,"kukhu":6737,"bert":6738,"Ġmadoda":6739,"Inkcazo":6740,"Sebenzisa":6741,"yala":6742,"khwele":6743,"Ġinkululeko":6744,"hlolwa":6745,"Super":6746,"tile":6747,"Ġimodeli":6748,"Ġakwazi":6749,"banceda":6750,"Ġumlilo":6751,"Ġsikwazi":6752,"gwebi":6753,"hhala":6754,"hormone":6755,"Ġezidlulileyo":6756,"Ġezisixhenxe":6757,"Ġwahlala":6758,"rain":6759,"inal":6760,"Ġisicwangciso":6761,"ĠNgako":6762,"dlebe":6763,"liseki":6764,"isco":6765,"lungiso":6766,"website":6767,"HE":6768,"Red":6769,"prin":6770,"Ġufake":6771,"Ġlabantu":6772,"ĠVer":6773,"ĠIint":6774,"ĠRus":6775,"undleni":6776,"Ġathile":6777,"kam":6778,"shintshela":6779,"thung":6780,"Ġisifo":6781,"entlanga":6782,"semgangathweni":6783,"FA":6784,"Ġmb":6785,"khundleni":6786,"ride":6787,"mbabwe":6788,"Ġisin":6789,"zamahala":6790,"ĠPost":6791,"ĠIsiAl":6792,"Ġiinketho":6793,"yanisekileyo":6794,"Kule":6795,"eremiya":6796,"erator":6797,"Cyrillic":6798,"Ubun":6799,"ute":6800,"Ġkufika":6801,"ĠUna":6802,"Ġkwase":6803,"Ġsizathu":6804,"ĠEN":6805,"ĠTha":6806,"ĠFe":6807,"85":6808,"yiso":6809,"Ä°":6810,"kholeji":6811,"ĠUA":6812,"vimba":6813,"Ġngenene":6814,"Ġnenkqubo":6815,"Ġbenu":6816,"Ġilifa":6817,"Zibhalo":6818,"Lithuania":6819,"XESHA":6820,"RO":6821,"Ã£":6822,"thanga":6823,"Ġeliphantsi":6824,"ĠDlala":6825,"Ġndo":6826,"Ġkwana":6827,"Ġyeli":6828,"tyha":6829,"âĢĿ.":6830,"merce":6831,"Ġkungekudala":6832,"zenzo":6833,"ĠImveliso":6834,"xhatsha":6835,"isetyenziselwa":6836,"Novemba":6837,"bhengezo":6838,"Agasti":6839,"Bet":6840,"visi":6841,"Â®":6842,"Ñĩ":6843,"Ġch":6844,"ĠSte":6845,"Ġngegama":6846,"carbon":6847,"ate":6848,"sile":6849,"kara":6850,"Ġshe":6851,"Ġnaphi":6852,"cebisi":6853,"enzuzo":6854,"kiswe":6855,"Ġukho":6856,"ĠeL":6857,"Ġyezona":6858,"vumba":6859,"Ġisakhiwo":6860,"ĠEnkosi":6861,"Bon":6862,"kamva":6863,"khathaliseki":6864,"ĠâĨĴ":6865,"mkele":6866,"bet":6867,"Ġlw":6868,"move":6869,"qinisekiswa":6870,"Ġimpumelelo":6871,"mangalisa":6872,"94":6873,"orea":6874,"day":6875,"Ġyobun":6876,"Ġyolawulo":6877,"Ġyomntu":6878,"fih":6879,"Into":6880,"cul":6881,"cango":6882,"Ġ\\":6883,"Ġny":6884,"Ġefunekayo":6885,"Ġkuli":6886,"ĠIsiArmenia":6887,"xoxa":6888,"kwenyani":6889,"Ġewe":6890,"virus":6891,"ĠIsiCroatia":6892,"ĠIsiPolish":6893,"ĠIsiHungary":6894,"?âĢĻ":6895,"GB":6896,"Ġukukhetha":6897,"ĠKum":6898,"landelelana":6899,"ĠJi":6900,"ĠIsiFinnish":6901,"dipozithi":6902,"ĠUze":6903,"Ġnoba":6904,"Ġseen":6905,"ĠIsiNorway":6906,"ĠIsiRomania":6907,"Ġmaba":6908,"sindisa":6909,"ĠIsiSlovenia":6910,"Phezulu":6911,"Kan":6912,"Ġkwanga":6913,"Ġbasi":6914,"ĠIsiJamani":6915,"ĠIsiDatshi":6916,"Ġabaye":6917,"Ġnomsebenzi":6918,"listat":6919,"ĠIsiKorea":6920,"now":6921,"Ġezintandathu":6922,"ĠIsiGrike":6923,"Ġcar":6924,"qeqesh":6925,"ĠIsiAlbania":6926,"Sha":6927,"gor":6928,"dies":6929,"ĠUkwenza":6930,"thath":6931,"phahla":6932,"dor":6933,"Ġeminyaka":6934,"Ġneendawo":6935,"UYehova":6936,"Ġween":6937,"qeshi":6938,"ĠIsiSwedish":6939,"IBC":6940,"ĠIsiDanish":6941,"ĠIsitshayina":6942,"berg":6943,"mus":6944,"luka":6945,"Ġsixhobo":6946,"ĠLine":6947,"hlwempu":6948,"Ġuxinzelelo":6949,"ĠUkongezelela":6950,"Ġyesa":6951,"mboli":6952,"dibanise":6953,"ĠDesign":6954,"Webhu":6955,"Sta":6956,"mbin":6957,"ĠApp":6958,"Ġngento":6959,"ĠIncoko":6960,"Ġ2010":6961,"ĠTravel":6962,"ĠIsiSlovak":6963,"festile":6964,"Ġokwangoku":6965,"Ġabakhonzi":6966,"pholileyo":6967,"Mat":6968,"Ġeyaziwa":6969,"UMX":6970,"Ġnesa":6971,"phumeza":6972,"ĠIsiUkrainian":6973,"mifanekiso":6974,"Ġzenziwe":6975,"ĠWorld":6976,"xila":6977,"ĠIsiSerbia":6978,"masipala":6979,"Ġlingu":6980,"Ġesiyi":6981,"ĠHol":6982,"very":6983,"lungelelan":6984,"ltra":6985,"Ġiko":6986,"Ġkuluhlu":6987,"ĠIsiRashiya":6988,"Ġnokuzi":6989,"ĠIsiCzech":6990,"ĠINguqulelo":6991,"Ġakunjalo":6992,"ĠIsiEstonia":6993,"Ġukongeza":6994,"Ġow":6995,"You":6996,"Ġuluvo":6997,"ĠSystem":6998,"boneleli":6999,"52":7000,"Ci":7001,"kula":7002,"Ġelifutshane":7003,"rwanda":7004,"angi":7005,"aly":7006,"Vietnam":7007,"ydra":7008,"rhox":7009,"ĠuPetros":7010,"umela":7011,"Ġolutsha":7012,"inyarwanda":7013,"Ġkusasa":7014,"thili":7015,"Ġkomsebenzi":7016,"ebu":7017,"Ġkukunika":7018,"cas":7019,"Ġnokwa":7020,"ĠWam":7021,"thetheli":7022,"HL":7023,"alth":7024,"ELEK":7025,"dilesi":7026,"Har":7027,"Holo":7028,"Ġeyin":7029,"Ġukulungiselela":7030,"sed":7031,"ĠIsiLithuania":7032,"ĠGames":7033,"ĠNovemba":7034,"ĠeNew":7035,"Ġuhamba":7036,"phawule":7037,"Ġyokuhamba":7038,"ĠOktobha":7039,"Ġngokwakhe":7040,"GPS":7041,"tela":7042,"eno":7043,"lama":7044,"ĠkoM":7045,"Ġzakwa":7046,"ĠeMpuma":7047,"Khangela":7048,"Ã£o":7049,"Ġuqhagamsh":7050,"ĠIsixhobo":7051,"Ġzenza":7052,"antwana":7053,"ENZI":7054,"roup":7055,"Ingaba":7056,"ĠIsiGeorgia":7057,"2011":7058,"kundleni":7059,"qinisa":7060,"isebenzayo":7061,"bheka":7062,"Ġtrans":7063,"Ġsibone":7064,"Ġzeng":7065,"sinda":7066,"Ġ2011":7067,"lumkiso":7068,"OD":7069,"vuyela":7070,"Ġisantya":7071,"Ġneenkonzo":7072,"Ġuzaku":7073,"ABA":7074,"Ġzonyango":7075,"')":7076,"hotele":7077,"ĠloM":7078,"Ġlezi":7079,"Ġizakhiwo":7080,"Ġemnyama":7081,"aka":7082,"Ġziyi":7083,"Ġyokusebenzisa":7084,"Ġliye":7085,"Ġlwabantu":7086,"iliga":7087,"bhekisela":7088,"ex":7089,"Ġngokung":7090,"sayo":7091,"ciki":7092,"khawulezayo":7093,"Andi":7094,"ĠIsiTurkish":7095,"02":7096,"Wal":7097,"Ġjonga":7098,"phesheya":7099,"thileyo":7100,"oll":7101,"Ġkwindlu":7102,"ĠVal":7103,"yinge":7104,"Ġyangaphambili":7105,"Ġekhatywayo":7106,"Ġkuhlangana":7107,"Ġnjengento":7108,"gement":7109,"Ġidilesi":7110,"Ġezifanayo":7111,"ĠIsiGa":7112,"fumani":7113,"Yosefu":7114,"WordPress":7115,"diweyo":7116,"Ġesitsha":7117,"Ġyim":7118,"qinisekisi":7119,"Ġsuccess":7120,"hlasela":7121,"Ġuhl":7122,"Fo":7123,"Ze":7124,"eneni":7125,"Ġkufa":7126,"ĠMana":7127,"lungiselele":7128,"Ġnangakumbi":7129,"sesiCyrillic":7130,"khiqizo":7131,"rhumo":7132,"ĠIsiKinyarwanda":7133,"ĠTown":7134,"lili":7135,"Ġwabhala":7136,"ĠAM":7137,"Ġngokwenza":7138,"Ġser":7139,"godu":7140,"INI":7141,"Ġuthethe":7142,"longweni":7143,"gasy":7144,"Ġkuqhubeka":7145,"Ġmabini":7146,"Ġneemfuno":7147,"thembeka":7148,"dityaniswa":7149,"Tube":7150,"aluminium":7151,"buko":7152,"Ġkwemali":7153,"sungu":7154,"Ġikhe":7155,"mala":7156,"Ġmar":7157,"Ġkummandla":7158,"guquli":7159,"Ġesekelwe":7160,"Ġngokugqithiseleyo":7161,"Ġuhlanga":7162,"Ġout":7163,"Ġngoo":7164,"bungozi":7165,"SP":7166,"ball":7167,"rey":7168,"Ġyokunga":7169,"manyathelo":7170,"Ġamancinci":7171,"ĠCoin":7172,"Ġizinga":7173,"fezekisa":7174,"Ġkungena":7175,"ĠJack":7176,"Zonke":7177,"Ġpho":7178,"Ġutata":7179,"ĠiSi":7180,"sila":7181,"Ġukuku":7182,"ĠKus":7183,"ĠUkususela":7184,"Ġndize":7185,"Ġifom":7186,"IG":7187,"yel":7188,"yoni":7189,"chonga":7190,"ĠInc":7191,"ololiwe":7192,"yenze":7193,"Ġkwelo":7194,"ering":7195,"ĠIsiJapan":7196,"hlisa":7197,"Ġoluthile":7198,"setyenziswe":7199,"ĠuSathana":7200,"cument":7201,"04":7202,"anabolic":7203,"row":7204,"ĠVe":7205,"Ġwayeza":7206,"ap":7207,"mthanda":7208,"lege":7209,"ĠoM":7210,"Ġisipho":7211,"ĠBathi":7212,"Cawa":7213,"saseRoman":7214,"Ġkwangoko":7215,"Ġibonakala":7216,"lutsha":7217,"Ġnem":7218,"chithwa":7219,"gqibelo":7220,"03":7221,"Ġvan":7222,"Ġimibala":7223,"mbulelo":7224,"Ngil":7225,"Ġnamadoda":7226,"Ġreturn":7227,"dwebo":7228,"lub":7229,"Ġspe":7230,"Ġeziku":7231,"Ġena":7232,"umidi":7233,"ĠMedia":7234,"sions":7235,"Type":7236,"Rhulumente":7237,"Ġyokwakha":7238,"bhasi":7239,"zuze":7240,"Ġezenza":7241,"cular":7242,"Ø§":7243,"Ġimiba":7244,"mvavanyo":7245,"Ġndaba":7246,"51":7247,"Uluhlu":7248,"Ġngowe":7249,"Ġnokwenza":7250,"Indiya":7251,"Ġakuthethi":7252,"ady":7253,"logy":7254,"DLELA":7255,"BON":7256,"ULE":7257,"yli":7258,"zine":7259,"ĠSh":7260,"angempela":7261,"qongileyo":7262,"solezwe":7263,"erry":7264,"shini":7265,"Zimbabwe":7266,"Ġwathetha":7267,"ĠNceda":7268,"takwabo":7269,"linganayo":7270,"kuthanda":7271,"Ġwakha":7272,"END":7273,"faniyo":7274,"KW":7275,"Uthi":7276,"erse":7277,"mil":7278,"Ġyenze":7279,"plastiki":7280,"ĠiPa":7281,"ĠNkosi":7282,"ĠIsiZulu":7283,"Ġtheir":7284,"Ser":7285,"Ġusebenza":7286,"Ġamayeza":7287,"fikile":7288,"Ġngokom":7289,"ĠIsiTagalog":7290,"92":7291,"Ju":7292,"lonwabo":7293,"ĠiPhone":7294,"Ġkufuphi":7295,"dlalwa":7296,"Meyi":7297,"Fransi":7298,"Ġukungcakaza":7299,"chel":7300,"dumo":7301,"qulethe":7302,"84":7303,"anzi":7304,"Ġnkampani":7305,"Ġigunya":7306,"ĠInga":7307,"ĠIminyaka":7308,"ĠyeM":7309,"Ġyokwa":7310,"ĠThixo":7311,"ney":7312,"fanelekanga":7313,"xhum":7314,"Ġri":7315,"Ġhlabathi":7316,"Ġenamandla":7317,"rona":7318,"Ġkweng":7319,"ĠKwin":7320,"pilisi":7321,"53":7322,"melana":7323,"onto":7324,"Ġkuvela":7325,"Ġahlukeneyo":7326,"simahla":7327,"qalo":7328,"xolela":7329,"khuphisana":7330,"Ġemanzini":7331,"?+":7332,"Ig":7333,"hydro":7334,"Ġelipheleleyo":7335,"ĠGoogle":7336,"xhamla":7337,"REE":7338,"ĠBitcoin":7339,"ĠiA":7340,"lots":7341,"Ġukuthumela":7342,"tshixo":7343,"Ġezibonakalayo":7344,"ĠEzamahala":7345,"ĠnguYehova":7346,"Ġjoin":7347,"Ġcapture":7348,"pg":7349,"à¸":7350,"Ġibonakale":7351,"zakhiwo":7352,"bulo":7353,"Ġlwanga":7354,"Ġelidlulileyo":7355,"Ġnabahlobo":7356,"150":7357,"tsapp":7358,"oker":7359,"lindela":7360,"phunyezwa":7361,"wathi":7362,"ĠiK":7363,"php":7364,"ĠSiza":7365,"Ġngomnye":7366,"dingo":7367,"shwa":7368,"Ġnomn":7369,"IR":7370,"sabela":7371,"rity":7372,"ĠnoA":7373,"Khaya":7374,"QINISEK":7375,"sizi":7376,"voca":7377,"ĠNgexesha":7378,"Khanya":7379,"Ġ?":7380,"thatya":7381,"Ġabahlali":7382,"wenxa":7383,"ĠleB":7384,"bonayo":7385,"Ġokunene":7386,"ĠIsiMalagasy":7387,"hana":7388,"Ġukuyenza":7389,"Ġzentlalo":7390,"IA":7391,"Lwazi":7392,"Ġkuluntu":7393,"lip":7394,"Ġoba":7395,"cade":7396,"bonile":7397,"teri":7398,"Ġiingcebiso":7399,"Raw":7400,"thelekisa":7401,"qulatho":7402,"Ġawo":7403,"ĠKing":7404,"Ġeyahlukeneyo":7405,"qeshwa":7406,"ford":7407,"Ġufanele":7408,"Ġnoonyana":7409,"bit":7410,"fuyo":7411,"Ġiyafumaneka":7412,"mane":7413,"elula":7414,"ĠUluhlu":7415,"lwela":7416,"talente":7417,"clo":7418,"Ġbazo":7419,"Ġyamanzi":7420,"debele":7421,"vulo":7422,"Ġkwiiveki":7423,"ASraw":7424,"lowo":7425,"Ġkwimveliso":7426,"Ġyolwazi":7427,"ĠKaloku":7428,"Ġisifundo":7429,"Mala":7430,"Ngaphandle":7431,"ĠIsiTswana":7432,"MB":7433,"elson":7434,"Ġlento":7435,"Ġmhla":7436,"tshon":7437,"pace":7438,"Kufuneka":7439,"ĠIsiSerbian":7440,"Cwangc":7441,"tini":7442,"Ġ!":7443,"Ġinkosi":7444,"Ġinombolo":7445,"tein":7446,"Ġisixa":7447,"Sawule":7448,"status":7449,"qhekeza":7450,"Ġacid":7451,"ĠISe":7452,"rio":7453,"Ġimithombo":7454,"fundise":7455,"lisela":7456,"Ġ60":7457,"Ġkunene":7458,"Ġyexesha":7459,"ĠyeBhayibhile":7460,"ĠAng":7461,"Ġyan":7462,"Ġmnye":7463,"lando":7464,"bangele":7465,"Ġdie":7466,"khululekileyo":7467,"Ġerror":7468,"lobal":7469,"ĠUkukhanya":7470,"Ġungene":7471,"ĠuNo":7472,"Ġawukwazi":7473,"mkhulu":7474,"ĠXhosa":7475,"Ġap":7476,"Ġmzi":7477,"Ġzaku":7478,"par":7479,"tshintshi":7480,"feren":7481,"layisha":7482,"400":7483,"Ġ..":7484,"Ġuhlale":7485,"gadi":7486,"Ġneqela":7487,"tuthu":7488,"Ġenhle":7489,"Ġamashishini":7490,"Ġubukumkani":7491,"nxaxheba":7492,"Ġnk":7493,"Ġukhangele":7494,"Ġinyathelo":7495,"andlela":7496,"Ġwambi":7497,"mibala":7498,"ĠâĢĭ":7499,"ĠWin":7500,"ULO":7501,"Ġumthengi":7502,"Ġyokudlala":7503,"Ġsee":7504,"Hayi":7505,"ÑģÑĤ":7506,"papashwe":7507,"Musa":7508,"auto":7509,"rive":7510,"Ġwho":7511,"Ġlokun":7512,"Ġintombazana":7513,"qwelomoya":7514,"Candelo":7515,"ffe":7516,"kin":7517,"Ġekho":7518,"ĠSeries":7519,"Ġmba":7520,"ONKE":7521,"PSL":7522,"Ġengamashumi":7523,"ging":7524,"kri":7525,"Ġkwathiwa":7526,"angu":7527,"qamle":7528,"prili":7529,"Iileta":7530,"del":7531,"Ã¤":7532,"lect":7533,"Ġyokukhangela":7534,"gudu":7535,"Ġbang":7536,"ĠIsiThai":7537,"malt":7538,"isani":7539,"isipha":7540,"ĠEnyanisweni":7541,"chewa":7542,"ĠâĢĭâĢĭ":7543,"Fort":7544,"longo":7545,"Ġnyanga":7546,"enkcukacha":7547,"Ġintsapho":7548,"beth":7549,"Ġsha":7550,"qokel":7551,"als":7552,"lelweyo":7553,"Ġbawo":7554,"angqa":7555,"ĠSMS":7556,"Ġwork":7557,"Ġingcamango":7558,"cross":7559,"Ġkubaluleke":7560,"tifikethi":7561,"54":7562,"Ġqela":7563,"ĠUkwa":7564,"Ġngabanye":7565,"buyiselwa":7566,"Por":7567,"Ukwa":7568,"theli":7569,"Ġima":7570,"Ġava":7571,"ĠIqela":7572,"Ġumlomo":7573,"Ġneenkqubo":7574,"Ġumnxeba":7575,"Ġdes":7576,"ÑģÐº":7577,"ĠStreet":7578,"bongela":7579,"xhatshazwa":7580,"ĠISepedi":7581,"XL":7582,"julu":7583,"rel":7584,"error":7585,"Ġngamanzi":7586,"ĠOkokuqala":7587,"kampu":7588,"Ġngokwemi":7589,"yekezo":7590,"Broadcast":7591,"muni":7592,"ululwazi":7593,"benzisa":7594,"Ġumthengisi":7595,"ĠAgasti":7596,"Ġthey":7597,"ANYE":7598,"ĠIsiKa":7599,"tform":7600,"elishwa":7601,"ĠuKristu":7602,"Ġukuphumelela":7603,"rij":7604,"ĠEL":7605,"Ġ150":7606,"2010":7607,"fik":7608,"Ġkhange":7609,"Ġwesithathu":7610,"Tshayina":7611,"Uhlobo":7612,"ganda":7613,"inceda":7614,"thy":7615,"Ġiqa":7616,"ĠeC":7617,"Ġumzalwana":7618,"paka":7619,"pakisha":7620,"Ġngukumkani":7621,"khulayo":7622,"Brazil":7623,"ìĸ":7624,"Ġkulindeleke":7625,"yithanda":7626,"ern":7627,"ĠUthe":7628,"Ġnakuba":7629,"fundwa":7630,"ĠIzixhobo":7631,"Testosterone":7632,"inisekisa":7633,"Filisti":7634,"ĠeYiputa":7635,"hatsapp":7636,"Ġazin":7637,"lom":7638,"Ġukuwa":7639,"Ġukuhambisa":7640,"xam":7641,"Ġabafana":7642,"ĠUkusuka":7643,"Ġizizathu":7644,"ĠCape":7645,"Ġasixhenxe":7646,"hlanganiswa":7647,"stitute":7648,"Nor":7649,"Ġekwen":7650,"holo":7651,"Ġintle":7652,"guna":7653,"wani":7654,"lun":7655,"ĠUqeqesha":7656,"fumba":7657,"fuz":7658,"peri":7659,"Iindaba":7660,"ĠHack":7661,"funeki":7662,"ffice":7663,"Fili":7664,"Ġugcine":7665,"thisa":7666,"ĠyeS":7667,"ĠSchool":7668,"click":7669,"inde":7670,"onyama":7671,"Ġehambelana":7672,"Ġumkhosi":7673,"Ġumlinganiselo":7674,"ĠamaYuda":7675,"natha":7676,"ining":7677,"luhlaza":7678,"Ġesizi":7679,"Ġesise":7680,"Ġngokubhekiselele":7681,"lweyo":7682,"rama":7683,"Ġiimpendulo":7684,"tatto":7685,"Ġabemi":7686,"limo":7687,"Ġwafumana":7688,"uluka":7689,"Ġmpa":7690,"Ġamatyala":7691,"ĠÂ°":7692,"Ġngokwayo":7693,"Ġongu":7694,"Ġkuko":7695,"makhulu":7696,"Ġswal":7697,"tage":7698,"Ġelilandelayo":7699,"cakazo":7700,"FUND":7701,"ĠIsiChichewa":7702,"Book":7703,"yintoni":7704,"mbande":7705,"tolongweni":7706,"ĠAyi":7707,"Ġiividiyo":7708,"Ġche":7709,"ology":7710,"voti":7711,"Ġwesibini":7712,"ìĸ´":7713,"ghi":7714,"Ġndlu":7715,"ĠkwiSi":7716,"Ġeziphilayo":7717,"wanka":7718,"rhente":7719,"ikazi":7720,"ondweni":7721,"ĠuKumkani":7722,"rma":7723,"sina":7724,"Ð²":7725,"Ġikha":7726,"sileyo":7727,"Ġkuno":7728,"Ġeziphakamileyo":7729,"Ġngolwazi":7730,"ĠBan":7731,"modal":7732,"phozithi":7733,"ondele":7734,"Ġoluninzi":7735,"ngenisa":7736,"tto":7737,"ĠiR":7738,"umntu":7739,"Ġkwimarike":7740,"Ġngemini":7741,"Ġhis":7742,"ĠIsiTsonga":7743,"UThixo":7744,"ide":7745,"dap":7746,"Ġamaphepha":7747,"kiweyo":7748,"ĠâĢĿ":7749,"Ġizihlandlo":7750,"Ġimiyalezo":7751,"Ġkwiintsuku":7752,"joyina":7753,"68":7754,"93":7755,"Gqi":7756,"Ġukhe":7757,"Ġiphela":7758,"Ġkuthe":7759,"Ġumsindo":7760,"Par":7761,"tweni":7762,"Ġzokuhlala":7763,"Ġ2009":7764,"Ġongena":7765,"nikezela":7766,"Umn":7767,"Ġudade":7768,"Ġziba":7769,"Ġkwinyanga":7770,"Ġamanqanaba":7771,"Ġpost":7772,"bhiloni":7773,"gis":7774,"vile":7775,"Ġsebenzisa":7776,"Ġothe":7777,"ĠSha":7778,"Ġelifanayo":7779,"bhale":7780,"Ġesiza":7781,"Ġesele":7782,"qhum":7783,"Ngubani":7784,"json":7785,"Ġesihle":7786,"Ġezona":7787,"ebuano":7788,"Tsha":7789,"mha":7790,"Ġnde":7791,"sibhozo":7792,"ĠKw":7793,"quma":7794,"Ġisivumelwano":7795,"ĠWel":7796,"Ġkukumkani":7797,"ĠNdiza":7798,"hlanganisa":7799,"onwabe":7800,"ÐµÐ½":7801,"!',":7802,"Aku":7803,"inhala":7804,"bawo":7805,"ĠMandela":7806,"Ġabanoku":7807,"Ġoff":7808,"kwand":7809,"Ġhg":7810,"bhiyozela":7811,"umidifier":7812,"\"#":7813,"Vu":7814,"wama":7815,"Ġumphathi":7816,"redeSocial":7817,"remove":7818,"tshuma":7819,"ĠdataType":7820,"Ġenoba":7821,"Ġ$(\"#":7822,"tooltipGeneral":7823,"statusText":7824,"ETH":7825,"kezela":7826,"Ġsenza":7827,"ĠKA":7828,"boniselo":7829,"ĠNgelo":7830,"khulelwa":7831,"Ġbhe":7832,"ĠSebenzisa":7833,"ĠNdandi":7834,"ynon":7835,"thend":7836,"mikhali":7837,"Ġenama":7838,"tyela":7839,"Ġamakhadi":7840,"meme":7841,"waneni":7842,"ĠWay":7843,"isetyenziswe":7844,"ĠPhone":7845,"banjwe":7846,"igeria":7847,"Iloko":7848,"ople":7849,"Ġuhambe":7850,"Ġuloliwe":7851,"Ġibalulekileyo":7852,"Ġimephu":7853,"Ġumonakalo":7854,"angweni":7855,"valwa":7856,"Ġwww":7857,"vulwa":7858,"Ġungayi":7859,"ĠIsiCa":7860,"cwane":7861,"kuqaleni":7862,"ents":7863,"Ġkuhle":7864,"ĠUbomi":7865,"Ġline":7866,"ĠShow":7867,"Ġloluntu":7868,"mbia":7869,"ĠEzin":7870,"Ġpar":7871,"Pix":7872,"qumrhu":7873,"ridge":7874,"Ġiingubo":7875,"Ġisebenze":7876,"Ġkungen":7877,"Ġezinjalo":7878,"Ġ33":7879,"Ġ34":7880,"Ġ37":7881,"khuthazwa":7882,"ĠFacebook":7883,"dlobongela":7884,"Ġinikezela":7885,"aa":7886,"pula":7887,"sse":7888,"Ġivela":7889,"Ġukuqhuba":7890,"mier":7891,"Ġyenzelwe":7892,"entlobo":7893,"xweme":7894,"xabisekileyo":7895,"rijland":7896,"IMizekeliso":7897,"hani":7898,"enzela":7899,"Iqela":7900,"Mna":7901,"She":7902,"moni":7903,"Ġkwenzeke":7904,"fudum":7905,"Ġzophando":7906,"url":7907,"Ġpi":7908,"hanye":7909,"ĠYohane":7910,"Ġnjengama":7911,"iligaynon":7912,"ghiz":7913,"Efe":7914,"Ġukuhlangabezana":7915,"light":7916,"Ġingozi":7917,"ĠWil":7918,"hlukile":7919,"Ġubuhle":7920,"bhobho":7921,"ĠÐ¿":7922,"ĠGeo":7923,"tore":7924,"ĠyeD":7925,"lwaphulo":7926,"Ġsamandla":7927,"Ġbane":7928,"ĠLowo":7929,"ĠDiffuser":7930,"Qa":7931,"Ġkona":7932,"gar":7933,"ĠIsiGu":7934,"ĠKubalulekile":7935,"urs":7936,"bhanya":7937,"ĠIsiHiligaynon":7938,"ĠIsiKirghiz":7939,"Yor":7940,"ĠAB":7941,"ĠPat":7942,"Ġkumgangatho":7943,"dwel":7944,"leta":7945,"yibili":7946,"phiko":7947,"shisa":7948,"Ġbudlelwane":7949,"puter":7950,"ĠIsiArabhu":7951,"Ġzizinto":7952,"Ġemlonyeni":7953,"bhedu":7954,"ĠÐ²":7955,"phindaphin":7956,"xeshanye":7957,"layi":7958,"Ġkutya":7959,"khweli":7960,"ertifi":7961,"ĠMy":7962,"ĠPC":7963,"pal":7964,"ars":7965,"Ġneengxaki":7966,"Thupha":7967,"odolo":7968,"Ġkuthethwa":7969,"thula":7970,"ĠChe":7971,"kwaziyo":7972,"lori":7973,"ĠYou":7974,"ĠDu":7975,"engahl":7976,"Bhabhiloni":7977,"Ve":7978,"ĠAmandla":7979,"thuka":7980,"ĠOr":7981,"vusa":7982,"Ġeyaziwayo":7983,"MC":7984,"Olu":7985,"ep":7986,"Ġkweso":7987,"usto":7988,"kipedia":7989,"sisindo":7990,"Ġobunga":7991,"hlalutya":7992,"lenda":7993,"dolophini":7994,"Ana":7995,"Ixabiso":7996,"Kuya":7997,"Ġkomzimba":7998,"Ziziphi":7999,"ĠuNyana":8000,"ĠAnaly":8001,"Ġuphumelele":8002,"phantse":8003,"ĠyeHlabathi":8004,"Ġyokuziphatha":8005,"IBhayibhile":8006,"Ã³":8007,"yadi":8008,"uno":8009,"Ġbawa":8010,"ĠNgen":8011,"Ġnomnye":8012,"Ġzing":8013,"ĠIsiCebuano":8014,"Ġophelileyo":8015,"Ġshi":8016,"ĠIsiSinhala":8017,"2009":8018,"Carbon":8019,"Yoruba":8020,"Oktobha":8021,"xele":8022,"ĠCard":8023,"ĠTes":8024,"khuselwa":8025,"Ġnize":8026,"place":8027,"ulgarian":8028,"Istanbul":8029,"sendle":8030,"xil":8031,"ĠISi":8032,"kheji":8033,"vuyisa":8034,"Ġlunga":8035,"Ġayiyi":8036,"pilo":8037,"semhlabeni":8038,"ĠeMonti":8039,"sco":8040,"Ġkusini":8041,"zekileyo":8042,"Ġyobomi":8043,"thuli":8044,"mpil":8045,"Omnye":8046,"Ġukudla":8047,"Ġkwishishini":8048,"Ġngam":8049,"Ġabamnyama":8050,"Ġkubasebenzisi":8051,"Ġukunyuka":8052,"Pirates":8053,"mharic":8054,"oki":8055,"zation":8056,"Ġoying":8057,"ĠIsiVietnam":8058,"Ġngokusemthethweni":8059,"Ġisonka":8060,"lona":8061,"Ġì":8062,"Ġicandelo":8063,"Ġkwane":8064,"velise":8065,"VID":8066,"rn":8067,"ĠiG":8068,"ĠIsiG":8069,"Ġemhlophe":8070,"Ġblog":8071,"Ġisono":8072,"Ġndis":8073,"Ġsiyazi":8074,"qaqambileyo":8075,"61":8076,"64":8077,"Ġesebenza":8078,"Ġwaqala":8079,"bhaso":8080,"ĠInkcazo":8081,"Mali":8082,"ĠIsiKika":8083,"Ġkwengqondo":8084,"ĠNantsi":8085,"hlawule":8086,"kuthi":8087,"zeke":8088,"ĠUp":8089,"Ġwent":8090,"xekile":8091,"ĠVrijland":8092,"Amadoda":8093,"tyholo":8094,"Ġnoodade":8095,"Ġolwen":8096,"Geofumadas":8097,"gunaphakade":8098,"Ġukubhala":8099,"box":8100,"Ġyenziwa":8101,"bhite":8102,"ĠKunoko":8103,"ĠKWI":8104,"bhaptizwa":8105,"Mp":8106,"WS":8107,"Ġnemisebenzi":8108,"tyum":8109,"Ġiipa":8110,"Ġiibhedi":8111,"pam":8112,"ĠCash":8113,"Izixhobo":8114,"seleko":8115,"khumbuza":8116,"celi":8117,"Ġonge":8118,"aneni":8119,"waphi":8120,"dit":8121,"Ġyaza":8122,"ĠSystems":8123,"Ntshona":8124,"Win":8125,"cisa":8126,"ĠWindows":8127,"Umsebenzi":8128,"phelelwa":8129,"tyiki":8130,"ontrol":8131,"Ġuqaphele":8132,"-$":8133,"Ngcwele":8134,"Ġecacileyo":8135,"ĠKWE":8136,"qindi":8137,"Ġubulumko":8138,"ĠPowder":8139,"khalazo":8140,"PE":8141,"hona":8142,"kwana":8143,"ĠðŁ":8144,"Ġning":8145,"Ġnaban":8146,"timela":8147,"Ġzombane":8148,"guqukayo":8149,"Ġyomzimba":8150,"Ġgame":8151,"Phambi":8152,"tyholi":8153,"cen":8154,"risi":8155,"×Ļ":8156,"Ġiyin":8157,"ĠNjani":8158,"demon":8159,"lungise":8160,"ĠIsiEwe":8161,"Ġikakhulu":8162,"IK":8163,"app":8164,"dd":8165,"lower":8166,"ĠNgama":8167,"lawulelo":8168,"Ġzininzi":8169,"engalo":8170,"Casino":8171,"ĠIsiAmharic":8172,"Ġzobugcisa":8173,"ctory":8174,"rome":8175,"halo":8176,"Ġbabantu":8177,"ĠzeBhayibhile":8178,"ĠBar":8179,"Ġiimpazamo":8180,"Ġzokungcakaza":8181,"Ġesine":8182,"zinikela":8183,"ĠTechnology":8184,"Ġusenoku":8185,"Ġumyeni":8186,"Ġabangena":8187,"Ġbaninzi":8188,"1011":8189,"Ġcal":8190,"dume":8191,"dastre":8192,"dlanga":8193,"pl":8194,"roni":8195,"lingane":8196,"Ġper":8197,"lwanga":8198,"Ġzendalo":8199,"ĠStraightener":8200,"Ġehleli":8201,"ĠNdinga":8202,"Ġmin":8203,"termark":8204,"Ġubugcisa":8205,"qwalasele":8206,"Ntloko":8207,"Ġuthanda":8208,"Ġekhu":8209,"Ġnaxa":8210,"sal":8211,"ĠlweN":8212,"Ġomdala":8213,"gcali":8214,"gunyeni":8215,"Ġinikeza":8216,"wendwela":8217,"?\"":8218,"xx":8219,"isane":8220,"Ġiqonga":8221,"Ġezifunekayo":8222,"Ġunom":8223,"ĠJu":8224,"Unoku":8225,"PIV":8226,"mise":8227,"mvelaphi":8228,"siya":8229,"Ġnemali":8230,"Ġyoo":8231,"Ġumkhonzi":8232,"Ġngokusekelwe":8233,"Ġabaza":8234,"Ġengcwele":8235,"qikelela":8236,"Ġngomlomo":8237,"Ġkancinane":8238,"pera":8239,"chaneka":8240,"thern":8241,"Ġmnandi":8242,"452":8243,"Phaka":8244,"59":8245,"room":8246,"ĠMetro":8247,"ĠnoThixo":8248,"Ġkwimidlalo":8249,"plagi":8250,"ĠJohn":8251,"Share":8252,"UYesu":8253,"Ġoye":8254,"Ġamatsha":8255,"yulwa":8256,"hlangula":8257,"Ġwazala":8258,"vumelekanga":8259,"amuel":8260,"Yonke":8261,"ĠeA":8262,"tual":8263,"Ġsixeko":8264,"rith":8265,"Ġngexabiso":8266,"yanmar":8267,"rench":8268,"thintelo":8269,"leke":8270,"khelwe":8271,"unya":8272,"Ġinqanaba":8273,"khawu":8274,"Ġ120":8275,"Ġimfundo":8276,"Ġyomsebenzi":8277,"89":8278,"fisi":8279,"uthu":8280,"Ġgra":8281,"Ġukuguqula":8282,"ĠMan":8283,"Ġkwiinkqubo":8284,"Ġndiyazi":8285,"suswa":8286,"Ġelininzi":8287,"lisiweyo":8288,"kozo":8289,"tamo":8290,"Ġngokuchasene":8291,"Ġnolawulo":8292,"wit":8293,"bhaliso":8294,"Ġnomfazi":8295,"ENZ":8296,"KHUL":8297,"Ġuxanduva":8298,"Ġifumaneka":8299,"yosi":8300,"Ġyedijithali":8301,"ĠEyoM":8302,"bono":8303,"ĠWonke":8304,"enam":8305,"phumeleleyo":8306,"yanise":8307,"Ngcaciso":8308,"NG":8309,"qele":8310,"ring":8311,"è¯":8312,"Ġumnikelo":8313,"Ġendala":8314,"ĠkaMa":8315,"ĠSinga":8316,"round":8317,"phic":8318,"Ġlwezo":8319,"tshutsh":8320,"Uninzi":8321,"zula":8322,"tas":8323,"ĠIsiYoruba":8324,"Ġmthetho":8325,"ĠFREE":8326,"Ġomzimba":8327,"Ġkananjalo":8328,"Ġ2008":8329,"IPH":8330,"SEB":8331,"Ġbalo":8332,"Ġkomntu":8333,"lungiseleli":8334,"YI":8335,"ice":8336,"zz":8337,"Ġnonke":8338,"Ġumbutho":8339,"Ġolungileyo":8340,"bukela":8341,"hlambela":8342,"Ġngokufanayo":8343,"Ġlewebhu":8344,"Ġimithi":8345,"Ġubusuku":8346,"Ġkwenkqubo":8347,"thunzi":8348,"Khuseleko":8349,"Ġomabini":8350,"enisi":8351,"ones":8352,"Ġyabantwana":8353,"Ġumgaqo":8354,"angeni":8355,"Ġzephondo":8356,"Ġezincinane":8357,"Ġngokwabo":8358,"Ġubeke":8359,"Ġizisombululo":8360,"Ð¸Ð¹":8361,"Kw":8362,"kubhite":8363,"wood":8364,"ĠAP":8365,"Ġzokwenza":8366,"Ġnenkxaso":8367,"Ġiingxelo":8368,"phelile":8369,"tyiweyo":8370,"Chapter":8371,"dluliselwa":8372,"Qe":8373,"Tra":8374,"Ġuthatha":8375,"thera":8376,"yiko":8377,"androl":8378,"quba":8379,"ĠPetros":8380,"Ġizigidi":8381,"ĠTshintshela":8382,"Master":8383,"fefe":8384,"ENK":8385,"Ġkubandakanywa":8386,"mara":8387,"bethwa":8388,"Ġenzima":8389,"deka":8390,"Ġzemali":8391,"rick":8392,"Ġiiprojekthi":8393,"ĠThina":8394,"ĠTrans":8395,"Ġnguwe":8396,"ĠÐ½":8397,"Ġyangaphakathi":8398,"tyhila":8399,"Microstation":8400,"ĠInternational":8401,"mpilweni":8402,"FS":8403,"Ġkhe":8404,"Ġipro":8405,"Ġichaza":8406,"Ġnakwa":8407,"Ġeziya":8408,"rame":8409,"orhulumente":8410,"Ġuqeqesho":8411,"hlukan":8412,"Ġyinkqubo":8413,"Ġiintlawulo":8414,"Ġizenzo":8415,"Ġekunene":8416,"yike":8417,"uluman":8418,"qwenga":8419,"bhakabhaka":8420,"Ġilungu":8421,"tolo":8422,"amva":8423,"Ġemibi":8424,"ights":8425,"papashwa":8426,"yintloko":8427,"Namhlanje":8428,"vol":8429,"isch":8430,"Ġikhamera":8431,"Ġesebenzisa":8432,"umente":8433,"Ġingo":8434,"onary":8435,"Ġumfundi":8436,"ĠkaN":8437,"chni":8438,"Ġuyayi":8439,"qikelelo":8440,"tolika":8441,"BC":8442,"Cor":8443,"gree":8444,"lolo":8445,"umzekelo":8446,"Ukusetyenziswa":8447,"ĠHlawula":8448,"Ġubushushu":8449,"Mobile":8450,"Mexico":8451,"ĠIsiBulgarian":8452,"×ķ":8453,"Ġekwi":8454,"Ġkwafuneka":8455,"Ġolubanzi":8456,"qhawula":8457,"Ġwayeng":8458,"Ġivumela":8459,"ĠeKapa":8460,"phina":8461,"Ġbasebenzisa":8462,"Ġwhi":8463,"cola":8464,"vavanywa":8465,"cinezelo":8466,"bandakanyeka":8467,"Ġnjengaba":8468,"Ġindalo":8469,"Ġneya":8470,"hleni":8471,"bhisa":8472,"Ġimvume":8473,"ĠInternet":8474,"Gi":8475,"phunga":8476,"Ġunina":8477,"Ġeminye":8478,"lwane":8479,"Top":8480,"ĠCentre":8481,"MT":8482,"teli":8483,"board":8484,"Ġyeze":8485,"tyle":8486,"Ġesikhundleni":8487,"Ġdesign":8488,"Ġkwendlela":8489,"semzini":8490,"sasazi":8491,"ĠData":8492,"250":8493,"CA":8494,"veli":8495,"raceta":8496,"ĠSpe":8497,"Ġmp":8498,"Ġmfuneko":8499,"Ġzixhobo":8500,"Ġisithuba":8501,"ELWA":8502,"khompyutheni":8503,"ville":8504,"ĠKungenxa":8505,"Ġcryptocurrency":8506,"qeng":8507,"sango":8508,"Ġ00":8509,"Ġuwa":8510,"lingani":8511,"vakalise":8512,"Haiti":8513,"Ġzomzimba":8514,"fudukela":8515,"Ġumboniso":8516,"Pal":8517,"Ġephuma":8518,"magunyeni":8519,"zakh":8520,"semva":8521,"Ġabahlala":8522,"Ġzise":8523,"Ġamagumbi":8524,"enguqu":8525,"Wo":8526,"mkelwa":8527,"ue":8528,"dama":8529,"Ġindebe":8530,"Ġyangoku":8531,"Ġkubathengi":8532,"dubula":8533,"ĠBeat":8534,"ĠIsiKirundi":8535,"radesi":8536,"Lesotho":8537,"áĥ":8538,"Ġethandwa":8539,"Ġkusa":8540,"poli":8541,"Ġlube":8542,"landelela":8543,"nia":8544,"Ġunokufumana":8545,"IVE":8546,"Black":8547,"chlo":8548,"ila":8549,"jwe":8550,"mula":8551,"pment":8552,"zazi":8553,"Ġomnyama":8554,"godi":8555,"Ġbut":8556,"meleleyo":8557,"Ġnqakraza":8558,"Ġwahamba":8559,"Ġkwimisebenzi":8560,"mibuzo":8561,"philisa":8562,"Ġokubi":8563,"FX":8564,"II":8565,"zani":8566,"Ġkuphuma":8567,"mashishini":8568,"Ġngawe":8569,"Ġngasinye":8570,"rate":8571,"Ġwang":8572,"Ġkumsebenzi":8573,"baluleka":8574,"ĠÐ¸":8575,"Ġentlango":8576,"ĠuSawule":8577,"ĠWebtalk":8578,"ristmas":8579,"1011452":8580,"Ste":8581,"Ġilula":8582,"Ġaphantsi":8583,"zed":8584,"Ġinzala":8585,"ĠUD":8586,"Ġezim":8587,"ĠkoYehova":8588,"Ġiinkalo":8589,"Ġububanzi":8590,"lisile":8591,"Ġkwiinyanga":8592,"ĠSekunjalo":8593,"Ġizono":8594,"Ġukuyisebenzisa":8595,"Ġintsingiselo":8596,"ĠkaDavide":8597,"Ġisenzo":8598,"ĠuYakobi":8599,"ĠShi":8600,"fore":8601,"angothi":8602,"enzileyo":8603,"Semalt":8604,"Ġemihlanu":8605,"lungiselelwe":8606,"ĠIsiNdebele":8607,"ĠCollege":8608,"Ġemoyeni":8609,"Ġbathanda":8610,"ĠSci":8611,"hur":8612,"Ġyokuthenga":8613,"Ġleze":8614,"Ġemveni":8615,"Ġkubafundi":8616,"Ġimiphumo":8617,"Ġimfazwe":8618,"enzile":8619,"ĠPhakathi":8620,"Ġomncinci":8621,"Ġwemikhosi":8622,"120":8623,"batha":8624,"Ġkhetha":8625,"Ġitsho":8626,"Ġkufanele":8627,"Ġngokuphathelele":8628,"Ġzize":8629,"Ġzoluntu":8630,"ÐµÐ»":8631,"Ġakuna":8632,"ultimedia":8633,"bumnyama":8634,"è¯Ń":8635,"Petros":8636,"ely":8637,"Ġukuthini":8638,"Ġinko":8639,"ĠyeP":8640,"Ġstrong":8641,"enic":8642,"ĠneM":8643,"xabano":8644,"vices":8645,"ĠHar":8646,"Chris":8647,"ĠAfrican":8648,"ctur":8649,"ĠIsiPa":8650,"Ġngohlobo":8651,"Ġbezo":8652,"Umzekelo":8653,"Ġiingcali":8654,"Ġokuninzi":8655,"CDD":8656,"SR":8657,"zisebenzisa":8658,"Ġimba":8659,"hazi":8660,"luba":8661,"Ġsino":8662,"engoma":8663,"enzele":8664,"ĠNational":8665,"khangeleka":8666,"62":8667,"Ġinc":8668,"tayela":8669,"Ġsithetha":8670,"Ġngolo":8671,"ĠManu":8672,"Ġezahlukileyo":8673,"ĠIsiShona":8674,"ĠAnalytics":8675,"-\"":8676,"Ġimbi":8677,"tswana":8678,"Ġmakhe":8679,"Ġsaku":8680,"ondlo":8681,"plit":8682,"áŀ":8683,"Ġukuvula":8684,"Ġzezinto":8685,"bia":8686,"mbuyekezo":8687,"Ġezahlukahlukeneyo":8688,"Ngom":8689,"stere":8690,"phulaphule":8691,"fumanise":8692,"ption":8693,"qingqi":8694,"ensi":8695,"Ġste":8696,"ration":8697,"Ġunika":8698,"olone":8699,"Ġneempawu":8700,"ziyobisi":8701,"Ġyomhlaba":8702,"semandleni":8703,"based":8704,"phulukana":8705,"mbile":8706,"hoto":8707,"Ġwindow":8708,"phikis":8709,"hlulwa":8710,"khenketho":8711,"toni":8712,"ward":8713,"Ġahlale":8714,"Ġabaku":8715,"Ġisimo":8716,"Ġizifo":8717,"ĠWaba":8718,"Ġ45":8719,"phindwe":8720,"Ġkwisikhululo":8721,"âĢ¦]":8722,"Ġendiyi":8723,"ĠlukaThixo":8724,"ĠExpress":8725,"zenzela":8726,"mor":8727,"ĠAC":8728,"Ġelwandle":8729,"Ġnamava":8730,"gubungela":8731,"69":8732,"Ġgen":8733,"tatheli":8734,"thutha":8735,"Ġngolwimi":8736,"pali":8737,"jamin":8738,"Ġndine":8739,"commerce":8740,"kxalabo":8741,"UAE":8742,"72":8743,"Ġunama":8744,"mbuka":8745,"ĠyaseM":8746,"Ġmore":8747,"Ġokungakumbi":8748,"ekhaya":8749,"Ġtye":8750,"Ġuphinde":8751,"Ġababu":8752,"thobele":8753,"bize":8754,"chunge":8755,"okubakho":8756,"intsi":8757,"landelwa":8758,"ĠwoM":8759,"tsalela":8760,"dingu":8761,"troni":8762,"gqithisa":8763,"ĠÑģ":8764,"enelo":8765,"Ġizolo":8766,"Ġukuphuma":8767,"Ġingqi":8768,"ĠNJ":8769,"Ġzenze":8770,"bhabha":8771,"ĠGar":8772,"thengise":8773,"lisch":8774,"Ġabout":8775,"Ġizaku":8776,"ĠuYosefu":8777,"Nceda":8778,"tla":8779,"ĠuF":8780,"isisa":8781,"ĠIvidiyo":8782,"ĠItaly":8783,"Ġinguqu":8784,"ĠzeM":8785,"Ġzibonisa":8786,"meta":8787,"Ġisandi":8788,"ĠZama":8789,"Ġsobu":8790,"Midlalo":8791,"Ġuzama":8792,"Ġ[âĢ¦]":8793,"bambe":8794,"ĠNor":8795,"angeleko":8796,"Ġamaziko":8797,"ĠBel":8798,"Ġwangena":8799,"Ġimizi":8800,"lindi":8801,"thabathela":8802,"ĠuAbraham":8803,"Ġkukwenza":8804,"Ġafumane":8805,"Ġwafa":8806,"rat":8807,"ĠkweM":8808,"ĠDisemba":8809,"amento":8810,"Ġlwayo":8811,"khonze":8812,"lawulayo":8813,"Ġobungunaphakade":8814,"ĠKunye":8815,"Ġalso":8816,"racetam":8817,"Zo":8818,"Ġuphuhliso":8819,"Ġkudla":8820,"Ġumenzi":8821,"Ġabathile":8822,"Ġababingeleli":8823,"antla":8824,"fihlakeleyo":8825,"lash":8826,"lethi":8827,"Ġukuhanjiswa":8828,"hola":8829,"Ġezihamba":8830,"ĠPoker":8831,"urce":8832,"ĠIsiSuthu":8833,"Ġezisisiseko":8834,"limited":8835,"androlone":8836,"Ñħ":8837,"Ġipha":8838,"ony":8839,"Ġukukhuthaza":8840,"keting":8841,"Ġyevidiyo":8842,"ongcakazo":8843,"sinya":8844,"sonde":8845,"ĠIsiMyanmar":8846,"uko":8847,"ĠKulungile":8848,"piamento":8849,"Ġkusenokwenzeka":8850,"Ġekwenzeni":8851,"Ġeb":8852,"Ġukulwa":8853,"Ġzentengiso":8854,"mnceda":8855,"Nazi":8856,"Ġkuwa":8857,"Ġukuse":8858,"Ġombane":8859,"Ġbem":8860,"Ġubuninzi":8861,"Ġungena":8862,"phefumla":8863,"Ġawuyi":8864,"Ġkungenxa":8865,"Ġtext":8866,"Ġnanjengoko":8867,"ĠeH":8868,"Ġbacinga":8869,"Ġenkundleni":8870,"ĠShe":8871,"gqe":8872,"Ġlithetha":8873,"yuke":8874,"kwisi":8875,"cwangciswa":8876,"ĠAutoCAD":8877,"Ndinga":8878,"cus":8879,"Ġqiniseka":8880,"Ġeen":8881,"Ġkwaphela":8882,"ĠkwiS":8883,"Ġlwezinto":8884,"Ġngumsebenzi":8885,"Ġizakhono":8886,"Ġsingaba":8887,"Ġvs":8888,"ĠUno":8889,"Ġabazange":8890,"Ġabathengisi":8891,"ĠBona":8892,"hlelwa":8893,"ingala":8894,"ĠTV":8895,"gqabi":8896,"sindiso":8897,"ĠIsiPapiamento":8898,"izer":8899,"enanto":8900,"Ġudlala":8901,"Ġilahle":8902,"shwe":8903,"Ġses":8904,"Ġububi":8905,"graphy":8906,"Ġkungabikho":8907,"Russia":8908,"thendeleko":8909,"vangeli":8910,"hou":8911,"ĠUB":8912,"ĠyeA":8913,"mir":8914,"Ġstu":8915,"lunge":8916,"ĠGi":8917,"phumela":8918,"olden":8919,"ĠÂ«":8920,"Ġngokwezi":8921,"xabise":8922,"TA":8923,"Ġkufanelekile":8924,"Ġbasebenzise":8925,"engxelo":8926,"ĠUkusetyenziswa":8927,"chazela":8928,"qhank":8929,"rensi":8930,"Ġkwelokuba":8931,"mati":8932,"Ġyemali":8933,"Ġyabucala":8934,"Ġyokuphila":8935,"ĠMu":8936,"Ġnobomi":8937,"Ġlive":8938,"ĠInstitute":8939,"Ġid":8940,"lithi":8941,"Ġngaku":8942,"Ġenda":8943,"right":8944,"bhubha":8945,"Ġfee":8946,"Ġnibe":8947,"Ġungakwazi":8948,"Ġoway":8949,"Ġlwent":8950,"Waray":8951,"elene":8952,"Ġucinge":8953,"Ġkonyaka":8954,"Ġeendaba":8955,"vuza":8956,"yukayo":8957,"Yordan":8958,"enjongo":8959,"bakala":8960,"ĠiD":8961,"riend":8962,"ĠLOKU":8963,"Ġizipho":8964,"ĠBabe":8965,"gre":8966,"ibe":8967,"ĠeMa":8968,"bonakaliswa":8969,"Ġyesithathu":8970,"Ġukuziphatha":8971,"fthiwe":8972,"Ġimbewu":8973,"mbano":8974,"Ġentabeni":8975,"ĠAwu":8976,"Ġabathathu":8977,"Ġzokwakha":8978,"Ġndaku":8979,"guqulela":8980,"ppy":8981,"ALI":8982,"DE":8983,"wonga":8984,"ĠIZI":8985,"ĠBul":8986,"ĠYinto":8987,"hleka":8988,"rhan":8989,"ĠNgaphambi":8990,"Ġephakathi":8991,"thate":8992,"Ġumngcipheko":8993,"deo":8994,"Ġlokulala":8995,"Ġ250":8996,"Ġamantombazana":8997,"ĠbakaYehova":8998,"khathazeka":8999,"Ġzomhlaba":9000,"sondeleyo":9001,"qhankqala":9002,"cka":9003,"ktroni":9004,"try":9005,"zen":9006,"tation":9007,"ĠKhetha":9008,"ĠAu":9009,"Ġisihloko":9010,"liseni":9011,"Ġumnqophiso":9012,"Ġnyhani":9013,"xBet":9014,"Ġukuphendula":9015,"bank":9016,"Ġinokuba":9017,"tak":9018,"Ġzisi":9019,"ĠEM":9020,"ĠBen":9021,"ĠnoMa":9022,"tshay":9023,"html":9024,"kweli":9025,"Ġidiphozithi":9026,"Desk":9027,"Ġidla":9028,"Ġour":9029,"banisa":9030,"zint":9031,"Ġyebhonasi":9032,"Ġsuku":9033,"ompo":9034,"hibi":9035,"ĠngoYehova":9036,"trict":9037,"ĠPocket":9038,"ĠIsiLingala":9039,"Ban":9040,"FAN":9041,"ĠuC":9042,"Ġide":9043,"sional":9044,"dian":9045,"Ġkwikhaya":9046,"teknoloji":9047,"wenze":9048,"cos":9049,"entliziyo":9050,"sombulula":9051,"Ġnabafazi":9052,"Yobhi":9053,"therlands":9054,"Ġgam":9055,"Ġeven":9056,"Ġukuma":9057,"Ġukulungisa":9058,"Ġwaqhubeka":9059,"Ġumprofeti":9060,"Ġentolongweni":9061,"ĠSho":9062,"Ġzithi":9063,"ĠKhumbula":9064,"denge":9065,"onda":9066,"Ġogama":9067,"veza":9068,"stru":9069,"gendawo":9070,"ĠBible":9071,"Imbali":9072,"isho":9073,"Ġbamele":9074,"Ġsome":9075,"zoba":9076,"Ġeziye":9077,"tyatyambo":9078,"fundela":9079,"ArcGIS":9080,"rst":9081,"waye":9082,"ĠiOS":9083,"ĠStu":9084,"Ġweli":9085,"ĠNgeli":9086,"bhoni":9087,"Ġblockchain":9088,"Ġndina":9089,"ĠMasi":9090,"2008":9091,"cca":9092,"yalela":9093,"boya":9094,"Ġbako":9095,"Ġbabonakale":9096,"Ġabakhulu":9097,"thobe":9098,"Ġiziyobisi":9099,"zonyango":9100,"ats":9101,"yiswe":9102,"lizwi":9103,"Ġwathumela":9104,"thala":9105,"ĠAm":9106,"qalise":9107,"ĠRand":9108,"vakalelo":9109,"ontent":9110,"TSHA":9111,"Ġevulekileyo":9112,"Ġkuwu":9113,"gaxekile":9114,"Ġasa":9115,"Ġzibandakanya":9116,"Ġyokutya":9117,"tshatsh":9118,"Ġimfuneko":9119,"Ġkwisixeko":9120,"qhagamshelana":9121,"senokuba":9122,"USA":9123,"ĠkukaYesu":9124,"ĠYiyo":9125,"Ġisetyenziswa":9126,"qhagamshelwano":9127,"kwindawo":9128,"qingqiweyo":9129,"63":9130,"Ġiyan":9131,"phanga":9132,"med":9133,"Ġelse":9134,"ĠDes":9135,"Ġengaphezulu":9136,"Ġkwisithuba":9137,"Ġaziyeki":9138,"Imibuzo":9139,"Projekthi":9140,"mbandezelo":9141,"Ntu":9142,"klini":9143,"oxi":9144,"Ġukuvumela":9145,"Ġukuxhasa":9146,"Ġindi":9147,"Ġkwesa":9148,"Ġemkhosini":9149,"Ġimigca":9150,"Ġlukhulu":9151,"Ġpers":9152,"ids":9153,"Ġengekho":9154,"Ġusebenze":9155,"ista":9156,"hafu":9157,"Ġezinje":9158,"Media":9159,"ĠNetwork":9160,"jinga":9161,"ness":9162,"yha":9163,"ÄŁ":9164,"anthate":9165,"yezo":9166,"Ġimbonakalo":9167,"lugin":9168,"Ġoyin":9169,"andul":9170,"Ġwale":9171,"ĠCy":9172,"lwalamano":9173,"Ġezenziwa":9174,"kulumbuso":9175,"trato":9176,"Ġmod":9177,"ĠAbadlali":9178,"yameni":9179,"Ġkon":9180,"Ġinkcazo":9181,"andard":9182,".âĢĻâĢĿ":9183,"Best":9184,"ak":9185,"kunga":9186,"Ġuco":9187,"Ġirhafu":9188,"Ġkutshanje":9189,"kwazanga":9190,"henyu":9191,"enxalenye":9192,"Ġulutsha":9193,"Â£":9194,"Ġfumana":9195,"Ġende":9196,"Ġamaxwebhu":9197,"city":9198,"ĠInjongo":9199,"ungula":9200,"Led":9201,"menteni":9202,"Ġebandleni":9203,"talato":9204,"**":9205,"sono":9206,"Ġuqala":9207,"tyh":9208,"Ġkolawulo":9209,"Ġndini":9210,"Ġngamazwi":9211,"Ġekusebenziseni":9212,"ELEKILEYO":9213,"gwenxa":9214,"ĠeD":9215,"Ġukubonakala":9216,"bol":9217,"Ġunqulo":9218,"Ġeyodwa":9219,"estern":9220,"Ã§a":9221,"Afri":9222,"Abanye":9223,"Blythe":9224,"Kor":9225,"TCDD":9226,"UG":9227,"gco":9228,"anel":9229,"Ġenesi":9230,"Ġabaya":9231,"Ġimizekelo":9232,"âĨĲ":9233,"sto":9234,"ãĢ":9235,"Ġesetyenziswa":9236,"ĠkuA":9237,"Ġwaphuma":9238,"ĠIsiHebhere":9239,"mplate":9240,"Ġekuhlaleni":9241,"KHULU":9242,"Oko":9243,"tin":9244,"Ġnel":9245,"hagu":9246,"Ġowenza":9247,"yihlo":9248,"Ġumphumo":9249,"Ġezikhethekileyo":9250,"lwakhiwo":9251,"Ġisikolo":9252,"Ġlithi":9253,"ĠKwimeko":9254,"Ġandiyi":9255,"bhengezwa":9256,"banjelwe":9257,"').":9258,"Ofisi":9259,"thsaba":9260,"Ġkuphinda":9261,"Ġkuyenza":9262,"webhsayithi":9263,"Ġbokuba":9264,"ĠzoM":9265,"Ġ07":9266,"ĠSeptemba":9267,"ersey":9268,"Kom":9269,"zonke":9270,"Ġoyinyaniso":9271,"onavirus":9272,"vate":9273,"Ġyokufunda":9274,"cili":9275,"mbulo":9276,"Ġezisetyenziswa":9277,"Ġndaza":9278,"amaphosa":9279,"Ġcasino":9280,"Range":9281,"ek":9282,"landa":9283,"sonic":9284,"enn":9285,"ros":9286,"Ġezinjenge":9287,"entral":9288,"vakalayo":9289,"ffer":9290,"hlwayo":9291,"ĠiH":9292,"bizo":9293,"ĠPlay":9294,"Ġokuphezulu":9295,"Ġubuhlobo":9296,"phakamiso":9297,"Ġwayengum":9298,"Ġdipozithi":9299,"xhonyiweyo":9300,"Ġwhich":9301,"Ġcu":9302,"iselana":9303,"Ġimo":9304,"Ġkweye":9305,"Ġ36":9306,"bhengeza":9307,"Ġzangaphandle":9308,"bise":9309,"llar":9310,"Ġazo":9311,"dical":9312,"Ġmthethweni":9313,"Ġzezulu":9314,"ĠCam":9315,"ĠCertifi":9316,"Ġ300":9317,"Ġpri":9318,"ĠâĦ":9319,"Ġoneminyaka":9320,"ĠChiefs":9321,"Ġingqiqo":9322,"yine":9323,"Ġebaluleke":9324,"Ġkulandela":9325,"Ġoqhelekileyo":9326,"Ġolandelayo":9327,"ĠiiN":9328,"ĠUkufumana":9329,"INT":9330,"rhulumenteni":9331,"Igbo":9332,"Gcina":9333,"kt":9334,"qungu":9335,"Ġbadla":9336,"ĠSinoku":9337,"poly":9338,"sul":9339,"fowun":9340,"zaliseka":9341,"Ġobukhulu":9342,"Ġentsimini":9343,"Ġendlini":9344,"gqwesileyo":9345,"Englisch":9346,"ports":9347,"Efese":9348,"elwane":9349,"Ġigalelo":9350,"siba":9351,"lodwa":9352,"Ġsifanele":9353,"thola":9354,"bhuku":9355,"Ġyendlela":9356,"Ġayikwazi":9357,"ĠIsiTwi":9358,"Ġziyafumaneka":9359,"Ġngeenkonzo":9360,"Ġukwabelana":9361,"Ġngokungathi":9362,"Ġisetyenziselwa":9363,"Iintlobo":9364,"bandezeleka":9365,"zakhono":9366,"omet":9367,"Ġiimvakalelo":9368,"Ġsesibini":9369,"Ġezandleni":9370,"ĠNjengokuba":9371,"YouTube":9372,"Ġokwenza":9373,"doli":9374,"Ġbeze":9375,"Ġunokuba":9376,"Ġiziko":9377,"lawule":9378,"belane":9379,"ISityhilelo":9380,"Qala":9381,"celwa":9382,"kq":9383,"tte":9384,"xesh":9385,"Ġesemthethweni":9386,"Ġini":9387,"khokho":9388,"Ġwafika":9389,"ĠnoE":9390,"Ġimpe":9391,"sisiseko":9392,"Ġkaloliwe":9393,"ĠDay":9394,"nikezelwa":9395,"ĠAra":9396,"Ġmandi":9397,"viron":9398,"ENI":9399,"Ġemail":9400,"Ġwayene":9401,"lathiso":9402,"ĠAmerica":9403,"fihliweyo":9404,"BO":9405,"kokuba":9406,"Ġukubaluleka":9407,"ĠCi":9408,"Ġcwaka":9409,"idgin":9410,"state":9411,"ĠIziphumo":9412,"Ġnangaphezulu":9413,"Ġubhaliso":9414,"Ġtime":9415,"printa":9416,"Air":9417,"Bhen":9418,"Yeho":9419,"mfundiso":9420,"vest":9421,"Ġalo":9422,"ĠneB":9423,"Ġumthwalo":9424,"ĠKanye":9425,"ĠAp":9426,"Ġprojekthi":9427,".âĢĻâĢĶ":9428,"Ġelowo":9429,"quare":9430,"lathisi":9431,"ktroniki":9432,"gri":9433,"»¿":9434,"kazana":9435,"Ġumqhubi":9436,"ĠMoney":9437,"Ġunomdla":9438,"!!!":9439,"ST":9440,"gxe":9441,"iv":9442,"ï»¿":9443,"Ġnull":9444,"Ġukwe":9445,"Ġumthi":9446,"mple":9447,"Ġunesi":9448,"ĠPor":9449,"Kwakhona":9450,"Ġbabenga":9451,"auti":9452,",,":9453,"pani":9454,"Ġnkonzo":9455,"Ġau":9456,"Ġayin":9457,"Ġumgama":9458,"ĠBam":9459,"ĠBusiness":9460,"fashoni":9461,"tshiza":9462,"Ġdocument":9463,"AASraw":9464,"Ġuwu":9465,"Ġkundi":9466,"Ġinom":9467,"Ġnazi":9468,"Ġneye":9469,"Ġezinama":9470,"kwenyaniso":9471,"Ġokuba":9472,"Ġbayazi":9473,"âĢ¦âĢ¦âĢ¦âĢ¦":9474,"daptha":9475,"zimisele":9476,"Ġyelizwe":9477,"Ġzokugcina":9478,"ĠâĢľâĢĺ":9479,"thandabuze":9480,"urse":9481,"yisela":9482,"dumba":9483,"tyuwa":9484,"82":9485,"Asia":9486,"UJ":9487,"warha":9488,"suke":9489,"zalelwa":9490,"Ġpay":9491,"ĠSuper":9492,"At":9493,"Ġuvu":9494,"ĠNje":9495,"ngum":9496,"tekhnoloji":9497,"Ġmdwebo":9498,"falls":9499,"bonakude":9500,"Ġesifanelekileyo":9501,"Ġelis":9502,"Ġngokomoya":9503,"yelitsha":9504,"vota":9505,"omama":9506,"ĠTimoti":9507,"TSH":9508,"send":9509,"zelele":9510,"laleni":9511,"rismesi":9512,"Ġmillion":9513,"Ġumbhalo":9514,"fuziselo":9515,"600":9516,"Australia":9517,"Ġmbuzo":9518,"ush":9519,"fit":9520,"qinisekise":9521,"ĠÐ¾":9522,"ĠsaseHaiti":9523,"Pla":9524,"Ġbathe":9525,"busuku":9526,"vayo":9527,"valo":9528,"Ġngokoku":9529,"Ġisidlo":9530,"thuthuthu":9531,"yanzelisa":9532,"________":9533,"ĠKananjalo":9534,"autiful":9535,"Yeremiya":9536,"ctive":9537,"uthe":9538,"xelisa":9539,"Ġahlala":9540,"Ġkwiphondo":9541,"Ġsystem":9542,"Ġezipheleleyo":9543,"ĠApho":9544,"Ġezinamandla":9545,"ĠDis":9546,"Ġzoshishino":9547,"redithi":9548,"tshontsho":9549,"lale":9550,"Ġilungileyo":9551,"ĠeR":9552,"Ġukugcinwa":9553,"ĠIIM":9554,"dition":9555,"Ġmhlophe":9556,"factur":9557,"Ġmayi":9558,"Ġimvelaphi":9559,"Ġintlungu":9560,"Ġbene":9561,"ĠoyiNgcwele":9562,"Bhunga":9563,"therapy":9564,"njeng":9565,"ĠiV":9566,"habhi":9567,"pheni":9568,"ĠNan":9569,"word":9570,"sayensi":9571,"ĠFt":9572,"Mac":9573,"bhoko":9574,"Ġtru":9575,"ĠlaseYiputa":9576,"ĠuSolomon":9577,"ĠEnglish":9578,"tting":9579,"Ġukuphila":9580,"liba":9581,"Ġkwathi":9582,"ĠKwen":9583,"Ġkam":9584,"Ġbemi":9585,"Ġeneminyaka":9586,"bulali":9587,"politiki":9588,"cript":9589,"Yona":9590,"Ð´":9591,"Ġukulungele":9592,"Ġnefuthe":9593,"wili":9594,"khukula":9595,"xubu":9596,"ĠIsiMaked":9597,"zenzayo":9598,"tshatsheli":9599,"Ġiisa":9600,"Ġivenkile":9601,"okun":9602,"tsana":9603,"esine":9604,"ĠUza":9605,"ĠKumkani":9606,"ĠKUNYE":9607,"Ġenxulumene":9608,"Ġekuhambeni":9609,"Ġndazi":9610,"setyenziso":9611,"Ġintlanganiso":9612,"ĠYabona":9613,"Ġuzame":9614,"Ġ2007":9615,"dlulisela":9616,"Select":9617,"ĠIsiMakedonia":9618,"SQL":9619,"XA":9620,"blog":9621,"walas":9622,"unyana":9623,"Ġisiphumo":9624,"Ġisikhundla":9625,"pic":9626,"Ġtattoos":9627,"fomu":9628,"uage":9629,"Ġguys":9630,"witzer":9631,"ĠÎ":9632,"ĠkwiM":9633,"bus":9634,"Ġsto":9635,"Ġneminye":9636,"cace":9637,"phoswa":9638,"Ġmake":9639,"ĠGra":9640,"ISI":9641,"Selected":9642,"witzerland":9643,"nel":9644,"lation":9645,"Ġkusoloko":9646,"zema":9647,"burhulumenteni":9648,"Ġngala":9649,"soze":9650,"Ġnjengezi":9651,"gxeka":9652,"Amantombazana":9653,"Ġyombane":9654,"Ġlanga":9655,"Ġlebhola":9656,"ĠEpreli":9657,"face":9658,"dumbu":9659,"Ġoluphezulu":9660,"Ġbuya":9661,"Ġintsebenziswano":9662,"Isake":9663,"IZenzo":9664,"ĠJikelele":9665,"91":9666,"laphu":9667,"Ġwathabatha":9668,"Ġkwimbali":9669,"Ġnoluntu":9670,"Ġizityalo":9671,"hlunu":9672,"talan":9673,"celSelect":9674,"ĠGame":9675,"khenkethi":9676,"rossRef":9677,"ĠWelcome":9678,"71":9679,"Frentshi":9680,"jelwa":9681,"Ġiquka":9682,"Ġbahamba":9683,"fihlelo":9684,"Ġizilungiso":9685,"mbuza":9686,"David":9687,"Ġemihle":9688,"UNG":9689,"ĠkukaThixo":9690,"Ġnakuma":9691,"Lwandle":9692,"UV":9693,"Ġime":9694,"ĠSq":9695,"Ġnolu":9696,"sub":9697,"Ġbuhlungu":9698,"Ġkwimimandla":9699,"France":9700,"khankanywe":9701,"hon":9702,"Ġkukun":9703,"Ġkubantwana":9704,"mbingeleli":9705,"Ġnegama":9706,"Ġyonyaka":9707,"ĠEs":9708,"Ġemine":9709,"gua":9710,"ĠInyaniso":9711,"yanzeleka":9712,"Ġintengiso":9713,"restu":9714,"qhawe":9715,"qhayisa":9716,"palamente":9717,"Thengisa":9718,"Brit":9719,"mbele":9720,"mbundu":9721,"Ġbahlale":9722,"Ġyedatha":9723,"ngca":9724,"Ġabana":9725,"ĠFM":9726,"ĠGold":9727,"Ġ38":9728,"tsomi":9729,"fessional":9730,"phikisana":9731,"kso":9732,"lou":9733,"sekho":9734,"Ġabathi":9735,"ĠisiXhosa":9736,"fumaneke":9737,"sterdam":9738,"thethwe":9739,"ĠleBantwana":9740,"Amandla":9741,"CE":9742,"wasa":9743,"ĠneS":9744,"case":9745,"Ġelibi":9746,"inese":9747,"Ġany":9748,"ĠwakwaSirayeli":9749,"Lin":9750,"Ġnzulu":9751,"Ġibaluleke":9752,"Ġyodwa":9753,"khethela":9754,"sebenzo":9755,"Ġiinyawo":9756,"cky":9757,"yanzela":9758,"Ġwor":9759,"khonkwane":9760,"Ġowawu":9761,"kratshi":9762,"Ġingoma":9763,"QUB":9764,"bri":9765,"Ġiprojekthi":9766,"Ġeben":9767,"Ġafuna":9768,"lution":9769,"Ġbawu":9770,"ĠSamuel":9771,"Ġluhlobo":9772,"ĠuYohane":9773,"ĠManagement":9774,"ENDULO":9775,"Dlala":9776,"For":9777,"Hi":9778,"xine":9779,"bakho":9780,"dabi":9781,"anduluka":9782,"Ġwin":9783,"mos":9784,"ĠCoun":9785,"xuba":9786,"Phondo":9787,"dlovu":9788,"Ġbit":9789,"Khus":9790,"gxotha":9791,"hd":9792,"pel":9793,"Ġanda":9794,"Ġvo":9795,"elweni":9796,"Ġiqala":9797,"Ġkubomi":9798,"Ġnjongo":9799,"tyun":9800,"Ġngobomi":9801,"onophelo":9802,"rhwebi":9803,"ĠIsiEfik":9804,"iinyanga":9805,"dlangalaleni":9806,"qongo":9807,"ĠKha":9808,"ĠAll":9809,"geo":9810,"Ġnendlu":9811,"Ġndathi":9812,"ĠNgokuqhelekileyo":9813,"Ġisebe":9814,"Ġyayingu":9815,"ĠVegas":9816,"':":9817,"Ġufunda":9818,"Ġebho":9819,"gada":9820,"Ġukukhupha":9821,"dada":9822,"eshi":9823,"Ġenza":9824,"part":9825,"Ġiingcamango":9826,"ĠNgokwe":9827,"Ġentloko":9828,"pheleleko":9829,"Ġutywala":9830,"liyo":9831,"Ġinceba":9832,"omoya":9833,"quku":9834,"Ġzimbini":9835,"Ġizikolo":9836,"onomi":9837,"qinile":9838,"qhetse":9839,"Ġuyenze":9840,"Kanan":9841,"phindaphindiweyo":9842,"Ġoyingcwele":9843,"Blue":9844,"jpg":9845,"Ġeyoku":9846,"Ġwaze":9847,"Ġzikho":9848,"Ġngololiwe":9849,"Ġisicatshulwa":9850,"dule":9851,"chael":9852,"Ġnomdla":9853,"endele":9854,"menyu":9855,"celand":9856,"SAT":9857,"phosakeleyo":9858,"iPhone":9859,"velela":9860,"die":9861,"yibona":9862,"Ġbefuna":9863,"ĠWen":9864,"enzululwazi":9865,"shicilelo":9866,"hlonela":9867,"kuphela":9868,"sive":9869,"ĠSis":9870,"Ġiiveki":9871,"ANTU":9872,"Ġemazulwini":9873,"Ġuzive":9874,"rhweba":9875,"Ġetc":9876,"hlonipha":9877,"qhetseba":9878,"%.":9879,"Pol":9880,"Ġithatha":9881,"Ġkusinceda":9882,"uman":9883,"Ġyemveliso":9884,"Ġyophando":9885,"Ġisilwanyana":9886,"ĠUkusebenzisa":9887,"Ġekum":9888,"mbopheleleko":9889,"bhetele":9890,"Ġeyongezelelweyo":9891,"âĨĳ":9892,"Ġyayinga":9893,"Shi":9894,"tical":9895,"Ġeliphambili":9896,"ĠUkuya":9897,"Ġokuphumelela":9898,"socia":9899,"Site":9900,"olf":9901,"qhen":9902,"El":9903,"Mn":9904,"tre":9905,"Ġ<":9906,"Ġikh":9907,"phandleni":9908,"sithiwa":9909,"Ġlomsebenzi":9910,"iliyadi":9911,"Ġiteknoloji":9912,"ntla":9913,"formation":9914,"74":9915,"DF":9916,"Pri":9917,"Ultra":9918,"pane":9919,"Ġkuphumelela":9920,"Ġovela":9921,"Ġintsholongwane":9922,"buyane":9923,"Ġezibini":9924,"khemikhali":9925,"Ġsibona":9926,"ĠBA":9927,"ongezwa":9928,"Ġkg":9929,"kosini":9930,"Ġwh":9931,"sasazeka":9932,"Ġnanini":9933,"hlolokazi":9934,"Far":9935,"mina":9936,"livia":9937,"ĠWord":9938,"Ġizithuthi":9939,"Ġmay":9940,"ĠDubai":9941,"Ġumbhali":9942,"Ġyakutshanje":9943,"ĠAmerican":9944,"Ġubonisa":9945,"Ġukwanda":9946,"Ġukuqhubeka":9947,"phene":9948,"ĠIstanbul":9949,"ĠYin":9950,"mole":9951,"khuthaze":9952,"xibelel":9953,"Ð°Ð½":9954,"ĠZiziphi":9955,"Ġanike":9956,"phononongo":9957,"Ġpeople":9958,"amsung":9959,"ropshi":9960,"As":9961,"Lungu":9962,"Ġngokugqibeleleyo":9963,"fic":9964,"somashishini":9965,"atter":9966,"cwaba":9967,"ENG":9968,"Ġumnini":9969,"xuma":9970,"ĠRussian":9971,"limela":9972,"unja":9973,"Ġintambo":9974,"Ġume":9975,"ĠLondon":9976,"ĠWenza":9977,"qhutywe":9978,"Ġneenkcukacha":9979,"Ġanti":9980,"ENT":9981,"Cape":9982,"tyiwa":9983,"lisiwe":9984,"Ngaphambi":9985,"Ġemnyango":9986,"fter":9987,"glu":9988,"ĠIxabiso":9989,"betho":9990,"ander":9991,"ĠND":9992,"Ukufunda":9993,"ishwanka":9994,"fanisa":9995,"hambela":9996,"Sho":9997,"Umntu":9998,"ixesha":9999,"Ġinjini":10000,"bek":10001,"omso":10002,"entloko":10003,"bhalela":10004,"sulele":10005,"ĠVa":10006,"Ġengaphezu":10007,"110":10008,"Ele":10009,"ping":10010,"elona":10011,"ĠuNa":10012,"lah":10013,"ĠkuYesu":10014,"Ġbajonge":10015,"ĠUMa":10016,"Ġamathandathu":10017,"cil":10018,"Ġishi":10019,"Ġomele":10020,"oulette":10021,"IMP":10022,"ĠeBhe":10023,"tshayelelo":10024,"ksodus":10025,"79":10026,"mkeli":10027,"woku":10028,"Ġkuziwa":10029,"Ġover":10030,"komiti":10031,"umzana":10032,"ĠkwaSirayeli":10033,"ĠAbantwana":10034,"bhaliwe":10035,"velwano":10036,"ileni":10037,"Ġezongezelelweyo":10038,"Ġumnqweno":10039,"elugu":10040,"illiam":10041,"ĠAirport":10042,"backlink":10043,"Khetha":10044,"yalam":10045,"siphelo":10046,"Ġininzi":10047,"qaliswa":10048,"tsheni":10049,"Ġoyifunayo":10050,"Ġkangako":10051,"stal":10052,"zisombululo":10053,"Ġfunda":10054,"Ġezilula":10055,"Ġyokungcakaza":10056,"ĠHot":10057,"Ġiintliziyo":10058,"imeyli":10059,"bongoza":10060,"DVD":10061,"fiso":10062,"uk":10063,"bar":10064,"yitha":10065,"Ġbafunde":10066,"ĠyeT":10067,"buye":10068,"hlaziyo":10069,"intloko":10070,"cwadini":10071,"Ġkwisikolo":10072,"QUBO":10073,"BU":10074,"gr":10075,"yong":10076,"Ġedibeneyo":10077,"Ġoomatshini":10078,"yizi":10079,"Ġbazalwana":10080,"bulungisa":10081,"Ġumfana":10082,"Ġngokuco":10083,"ĠAdapter":10084,"Ġelizweni":10085,"phithi":10086,"Ġnamhla":10087,"khathalele":10088,"tyholwa":10089,"Ġkwintsimi":10090,"jan":10091,"neli":10092,"Ġ~":10093,"Ġqho":10094,"thambileyo":10095,"Ġzeli":10096,"biwo":10097,"Ġnjengendlela":10098,"rinya":10099,"Hua":10100,"VI":10101,"teni":10102,"Ġukhangela":10103,"Ġikwazi":10104,"Ġidibanisa":10105,"Ġkulu":10106,"loud":10107,"Ġwazo":10108,"Ġenomdla":10109,"Ġngezandla":10110,"entyatyambo":10111,"Ġimicimbi":10112,"Ġndenze":10113,"Ġndabona":10114,"sinika":10115,"ĠIsiNzema":10116,"ĠTattoos":10117,"Lwimi":10118,"mine":10119,"Ġiphinde":10120,"Ġukuchitha":10121,"Ġukuphakama":10122,"andiso":10123,"Ġyeyiphi":10124,"fakela":10125,"ĠLED":10126,"viwa":10127,"Ġsayithi":10128,"igrinya":10129,"Ġngomsebenzi":10130,"140":10131,"Ġelali":10132,"Iceland":10133,"South":10134,"Ġehlala":10135,"Ġavela":10136,"mai":10137,"Ġukuzisa":10138,"umlo":10139,"Ġyemihla":10140,"rasi":10141,"Ġamashumi":10142,"onika":10143,"Ġungathanda":10144,"Ġfeeder":10145,"Ġiphambili":10146,"umn":10147,"Ġingu":10148,"Ġwaqalisa":10149,"Ġkweze":10150,"ĠleM":10151,"ĠElect":10152,"Ġisithi":10153,"cipha":10154,"mncwa":10155,"Ukusebenzisa":10156,"...]":10157,"Ġkokuqala":10158,"Ġher":10159,"Ce":10160,"Show":10161,"ziswe":10162,"zeleyo":10163,"Ġtho":10164,"Ġukuthengiswa":10165,"Ġkwise":10166,"mith":10167,"ĠNom":10168,"qaphele":10169,"Ġyini":10170,"Ġemini":10171,"bonda":10172,"ĠKur":10173,"jija":10174,"bhubh":10175,"ctions":10176,"Ġpage":10177,"Ġngentliziyo":10178,"Han":10179,"fele":10180,"trans":10181,"Ġbonisa":10182,"Ġobo":10183,"zingca":10184,"ĠUlwazi":10185,"rote":10186,"Ġamathambo":10187,"gos":10188,"fanelanga":10189,"fumanekayo":10190,"Ġkwezixhobo":10191,"2007":10192,"papasha":10193,"ĠFilipino":10194,"CAS":10195,"YIB":10196,"dula":10197,"planga":10198,"Ġje":10199,"ĠYA":10200,"vesi":10201,"nie":10202,"Ġnomgangatho":10203,"Ġyasekhaya":10204,"ĠIsiTigrinya":10205,"Ġeyenzekayo":10206,"THETH":10207,"Ġhigh":10208,"ĠEyeThupha":10209,"tempileni":10210,"Ġuqinisekise":10211,"Ab":10212,"Ġicebo":10213,"Ġifakwe":10214,"buyele":10215,"Ġumkhondo":10216,"angca":10217,"Ġiintsapho":10218,"Ġsazi":10219,"Ġbokuqala":10220,"Ġumbho":10221,"Faka":10222,"COVID":10223,"kype":10224,"Ġiileta":10225,"mbelela":10226,"yiti":10227,"Ġlobomi":10228,"ĠWal":10229,"gqityiwe":10230,"Ġlokufumana":10231,"alte":10232,"ĠMac":10233,"ĠyaseYurophu":10234,"jongwa":10235,"Ġyabathengi":10236,"tabase":10237,"walasela":10238,"Khe":10239,"ĠuKa":10240,"Ġukuchaza":10241,"Ġkweeng":10242,"Ġmzekelo":10243,"Ġmacala":10244,"kwanga":10245,"krakra":10246,"vuswa":10247,"sisigxina":10248,"fesane":10249,"ĠImfono":10250,"yanzelekile":10251,"rogenic":10252,"Ġibandakanya":10253,"sifa":10254,"rage":10255,"Ġzangaphambili":10256,"ĠFC":10257,"ĠGroup":10258,"Ġndise":10259,"ĠUmfanekiso":10260,"ĠuMoya":10261,"Ġ[...]":10262,"krelekrele":10263,"Ġikuvumela":10264,"rhanelwa":10265,"Icandelo":10266,"gxila":10267,"rone":10268,"Ð³":10269,"Ġnela":10270,"Ġwawo":10271,"Ġzisa":10272,"Ġyokuhambisa":10273,"Ġisiphelo":10274,"miselwa":10275,"ĠNgokwenene":10276,"ĠKwii":10277,"shop":10278,"Ġngesantya":10279,"ĠYiyiphi":10280,"jenje":10281,"siwedi":10282,"Smart":10283,"ambu":10284,"âĤ¬":10285,"Ġinceda":10286,"ĠUthando":10287,"ĠUkuhamba":10288,"Ġesiku":10289,"ĠHCL":10290,"Ġububele":10291,"ĠBaye":10292,"Ġngomnyaka":10293,"lassic":10294,"Ġukunyaniseka":10295,"pheliswa":10296,"vulekile":10297,"dongeni":10298,"FF":10299,"iji":10300,"ĠuLu":10301,"Ġusoloko":10302,"Ġilungile":10303,"Ġipowder":10304,"Ġkuvumela":10305,"Ġukuthintela":10306,"tori":10307,"Ġinge":10308,"ĠUJ":10309,"Ġlisithi":10310,"Ġzifuna":10311,"Ġnosapho":10312,"ilwimi":10313,"profayili":10314,"Ġiyaku":10315,"Sama":10316,"Ġzendawo":10317,"ĠNGE":10318,"Bolivia":10319,"Ġiinguqulelo":10320,"fon":10321,"ilwa":10322,"yper":10323,"Ġinkunzi":10324,"Ġyayin":10325,"ĠKamva":10326,"Ġnokunye":10327,"ĠTho":10328,"Ġzokuthengisa":10329,"Ġubulungisa":10330,"Ġlwalu":10331,"mbezi":10332,"Ġingeniso":10333,"ĠâĻ":10334,"ĠIsiMalayalam":10335,"Nyaka":10336,"Phi":10337,"longa":10338,"Ð¼":10339,"Ġukhuphiswano":10340,"Ġebanzi":10341,"Ġngxelo":10342,"ĠIza":10343,"Ġsengqondo":10344,"tulo":10345,"Ġezimnandi":10346,"qabile":10347,"Ġnokugcina":10348,"Ġisiqingatha":10349,"Ġolupheleleyo":10350,"ĠHat":10351,"Ġakufuneki":10352,"brari":10353,"ĠIslands":10354,"Ripha":10355,"Excel":10356,"mvula":10357,"rent":10358,"Ġà¤":10359,"Ġuyin":10360,"ĠNE":10361,"Ġenu":10362,"Ġkweza":10363,"Ġekufeni":10364,"Ġzokutya":10365,"Ġkumele":10366,"Ġwayefuna":10367,"bhiya":10368,"gxile":10369,"kraine":10370,"Ġukumelana":10371,"ĠUnako":10372,"qeqeshwa":10373,"Ukwenza":10374,"linga":10375,"ux":10376,"Ġizibane":10377,"ĠKulo":10378,"ĠIsiCibe":10379,"onwabile":10380,"lindelekanga":10381,"fuduka":10382,"ĠIsiCibemba":10383,"her":10384,"twitter":10385,"yanda":10386,"Ġits":10387,"Ġnasiphi":10388,"valiwe":10389,"tary":10390,"ĠWest":10391,"Ġokusemandleni":10392,"Ġesilandelayo":10393,"Ukususela":10394,"Ġwesithombe":10395,"khanyayo":10396,"saseA":10397,"ĠFrance":10398,"Apple":10399,"GH":10400,"fula":10401,"Ġegu":10402,"Ġkufana":10403,"ĠUC":10404,"inge":10405,"Ġlent":10406,"xolele":10407,"bonwe":10408,"Ġseku":10409,"Ġyenkqubo":10410,"Ġneemeko":10411,"ondela":10412,"star":10413,"Ġzomsebenzi":10414,"ĠUMartin":10415,"enisa":10416,"Ġkuzisa":10417,"ĠkuMoses":10418,"ĠUtsho":10419,"mium":10420,"tura":10421,"Ġmfazi":10422,"Ġisizwe":10423,"fileni":10424,"ĠOo":10425,"jaji":10426,"ĠHumidifier":10427,"Ġakufanele":10428,"ĠNgoJanuwari":10429,"Ankara":10430,"mmy":10431,"public":10432,"Phakamileyo":10433,"73":10434,"Ġiwayini":10435,"khela":10436,"pheng":10437,"Ġnemveliso":10438,"time":10439,"jiwe":10440,"itch":10441,"kaloliwe":10442,"Ġ2006":10443,"This":10444,"sk":10445,"xbet":10446,"zono":10447,"ĠiLizwi":10448,"tson":10449,"hlakani":10450,"Ġweze":10451,"ĠYen":10452,"Ġ48":10453,"qwenele":10454,"ESI":10455,"Mfono":10456,"vy":10457,"Ġwabantu":10458,"Ġbathathe":10459,"Ġsise":10460,"ĠAc":10461,"Ġkwemveliso":10462,"Ġsifo":10463,"Ġngeeng":10464,"Ġndithe":10465,"Ġonzima":10466,"Archi":10467,"welinye":10468,"singqongileyo":10469,"ĠIsiTatar":10470,"klabhu":10471,"Ukongeza":10472,"Ġiphe":10473,"khathi":10474,"ĠIncwadi":10475,"ference":10476,"Portu":10477,"1000":10478,"Os":10479,"Tshin":10480,"lume":10481,"ĠSto":10482,"ĠloMzantsi":10483,"Ġziku":10484,"ĠEast":10485,"Ġemzini":10486,"Malunga":10487,"dibaniso":10488,"perty":10489,"Ġkwakungekho":10490,"Iziphumo":10491,"cademy":10492,"Amer":10493,"Ġukujongana":10494,"kati":10495,"dileyo":10496,"Ġneze":10497,"Ġumzobo":10498,"dalafil":10499,"esile":10500,"phindaphinda":10501,"phumelelayo":10502,"Phakathi":10503,"ĠKusen":10504,"Ġjack":10505,"isene":10506,"Ġibonelela":10507,"Ġambalwa":10508,"Ġohlala":10509,"2000":10510,"Ġwrote":10511,"Ġizixeko":10512,"gqityiweyo":10513,"Ġubutyebi":10514,"lumkisa":10515,"Ġyeendlela":10516,"vuna":10517,"Ġnakwezinye":10518,"Slots":10519,"Val":10520,"ende":10521,"ĠuSirayeli":10522,"tural":10523,"kili":10524,"Ġweng":10525,"Ġnokutya":10526,"ĠWall":10527,"ĠGet":10528,"kwenzayo":10529,"bhuka":10530,"Mowabhi":10531,"sisu":10532,"vunyelwe":10533,"FUM":10534,"side":10535,"lifor":10536,"vas":10537,"Ġezilandelayo":10538,"Ġyokufaka":10539,"enethiwekhi":10540,"Ukufumana":10541,"vey":10542,"ily":10543,"ĠNazi":10544,"gxothwa":10545,"Trans":10546,"Ulawulo":10547,"weden":10548,"main":10549,"ĠNOKU":10550,"Ġzim":10551,"Ġngeelwimi":10552,"Ġund":10553,"ĠLuka":10554,"ĠQhu":10555,"kishi":10556,"Ġlomhlaba":10557,"bility":10558,"phawulekayo":10559,"anzibe":10560,"×Ļ×":10561,"altese":10562,"Ger":10563,"adaptha":10564,"uts":10565,"xan":10566,"ĠiChippa":10567,"Ġwabonisa":10568,"Ġezibu":10569,"rati":10570,"Ġzivela":10571,"ĠWandula":10572,"ISELO":10573,"qikelelwa":10574,"Ġilitye":10575,"Ġkwakufuneka":10576,"Ġphone":10577,"qulathe":10578,"83":10579,"Ndawo":10580,"kene":10581,"Ġukuhlaziywa":10582,"Ġngcaciso":10583,"mide":10584,"thako":10585,"ĠCinga":10586,"bonelelwa":10587,"Ġkumhlaba":10588,"vumeli":10589,"thembele":10590,"mbulala":10591,"sindiswa":10592,"ĠIsiFiji":10593,"ĠIsiCatalan":10594,"Bus":10595,"Uno":10596,"Ġukanti":10597,"Ġinkcubeko":10598,"Ġngokusesikweni":10599,"mbethe":10600,"Ġengo":10601,"Ġingxoxo":10602,"Ġengalunganga":10603,"Ġezingaphezu":10604,"Solar":10605,"Ġikamva":10606,"×ķ×":10607,"Ġiphumelele":10608,"magu":10609,"Ġukuqokelela":10610,"design":10611,"Ġlemi":10612,"khululeka":10613,"Ġisigwebo":10614,"ĠYesu":10615,"kondla":10616,"Back":10617,"Ġngeenjongo":10618,"Iindlela":10619,"Ġuziva":10620,"Ġsomzimba":10621,"qumla":10622,"Latin":10623,"lifornia":10624,"\":":10625,"rump":10626,"thing":10627,"ĠIIN":10628,"Ġkungcono":10629,"ĠUfuna":10630,"ĠkwiYunivesithi":10631,"ĠAt":10632,"Ġkwegama":10633,"Ġsihlale":10634,"Ġamagosa":10635,"Ġiimoto":10636,"phulelo":10637,"Ukuqonda":10638,"enayo":10639,"Ġlokuzi":10640,"ĠKuye":10641,"ĠComments":10642,"Ekugqibeleni":10643,"TI":10644,"Ubomi":10645,"Ġkukwa":10646,"Ġukusebenzisana":10647,"theka":10648,"hlane":10649,"Ġwhen":10650,"Ġimele":10651,"Ġyinkampani":10652,"ĠKwiminyaka":10653,"mpyutha":10654,"pring":10655,"strong":10656,"gorha":10657,"900":10658,"cta":10659,"Ġesemgangathweni":10660,"var":10661,"ĠKanti":10662,"ĠYu":10663,"coun":10664,"Ġokufanayo":10665,"gqithileyo":10666,"nama":10667,"endwendwe":10668,"hlawulwe":10669,"bhili":10670,"thembela":10671,"ĠDigital":10672,"Ġbomzimba":10673,"Ġngoncedo":10674,"khankanya":10675,"thotholo":10676,"Umatshini":10677,"ĠImisebenzi":10678,"Ġosi":10679,"Ġingubo":10680,"Ġngokukhethekileyo":10681,"ĠSur":10682,"kileni":10683,"Ġiziqhamo":10684,"Ġcor":10685,"grafi":10686,"faneleka":10687,"vunyelwa":10688,"khwaza":10689,"cinezela":10690,"ĠÃĹ":10691,"calulo":10692,"Bhenjamin":10693,"81":10694,"gala":10695,"Ġayisi":10696,"Ġukuthandana":10697,"function":10698,"ĠAbaninzi":10699,"mni":10700,"ĠOkwangoku":10701,"Ġlokuthengisa":10702,"Samo":10703,"Ġrecep":10704,"inguqulelo":10705,"Ġkungakhathaliseki":10706,"modyuli":10707,"ffic":10708,"800":10709,"njalo":10710,"range":10711,"matic":10712,"Ġukuwu":10713,"Ġukulala":10714,"Ġinkundla":10715,"tumbuka":10716,"tyelele":10717,"Ġyokubeka":10718,"fayi":10719,"ngaphandle":10720,"ĠInani":10721,"Ġwokushumayela":10722,"ongeze":10723,"Ġkwisigaba":10724,"linganisela":10725,"ĠuAdam":10726,"ĠPremier":10727,"DNA":10728,"Hu":10729,"kli":10730,"lt":10731,"uke":10732,"xelelwa":10733,"Ãª":10734,"Ġaph":10735,"wei":10736,"Ġngantoni":10737,"dar":10738,"Ġkunoko":10739,"ĠneC":10740,"ĠTri":10741,"Ġesithile":10742,"Ġoluhle":10743,"bonakalise":10744,"balala":10745,"INdu":10746,"ĠNdicinga":10747,"ĠIsiChitumbuka":10748,"hloniphe":10749,"Phuhliso":10750,"tshumayeli":10751,"Phambili":10752,"aster":10753,"Ġeta":10754,"mate":10755,"ĠUR":10756,"casa":10757,"ĠBer":10758,"Ġwere":10759,"cie":10760,"Ġndili":10761,"sure":10762,"Ġnabasebenzi":10763,"ĠIinkcukacha":10764,"ĠEngine":10765,"ĠManufactur":10766,"Nkqubo":10767,"pres":10768,"Ġuthenge":10769,"yers":10770,"Ġbale":10771,"Ġamabali":10772,"Ġezinike":10773,"phos":10774,"arani":10775,"Ġluye":10776,"Ġengundoqo":10777,"ĠÂ©":10778,"Ġukwamkela":10779,"ĠUyakwazi":10780,"Ġayinaku":10781,"ÙĦ":10782,"Ġï¼":10783,"iswanga":10784,"bulumko":10785,"ĠSundowns":10786,"ĠBy":10787,"Ġdollar":10788,"hlolisise":10789,"steroids":10790,"Yise":10791,"ĠIbhetri":10792,"tofu":10793,"Ġinkunkuma":10794,"Ġyewebhu":10795,"Ġngokuhlwa":10796,"angasina":10797,"Ġkwehlabathi":10798,"cies":10799,"ĠWork":10800,"duko":10801,"trate":10802,"phelelwe":10803,"rhamncwa":10804,"ĠÐº":10805,"ĠUKUBA":10806,"ĠIsiPangasina":10807,"bhengeze":10808,"Dwarha":10809,"Qum":10810,"abo":10811,"sintsi":10812,"Ġphepha":10813,"anta":10814,"Ġukhu":10815,"isin":10816,"Ġnamanzi":10817,"ĠMguquli":10818,"Ġbucala":10819,"thandela":10820,"ciphise":10821,"Ġunokwenza":10822,"Thutho":10823,"Ġkhosi":10824,"RM":10825,"THA":10826,"blogi":10827,"sent":10828,"wala":10829,"Ġekhethiweyo":10830,"Ġukubala":10831,"rabha":10832,"Ġsili":10833,"Ġlike":10834,"qiniseke":10835,"ick":10836,"qand":10837,"rter":10838,"ziseko":10839,"thwele":10840,"Ġkuy":10841,"Ġkuyin":10842,"yomfuneko":10843,"galo":10844,"Ġobomvu":10845,"Ġind":10846,"Ġneyo":10847,"ĠKonke":10848,"Ġlogama":10849,"Ġabancinci":10850,"Ġolufanelekileyo":10851,"ĠCode":10852,"FUNA":10853,"Ingxelo":10854,"Ġngokugqithisileyo":10855,"White":10856,"ali":10857,"lle":10858,"Ġiphupha":10859,"Ġebha":10860,"lutions":10861,"Ġophakathi":10862,"Ġabavela":10863,"Ġababoneleli":10864,"Ġkwes":10865,"Ġimilinganiselo":10866,"Ġzorhwebo":10867,"Sizwe":10868,"Ġbandi":10869,"urdish":10870,"dibane":10871,"Moto":10872,"ĠRay":10873,"humayela":10874,"Ġibizwa":10875,"yameko":10876,"zinzileyo":10877,"ĠSmart":10878,"Ġcinga":10879,"Ġkumgca":10880,"Ġengakumbi":10881,"ĠsoM":10882,"ĠIimveliso":10883,"yisekile":10884,"ners":10885,"uva":10886,"Ġthuba":10887,"Ġitafile":10888,"Ġkuvu":10889,"kheni":10890,"Ġukubamba":10891,"sakuba":10892,"Ġababa":10893,"ĠOne":10894,"kwesibini":10895,"ongeziweyo":10896,"ĠIinkonzo":10897,"Ġ80":10898,"ĠKey":10899,"ĠPipe":10900,"Ibali":10901,"lati":10902,"Ġkushishino":10903,"sie":10904,"Ġukususa":10905,"Ġyasimahla":10906,"Ġzisebenza":10907,"Ġnokulawula":10908,"more":10909,"teronomi":10910,"qokelelwa":10911,"ĠKuphela":10912,"xhase":10913,"AmaNgqina":10914,"linganiso":10915,"sentshona":10916,"ouse":10917,"ĠIsiMaltese":10918,"phathwayo":10919,"tuthuzelo":10920,"IMPENDULO":10921,"bolone":10922,"inia":10923,"Ġmen":10924,"ĠCredit":10925,"Ġwhat":10926,"page":10927,"sulwa":10928,"India":10929,"Yoshuwa":10930,"londoloza":10931,",...":10932,"jisiweyo":10933,"Ã´":10934,"Ġude":10935,"isha":10936,"lazi":10937,"ĠeJamani":10938,"Ġukukhonza":10939,"ĠneMi":10940,"phico":10941,"ĠngamaNgqina":10942,"tyeya":10943,"Ġmibuzo":10944,"Ġrange":10945,"cessing":10946,"bulale":10947,"qwalaselwa":10948,"Bhabheli":10949,"Ali":10950,"mand":10951,"kuhle":10952,"Ġukonwa":10953,"Ġibh":10954,"master":10955,"ĠISI":10956,"Ġumkhiqizo":10957,"Ġkamnandi":10958,"wenu":10959,"aniel":10960,"heel":10961,"Ġzasendle":10962,"inzima":10963,"Inyathelo":10964,"ĠGir":10965,"Hamba":10966,"ĠNGA":10967,"ĠTour":10968,"Ġcofa":10969,"gcwalisa":10970,"hli":10971,"san":10972,"Ġuzuko":10973,"Ġinja":10974,"Ġintshi":10975,"Ġumba":10976,"dos":10977,"Ġsithethe":10978,"tyelelo":10979,"Ġlili":10980,"veleli":10981,"ĠuMongameli":10982,"tsasa":10983,"ĠYakho":10984,"Abadlali":10985,"xwemeni":10986,"Ġezizimeleyo":10987,"zekiya":10988,"Open":10989,"SF":10990,"aneleyo":10991,"ĠLin":10992,"ducation":10993,"tyali":10994,"phumeleli":10995,"ĠIsiTelugu":10996,"pital":10997,"Ġ01":10998,"esiya":10999,"AutoDesk":11000,"Ġimpembelelo":11001,"Apha":11002,"WC":11003,"ite":11004,"ĠuRa":11005,"ĠuBukumkani":11006,"Ġkuyinto":11007,"ised":11008,"Ġzexabiso":11009,"ĠnoYehova":11010,"manji":11011,"Ġlokuwina":11012,"qalayo":11013,"ĠKuthe":11014,"folo":11015,"ĠZoku":11016,"Ġndisi":11017,"tooth":11018,"lisha":11019,"Ġunge":11020,"fomati":11021,"ĠPlayer":11022,"Kwindla":11023,"ropshipping":11024,"wali":11025,"ishe":11026,"Ġicacile":11027,"Ġukuveliswa":11028,"ĠyeG":11029,"bule":11030,"thaka":11031,"tex":11032,"ĠweM":11033,"Ġthere":11034,"ĠYiba":11035,"mfama":11036,"ishiya":11037,"Marko":11038,"Ġulwalamano":11039,"phonononga":11040,"DS":11041,"Fu":11042,"kce":11043,"Ġebun":11044,"loso":11045,"Ġukulandela":11046,"umsebenzi":11047,"Ġlokwenene":11048,"Ġzihamba":11049,"Ġyokuvelisa":11050,"facebook":11051,"Ġkweentsuku":11052,"PHELA":11053,"Ġezisem":11054,"QAKU":11055,"gqeba":11056,"attery":11057,"ĠKurmanji":11058,"Ġiiseli":11059,"angqina":11060,"Ġezikwi":11061,"Ġsikolo":11062,"elelweni":11063,"bhanti":11064,"Hezekiya":11065,"Ġngentsimbi":11066,"dliwano":11067,"qamlezo":11068,"bhisalom":11069,"ĠAkun":11070,"Ġlise":11071,"Ġamatye":11072,"Ġamacandelo":11073,"ĠEuro":11074,"Ġabano":11075,"hlengahl":11076,"Ġliqela":11077,"Ġimibutho":11078,"Ġbelizwe":11079,"Ġnomoya":11080,"ĠuMar":11081,"gwetywa":11082,"Ġngeenyawo":11083,"langan":11084,"Ġyangasese":11085,"Ġenobu":11086,"eroon":11087,"ronike":11088,"Efra":11089,"UPHA":11090,"endi":11091,"ĠUDavide":11092,"illa":11093,"Ġkwabakho":11094,"Ġitekisi":11095,"dlwengu":11096,"qinisekisiweyo":11097,"()":11098,"ysi":11099,"Ġmboleko":11100,"istra":11101,"kholisa":11102,"engiswa":11103,"omntu":11104,"hlole":11105,"hlulwe":11106,"gcino":11107,"Ġlwazo":11108,"Ġesweni":11109,"Ġyindoda":11110,"Ġibekwe":11111,"meleza":11112,"thuthuzela":11113,"yanzeliswa":11114,"Ġkwiintlanganiso":11115,"ĠCoinfalls":11116,"Ġnxaxheba":11117,"Ġuzin":11118,"wam":11119,"luvo":11120,"Ġukugqiba":11121,"bopha":11122,"bekwe":11123,"mical":11124,"ĠSA":11125,"mbiza":11126,"ĠCO":11127,"Ġubuxoki":11128,"ĠZOKU":11129,"ĠuMzantsi":11130,"ĠHealth":11131,"Ġezinokuthi":11132,"thungelwano":11133,"jiswe":11134,"qweni":11135,"vent":11136,"khombe":11137,"khokelwa":11138,"ĠAna":11139,"Ġiifowuni":11140,"bunjineli":11141,"Inani":11142,"Ġngulo":11143,"Ġkwincwadi":11144,"Ġpor":11145,"Copy":11146,"Ġphondo":11147,"ĠzikaThixo":11148,"BONISELO":11149,"dge":11150,"ets":11151,"ĠÑ":11152,"Ġhu":11153,"ĠeBhayi":11154,"Ġathathe":11155,"los":11156,"hombisa":11157,"Ġkwafika":11158,"Ġnexabiso":11159,"hlakalo":11160,"Ġngalunye":11161,"Ġamahle":11162,"Ġamalungiselelo":11163,"Ġleminyaka":11164,"Ġezing":11165,"inayo":11166,"Ġnophuhliso":11167,"kiwe":11168,"mema":11169,"chuluman":11170,"veliswe":11171,"olda":11172,"Ġwendlela":11173,"Ġndisa":11174,"Ġiyakwazi":11175,"ISWA":11176,"Ġngomso":11177,"Ġobuhle":11178,"Ġkwendlu":11179,"noba":11180,"Kwaku":11181,"thenjwa":11182,"Ġakunakwenzeka":11183,"Che":11184,"Eye":11185,"Solomon":11186,"ah":11187,"jana":11188,"kumbulo":11189,"Ġuhleli":11190,"Ġehlo":11191,"Ġkufunda":11192,"yimfuneko":11193,"Ġlock":11194,"dosi":11195,"doqo":11196,"lelayo":11197,"Ġnobunzima":11198,"Ġangaphandle":11199,"ãĥ¼":11200,"!âĢĻ":11201,"Mpilo":11202,"Ġab":11203,"loyiko":11204,"Ġukulinganisa":11205,"okuthi":11206,"dare":11207,"erandi":11208,"Ġwabuza":11209,"Ġngaso":11210,"valelwa":11211,"Ġezikhethiweyo":11212,"Ġababen":11213,"quot":11214,"cedwa":11215,"ĠMin":11216,"citshiswa":11217,"Ġlikhulu":11218,"khuselwe":11219,"DAWO":11220,"thembekile":11221,"ĠChat":11222,"Ġmanzi":11223,"ĠSupp":11224,"Ġyimfumba":11225,"ĠIsiKikaonde":11226,"politan":11227,"Ġtri":11228,"ists":11229,"khredithi":11230,"Ġukuhla":11231,"Ġofanelekileyo":11232,"Ġsmart":11233,"Ġnet":11234,"ĠMpuma":11235,"tshaya":11236,"ĠOut":11237,"Ġ02":11238,"Ġ90":11239,"Ġukwakhiwa":11240,"Loliwe":11241,"Ġesasi":11242,"Italian":11243,"Ġkhumbula":11244,"Ġgames":11245,"jingalwazi":11246,"Ayi":11247,"Eksodus":11248,"enna":11249,"ĠuEliya":11250,"thiweyo":11251,"hlazo":11252,"ĠKWA":11253,"Ġyokulawula":11254,"ĠPu":11255,"inezela":11256,"kwere":11257,"Ġbanike":11258,"khawulezileyo":11259,"ĠNgoSeptemba":11260,"cell":11261,"ĠRoad":11262,"Qumrhu":11263,"Ulwazi":11264,"Ġioli":11265,"Ġafanelekileyo":11266,"Ġukuguqulwa":11267,"Ġkwada":11268,"Ġngamehlo":11269,"Ġngeyona":11270,"ĠMB":11271,"iland":11272,"Ġkokun":11273,"ĠUmhlaba":11274,"Ġkomthetho":11275,"Ġneziphumo":11276,"amava":11277,"USB":11278,"gidimi":11279,"NABShow":11280,"MPTE":11281,"yula":11282,"kuyu":11283,"lat":11284,"Ġobalulekileyo":11285,"Ġinye":11286,"Ġyesin":11287,"mily":11288,"Ġabaphathi":11289,"referen":11290,"khefu":11291,"hlele":11292,"ĠPhi":11293,"chester":11294,"ameroon":11295,"zure":11296,"qili":11297,"asy":11298,"Ngokuqinisekileyo":11299,"dlelane":11300,"Timoti":11301,"Ġzangaphakathi":11302,"kwandiswa":11303,"CH":11304,"Zin":11305,"its":11306,"ply":11307,"sithandathu":11308,"Ġukufika":11309,"omen":11310,"Ġezibi":11311,"Ġeziphantsi":11312,"Ġzikhona":11313,"lungiswe":11314,"Ġwand":11315,"poswa":11316,"Ġzokufumana":11317,"Masipala":11318,"isebenz":11319,"Ġkokutya":11320,"Ġnentsapho":11321,"Ġemikhulu":11322,"ĠQa":11323,"renbolone":11324,"Katolika":11325,"Ġsub":11326,"Ġiyonke":11327,"tempile":11328,"vision":11329,"xeshana":11330,"ĠâĻª":11331,"Bit":11332,"FM":11333,"ĠIZ":11334,"hobe":11335,"Ġyegama":11336,"fung":11337,"ĠSamuweli":11338,"ĠEl":11339,"Ukuhamba":11340,"Ġsokun":11341,"ĠNgale":11342,"ĠNgapha":11343,"Pay":11344,"ĠAmaNgqina":11345,"Ġwamashumi":11346,"ĠIsiHindi":11347,"Ġekhayeni":11348,"phakanyiswa":11349,"KHA":11350,"bby":11351,"ese":11352,"nes":11353,"wada":11354,"banini":11355,"ery":11356,"ĠUPawulos":11357,"Ġkwizinga":11358,"Ġyentengiso":11359,"Ġiintshaba":11360,"manqindi":11361,"pass":11362,"Ġizithuba":11363,"Ġsakwa":11364,"Siza":11365,"Ġengapheliyo":11366,"ĠNgamana":11367,"add":11368,"Ġiintloko":11369,"ĠIindlela":11370,"lanjeni":11371,"Hausa":11372,"Ġelincinane":11373,"ĠuYoshuwa":11374,"endlebe":11375,"gg":11376,"igama":11377,"anna":11378,"Ġkuphila":11379,"Ġbabone":11380,"Ġmane":11381,"dlalela":11382,"ĠngoThixo":11383,"methyl":11384,"phutha":11385,"ĠOf":11386,"vic":11387,"sue":11388,"Ġeshushu":11389,"lished":11390,"Ġlesizwe":11391,"Jack":11392,"thanjiswa":11393,"ĠIsiLat":11394,"Korinte":11395,"Ang":11396,"Abraham":11397,"Spanish":11398,"èĭ":11399,"Ġizwi":11400,"khanga":11401,"Ġyayis":11402,"onald":11403,"dware":11404,"ors":11405,"ĠLights":11406,"stile":11407,"unici":11408,"Ġzinika":11409,"Ġ400":11410,"ELWE":11411,"ĠNdiye":11412,"National":11413,"pany":11414,"ĠUSD":11415,"ĠFibre":11416,"Tri":11417,"nff":11418,"pend":11419,"Ġnyana":11420,"har":11421,"lozi":11422,"untswana":11423,"hol":11424,"Ġyaqala":11425,"eliya":11426,"Ġngapha":11427,"ĠIsiMi":11428,"wor":11429,"wulwa":11430,"Ġlisi":11431,"ĠEZI":11432,"bhamu":11433,"cheng":11434,"jiweyo":11435,"Ġkumkani":11436,"bhekisa":11437,"Ġpromo":11438,"tsalwa":11439,"Ġiingcinga":11440,"Yiyiphi":11441,"rgf":11442,"Propathi":11443,"ĠwakwaYuda":11444,"George":11445,"assetsnff":11446,"akamai":11447,"assetsnffrgf":11448,"akamaihd":11449,"Ġkm":11450,"Ġikhu":11451,"ĠeUnited":11452,"sium":11453,"Ġukubuyisela":11454,"bot":11455,"ĠkwiC":11456,"Ġezinom":11457,"ĠLIVE":11458,"pact":11459,"Ġezingaphezulu":11460,"Ġeyiyo":11461,"mpuli":11462,"tshatweni":11463,"gqala":11464,"Ġedi":11465,"Ġecocekileyo":11466,"Ġother":11467,"ĠNO":11468,"Ġnew":11469,"ĠNdifuna":11470,"Ġkwingingqi":11471,"ĠneNqaku":11472,"bhloko":11473,"wisa":11474,"xis":11475,"Åŀ":11476,"Ġuxelele":11477,"Ġukhululekile":11478,"Ġibhinqa":11479,"Ġebangela":11480,"Ġkulawulo":11481,"ĠIde":11482,"Ġbathetha":11483,"funga":11484,"tate":11485,"Ġnokholo":11486,"ĠLE":11487,"Ġiinkomo":11488,"Ġiintaka":11489,"Ġisibini":11490,"Ġeliqhelekileyo":11491,"fanelwe":11492,"Ġnemiphumo":11493,"URL":11494,"Ġutyelelo":11495,"Am":11496,"CW":11497,"HIV":11498,"Â·":11499,"Ġnelo":11500,"Ġechanekileyo":11501,"Ġinguqulelo":11502,"esti":11503,"cad":11504,"Ġabahamba":11505,"Ġbefore":11506,"Ġiimali":11507,"bizi":11508,"Ġiinzame":11509,"ĠWar":11510,"gulana":11511,"Ġesidlangalaleni":11512,"Ġcm":11513,"urn":11514,"ulwe":11515,"tsare":11516,"ONI":11517,"Ġisayithi":11518,"Ġasiyi":11519,"ĠeMelika":11520,"Ġmntana":11521,"Ġtrue":11522,"èĭ±":11523,"All":11524,"gvSIG":11525,"elf":11526,"Ġade":11527,"loba":11528,"Ġukuphuhlisa":11529,"ĠkwiGoogle":11530,"engqiqo":11531,"ĠKulula":11532,"Ġendle":11533,"Ġabali":11534,"phics":11535,"Ġekuseni":11536,"Ġcandelo":11537,"Ġlwazi":11538,"Ġnizi":11539,"zaliswe":11540,"Ġnemidlalo":11541,"ĠNgoFebruwari":11542,"Ġlomsebenzisi":11543,"qwalaselo":11544,"ĠGenerator":11545,"Ġuqhagamshelane":11546,"yhadala":11547,"DC":11548,"xhuma":11549,"tags":11550,"Ġunalo":11551,"Ġiimvavanyo":11552,"ĠPet":11553,"ĠMaster":11554,"ĠuMthetho":11555,"ĠEkuqaleni":11556,"thengiswayo":11557,"ĠThis":11558,"ĠService":11559,"ezaposwa":11560,"Ġï¼ŀ":11561,"ĠIsiLatvia":11562,"Giliyadi":11563,"UP":11564,"Ġuqhubeke":11565,"Ġuthumele":11566,"siki":11567,"Ġosebenzisa":11568,"Ġleli":11569,"ĠOS":11570,"Ġimida":11571,"gqibile":11572,"ille":11573,"ĠUmdlalo":11574,"Ġiingoma":11575,"Ġkwabase":11576,"eleleni":11577,"ustry":11578,"Venkile":11579,"chloride":11580,"Hlola":11581,"LLC":11582,"Okokuqala":11583,"mani":11584,"oda":11585,"ugh":11586,"wokuqala":11587,"ella":11588,"ĠePa":11589,"Ġukukhuphela":11590,"Ġyeqela":11591,"mit":11592,"ĠNA":11593,"omandla":11594,"Ġwehlabathi":11595,"ĠGlobal":11596,"thunga":11597,"Ġisahluko":11598,"lamane":11599,"hilipp":11600,"uraÃ§a":11601,"uraÃ§ao":11602,"rum":11603,"Ġfaka":11604,"Ġulwandle":11605,"lilweni":11606,"Ġzoo":11607,"qinisekanga":11608,"minqweno":11609,"Ġkwisiza":11610,"Argent":11611,"ÑĤÐ¾":11612,"rough":11613,"Ġukoyika":11614,"ĠMicrostation":11615,"It":11616,"QO":11617,"nini":11618,"Ġtyala":11619,"Ġmbutho":11620,"inki":11621,"Ġkwakun":11622,"tide":11623,"ĠIsiBi":11624,"ĠST":11625,"Ġmmandla":11626,"Ġziing":11627,"gical":11628,"Ġniye":11629,"Umgangatho":11630,"cacise":11631,"nova":11632,"Ġezingamashumi":11633,"Ġnakwii":11634,"Ġelinesibini":11635,"mpelaveki":11636,"Ġukubukela":11637,"BIM":11638,"Kung":11639,"sikelela":11640,"loku":11641,"kosana":11642,"Ġsur":11643,"Ġumqeqeshi":11644,"qukethe":11645,"Ġezingen":11646,"ĠnoN":11647,"ĠOKU":11648,"veat":11649,"ishoni":11650,"cking":11651,"ĠnguYesu":11652,"qhutyelwa":11653,"ĠyaseMelika":11654,"olombia":11655,"Ġnobuchule":11656,"bandela":11657,"ĠKingdom":11658,"ssetia":11659,"Farisi":11660,"eku":11661,"sekwa":11662,"ĠUkanti":11663,"buyisa":11664,"Ġabasebenza":11665,"rediyo":11666,"quo":11667,"Ġngurhulumente":11668,"dera":11669,"Ġduring":11670,"pers":11671,"ĠNakuba":11672,"hlaziye":11673,"Ġesekwe":11674,"Ã©s":11675,"shicileli":11676,"Pub":11677,"free":11678,"twaneni":11679,"xumi":11680,"ÃĲ":11681,"lamente":11682,"Ġevumela":11683,"Ġukuphatha":11684,"ĠIXESHA":11685,"ĠUng":11686,"Ġezithe":11687,"Ġyokuhlangana":11688,"ĠLang":11689,"Ġisiqinisekiso":11690,"hlog":11691,"Ġzokufunda":11692,"Ġbusuku":11693,"ĠJersey":11694,"shire":11695,"Ġayizange":11696,"Ġengaqhelekanga":11697,"Ġingathi":11698,"xhalabisa":11699,"krexe":11700,"dlweng":11701,"abantu":11702,"Ġiveki":11703,"ziin":11704,"sites":11705,"mava":11706,"Ġukukhutshwa":11707,"Ġbasa":11708,"thobeka":11709,"hlelwe":11710,"Ġwanga":11711,"shing":11712,"Ġimimiselo":11713,"Ġtop":11714,"Ġcam":11715,"Ġangena":11716,"Ġlinoku":11717,"ĠIsiTamil":11718,"By":11719,"fela":11720,"kg":11721,"yme":11722,"Ġja":11723,"zalisa":11724,"div":11725,"Ġkwemini":11726,"Ġzenziwa":11727,"phequlu":11728,"ĠMfono":11729,"giji":11730,"ELELE":11731,"undation":11732,"Ġlaser":11733,"ĠIsland":11734,"yikima":11735,"tween":11736,"ishwankathelo":11737,"Suku":11738,"uz":11739,"Ġbonwa":11740,"ĠuW":11741,"kota":11742,"Ġsisebenzisa":11743,"phakheji":11744,"ĠBank":11745,"ishwe":11746,"Ġzokhuseleko":11747,"Ġyiya":11748,"Ġ55":11749,"Ġnithi":11750,"friend":11751,"Ġeyenzelwe":11752,"Kaizer":11753,"PT":11754,"ĠuLa":11755,"Ġuqonde":11756,"eless":11757,"xazulu":11758,"ĠIsiHausa":11759,"tyelwe":11760,"Ġ1000":11761,"Ġzabucala":11762,"Ġiifom":11763,"enteni":11764,"qinelana":11765,"Ġcredit":11766,"Ġngokubambisana":11767,"bulawe":11768,"Ġusenza":11769,"Ġemnandi":11770,"ĠIsiKikuyu":11771,"Ġlonto":11772,"ĠIsiLuganda":11773,"Ġnumber":11774,"Malawi":11775,"IPHUPHA":11776,"sociation":11777,"phengulu":11778,"Ġetafileni":11779,"Ah":11780,"cangca":11781,"dhi":11782,"whatsapp":11783,"Ġcala":11784,"bathanda":11785,"zizo":11786,"zabala":11787,"Ġback":11788,"Ġkwifowuni":11789,"Ġyeeng":11790,"ingelelo":11791,"Ġzokulwa":11792,"Ġyiyiphi":11793,"dlulisa":11794,"Ġthem":11795,"Ġniyi":11796,"ĠSolar":11797,"dityaniswe":11798,"PO":11799,"Ġahambe":11800,"milo":11801,"ĠIsitimela":11802,"Ġbetween":11803,"Ġiintombi":11804,"bonani":11805,"Ġ41":11806,"phelelanga":11807,"Ġkuthiwe":11808,"Yiba":11809,"Venda":11810,"leleyo":11811,"Ġwu":11812,"kar":11813,"Ġob":11814,"ĠAthi":11815,"ĠBha":11816,"ĠMulti":11817,"inako":11818,"phule":11819,"Ġizizwe":11820,"Ġsaid":11821,"Ġzobomi":11822,"Masi":11823,"Ġkokubhaliweyo":11824,"Ġnenye":11825,"cwabeni":11826,"Ġkumadoda":11827,"jengo":11828,"bandayo":11829,"lahlekelwe":11830,"Ġnangaliphi":11831,"desktop":11832,"Ġubhale":11833,"Fortune":11834,"Ġumcimbi":11835,"hiti":11836,"rew":11837,"Ġabanomdla":11838,"ĠâĢ¦":11839,"Ġnokuhamba":11840,"cuwa":11841,"ĠVir":11842,"Ġkumatshini":11843,"Ġumntana":11844,"dumisa":11845,"Ġekusebenzeni":11846,"Ġsteroids":11847,"ĠFilipina":11848,"unjabi":11849,"veatrain":11850,"Abo":11851,"NY":11852,"ddy":11853,"Ġutyalo":11854,"Ġimbono":11855,"Ġilungele":11856,"Ġukunikela":11857,"Ġingc":11858,"tswa":11859,"Ġyeza":11860,"Ġneminyaka":11861,"ĠUkumkani":11862,"hlutha":11863,"Ġkwinqaku":11864,"gies":11865,"guqulelwe":11866,"bingelela":11867,"dingayo":11868,"tron":11869,"Ġadmin":11870,"ssage":11871,"qubuda":11872,"mishini":11873,"plo":11874,"laxy":11875,"Ġukubetha":11876,"kamba":11877,"eleta":11878,"ĠUhambo":11879,"Ġsinike":11880,"Ġneendleko":11881,"fungo":11882,"ĠES":11883,"ĠEm":11884,"Ġnokuphucula":11885,"ĠTele":11886,"ĠTurkey":11887,"gium":11888,"Ġngomlilo":11889,"Ndifuna":11890,"ĠIsiMalay":11891,"ĠYoung":11892,"streliya":11893,"Ġversion":11894,"ponent":11895,"Argentina":11896,"GC":11897,"Thina":11898,"ath":11899,"tena":11900,"Ġnqanaba":11901,"ense":11902,"Ġkra":11903,"mazulwini":11904,"Ġukukwazi":11905,"Ġukuvavanya":11906,"Ġosebenza":11907,"Ġyokhuseleko":11908,"Ġeneneni":11909,"mbaleki":11910,"Ġkolwazi":11911,"Ġnokufa":11912,"tshate":11913,"Sasa":11914,"mers":11915,"2004":11916,"hlwaya":11917,"Iingcebiso":11918,"ĠngoMgqibelo":11919,"Ġikrele":11920,"ĠImephu":11921,"Ġwamanzi":11922,"mirates":11923,"Ġyengqondo":11924,"ĠMzantsi":11925,"ĠYom":11926,"fiki":11927,"bhayisi":11928,"pound":11929,"Ġyesizwe":11930,"chukum":11931,"Ġlesibini":11932,"ĠIsiOssetia":11933,"ĠIsiKazakh":11934,"High":11935,"eve":11936,"anyano":11937,"Ġkufi":11938,"dayim":11939,"Ġwasebenzisa":11940,"thambisa":11941,"Ġenokuba":11942,"mbath":11943,"Ġwebhola":11944,"Ġunqwenela":11945,"Ġmaku":11946,"Ġesibhedlele":11947,"ĠCamagu":11948,"Ġbomntu":11949,"Ġano":11950,"Ġdrive":11951,"paneli":11952,"ĠuNe":11953,"Ġnalowo":11954,"Ð¾Ð²":11955,"Orlistat":11956,"Ġuqalise":11957,"Ġeluntwini":11958,"Adapter":11959,"Londolo":11960,"sena":11961,"yeneyo":11962,"Ġithathwa":11963,"Ġetempileni":11964,"anase":11965,"Ġngokulandelelana":11966,"cations":11967,"wulayo":11968,"tekisi":11969,"rex":11970,"Ġimvula":11971,"Ġisisu":11972,"bhulo":11973,"Ġ2000":11974,"Ġcash":11975,"ABC":11976,"ĠPack":11977,"buyisele":11978,"PHI":11979,"ĠMarketing":11980,"unaphakade":11981,"Tattoos":11982,"London":11983,"Uthe":11984,"wisela":11985,"Ġimpazamo":11986,"ziya":11987,"Ġukuzenza":11988,"Ġinkwenkwe":11989,"vame":11990,"Ġenyanisweni":11991,"Ġmhlaba":11992,"Ġsiphila":11993,"anikwa":11994,"ceke":11995,"Ġyokudibanisa":11996,"phuka":11997,"Ġokuhle":11998,"Ġzokuhambisa":11999,"Lawula":12000,"ESRI":12001,"Cofa":12002,"velopment":12003,"mbindini":12004,"Ġucofe":12005,"Turkey":12006,"op":12007,"Ġkubun":12008,"Ġokwen":12009,"Ġngeminyaka":12010,"khalenda":12011,"ĠnoYesu":12012,"Ġnokusebenzisa":12013,"duma":12014,"Ġluza":12015,"gorith":12016,"Ġcho":12017,"khitshi":12018,"Ġubuncinci":12019,"cwangcisiweyo":12020,"ĠsikaYehova":12021,"qaqawuli":12022,"Korea":12023,"ĠKorea":12024,"finil":12025,"Asiriya":12026,"endo":12027,"Ġudonga":12028,"Ġuhlalutyo":12029,"yathi":12030,"Ġukuthunyelwa":12031,"Ġnegalelo":12032,"Ġmm":12033,"hefu":12034,"thobeli":12035,"Ġnokufumana":12036,"ingakho":12037,"Ġelingu":12038,"olly":12039,"Ġbangena":12040,"mbulela":12041,"Ġngamava":12042,"Ġyomsebenzisi":12043,"well":12044,"Ġexchange":12045,"kumgangatho":12046,"ĠIsiBatak":12047,"romatherapy":12048,"ĠIsiGuarani":12049,"ccarat":12050,"Vangeli":12051,"Wonke":12052,"class":12053,"lelana":12054,"Ã¨":12055,"yathela":12056,"Ġamatikiti":12057,"Ġizihloko":12058,"tere":12059,"ston":12060,"ĠMay":12061,"Ġkukhokelela":12062,"mission":12063,"Ndiza":12064,"Ġhydro":12065,"Ġzomthetho":12066,"ĠProject":12067,"ĠKakade":12068,"Ġanesihlanu":12069,"ĠIsiLuo":12070,"Ngilani":12071,"Nigeria":12072,"Sport":12073,"TC":12074,"elp":12075,"Ġnanye":12076,"Ġkuti":12077,"Ġyebhola":12078,"Ġngokulinganayo":12079,"Ġmgama":12080,"ĠBra":12081,"Ġisithunywa":12082,"cian":12083,"Ġnjengomntu":12084,"Ġzabathengi":12085,"khwalithi":12086,"yonto":12087,"saseCuraÃ§ao":12088,"Ġmpawu":12089,"Merika":12090,"Nkanga":12091,"ezin":12092,"gers":12093,"onon":12094,"Ġukuhlola":12095,"mbisi":12096,"saveatrain":12097,"gqungquthela":12098,"Ġokung":12099,"bhunga":12100,"ĠOonyana":12101,"Ġzokuzi":12102,"Ġoluvela":12103,"Ġbho":12104,"ĠKuku":12105,"Ġakuba":12106,"Ġzinike":12107,"Amagama":12108,"Ġungenza":12109,"ĠTool":12110,"khwetha":12111,"Ġkwintengiso":12112,"Ġzonqulo":12113,"dants":12114,"sweleka":12115,"xhumanisi":12116,"Ġkhetho":12117,"Imisebenzi":12118,"yulu":12119,"ency":12120,"Ġudidi":12121,"pher":12122,"Ġnayi":12123,"theyibhile":12124,"Ġnomxholo":12125,"olose":12126,"ndlebe":12127,"Ġkwento":12128,"Ġ08":12129,"Ġngokwesi":12130,"ICom":12131,"conywa":12132,"Ġkungenzeka":12133,"luminiyam":12134,"ĠenguM":12135,"ÑģÐºÐ¸Ð¹":12136,"Slot":12137,"West":12138,"kqo":12139,"ÙĪ":12140,"ences":12141,"magazini":12142,"Ġukushumayela":12143,"ands":12144,"Ġkwivenkile":12145,"engiselwano":12146,"Ġyoyilo":12147,"phose":12148,"Ġelino":12149,"Ġzokukhangela":12150,"kunike":12151,"ĠyaseC":12152,"Ġ800":12153,"Ġisabelo":12154,"Ġendandi":12155,"Ġabangaphezu":12156,"zenzele":12157,"dustri":12158,"ellite":12159,"backlinks":12160,"twa":12161,"laza":12162,"Ġiga":12163,"Ġaa":12164,"Ġukuphepha":12165,"bukeka":12166,"ĠNDI":12167,"til":12168,"Ġezizayo":12169,"aniya":12170,"kwamkela":12171,"bhaliswa":12172,"Ġlubonisa":12173,"jike":12174,"Ġbakhetha":12175,"Ġubuntu":12176,"ĠNgoba":12177,"Ġkweenyanga":12178,"ĠPirates":12179,"hedyuli":12180,"Ok":12181,"WW":12182,"dya":12183,"ĠuJo":12184,"wards":12185,"lim":12186,"ĠUphando":12187,"Ġsent":12188,"Ġezimangalisayo":12189,"wubona":12190,"raji":12191,"Ġkwesinye":12192,"Ġimiphefumlo":12193,"Ġsalo":12194,"bonakaliso":12195,"ongolo":12196,"Ġnabafundi":12197,"Point":12198,"Ġkunikwa":12199,"Ġelingenam":12200,"Ġkwisayithi":12201,"wasahlobo":12202,"YIBH":12203,"Au":12204,"GD":12205,"Kwe":12206,"Ġiis":12207,"map":12208,"Ġukufundisa":12209,"Ġbaqala":12210,"Ġyesebe":12211,"Ġabaqhubi":12212,"Ġzempilo":12213,"quke":12214,"mbiwa":12215,"ongress":12216,"kiti":12217,"Ġunder":12218,"Ġlalo":12219,"antongo":12220,"ĠUkunga":12221,"name":12222,"etrie":12223,"Ġbakholelwa":12224,"Ngexesha":12225,"ĠEndaweni":12226,"Ġsupp":12227,"andoff":12228,"ĠThatha":12229,"ĠeLondon":12230,"sungulwa":12231,"SD":12232,"ulic":12233,"Ġkhawu":12234,"Ġehla":12235,"Ġak":12236,"micro":12237,"Ġumqondiso":12238,"Ġencwadini":12239,"racle":12240,"Ġlya":12241,"Ġlina":12242,"Ġzezona":12243,"Ġmathathu":12244,"Ġntombi":12245,"Ġbodwa":12246,"khonto":12247,"chibi":12248,"Ġiintlanganiso":12249,"onwabela":12250,"2006":12251,"Ð°ÑĤ":12252,"ĠIngxelo":12253,"Ġguy":12254,"terial":12255,"tyumzi":12256,"Ġ....":12257,"Ġuphela":12258,"Ġathethe":12259,"Ġaphinde":12260,"ĠNoku":12261,"dex":12262,"Ġweshumi":12263,"Ġzazin":12264,"Ġsex":12265,"ally":12266,"thandabuzo":12267,"Umhla":12268,"Ġkwiindlela":12269,"ĠUnion":12270,"ĠImibuzo":12271,"Nowa":12272,"Ġwebcam":12273,"bheno":12274,"Py":12275,"TM":12276,"pra":12277,"singatha":12278,"Ġ;":12279,"ĠuV":12280,"dalwe":12281,"Ġkuninzi":12282,"ĠUdidi":12283,"ĠAcetate":12284,"Ġzewebhu":12285,"Ġisitya":12286,"alle":12287,"yanya":12288,"bhotile":12289,"Ġngamadoda":12290,"Ġkomdlalo":12291,"ranantongo":12292,"addy":12293,"HAYIBH":12294,"ĠCofa":12295,"saseBolivia":12296,"rust":12297,"Ġonamandla":12298,"mpumalanga":12299,"hwebo":12300,"cm":12301,"ĠkuDavide":12302,"Ġophantsi":12303,"Ġkwandisa":12304,"ĠUsuku":12305,"Ġyokusetyenziswa":12306,"pasho":12307,"Ġyendlu":12308,"ONTO":12309,"Ġkwizifundo":12310,"Ġngokwam":12311,"dweba":12312,"Ġesezantsi":12313,"Bhahali":12314,"khuphele":12315,"Ġtrain":12316,"fumaneni":12317,"visisana":12318,"Ġowenziwe":12319,"Kus":12320,"cano":12321,"nc":12322,"zbek":12323,"Ġafe":12324,"ĠIcandelo":12325,"ĠIselula":12326,"Ġos":12327,"Ġbafika":12328,"mizwa":12329,"Ġsona":12330,"tampu":12331,"Ġlobun":12332,"tshana":12333,"Ġlokuzalwa":12334,"chaziwe":12335,"ĠGPS":12336,"stro":12337,"iling":12338,"Ġflower":12339,"balalisa":12340,"Ġyenkampani":12341,"ĠYiloo":12342,"ĠDire":12343,"Ġnangenxa":12344,"hlaseli":12345,"Ġukwenziwa":12346,"londolozo":12347,"qulunqwa":12348,"ĠngoMvulo":12349,"chanileyo":12350,"kliniki":12351,"ader":12352,"wpub":12353,"xel":12354,"eles":12355,"bophelela":12356,"busika":12357,"Ġsini":12358,"khephe":12359,"Ġmusani":12360,"Ġnothando":12361,"Ġlathi":12362,"enekazi":12363,"Ġmaxa":12364,"Ġzolawulo":12365,"ĠGreen":12366,"Ġfriend":12367,"Ġkwiimpawu":12368,"ĠYathi":12369,"Khayelitsha":12370,"Komiti":12371,"Ġkusenokuba":12372,"RIS":12373,"zentlalo":12374,"Ġfan":12375,"ĠItyala":12376,"elect":12377,"Ġyazi":12378,"hem":12379,"ĠCra":12380,"Ġisikhokelo":12381,"ged":12382,"wanyama":12383,"fumanayo":12384,"Ġband":12385,"ukuze":12386,"omasipala":12387,"Ġbesiya":12388,"tshabalalise":12389,"Ġnokunciphisa":12390,"ĠArc":12391,"tshatileyo":12392,"ĠKAKHULU":12393,"ccer":12394,"ire":12395,"okelela":12396,"qr":12397,"ĠØ":12398,"Ġubeka":12399,"wayi":12400,"ĠID":12401,"Ġosemthethweni":12402,"ĠUlawulo":12403,"Ġshow":12404,"Ġyaso":12405,"hlambi":12406,"cembe":12407,"tshise":12408,"gqitywe":12409,"ĠFlo":12410,"ĠKuyinto":12411,"ĠyiN":12412,"Ġbano":12413,"Ġkokufa":12414,"Ġkwiimfuno":12415,"ĠNgokufanayo":12416,"ĠuMnu":12417,"ĠÂ·":12418,"Ġngamagama":12419,"zaliswa":12420,"ĠIsiKwanyama":12421,"Ġ06":12422,"Lizwe":12423,"UMA":12424,"Ġasibhozo":12425,"camngca":12426,"xhun":12427,"gulayo":12428,"Filipi":12429,"hurch":12430,"Ġilahleko":12431,"etrieved":12432,"Ġuzo":12433,"Ġigolide":12434,"maphandleni":12435,"Ġukukunceda":12436,"bom":12437,"ision":12438,"Ġabaxhasi":12439,"Ġlokwenza":12440,"ciko":12441,"pat":12442,"alonika":12443,"Ġoluzenzekelayo":12444,"goo":12445,"Ġkwiiyure":12446,"fundayo":12447,"ĠIsiSranantongo":12448,"Ġzasekhaya":12449,"hlaziyiweyo":12450,"imeyili":12451,"Ġngasekunene":12452,"ĠuYeho":12453,"ĠArchi":12454,"zalisekisa":12455,"kathazo":12456,"Singa":12457,"hydra":12458,"iro":12459,"zeleli":12460,"kopi":12461,"ĠStudio":12462,"Ġbecala":12463,"ĠLwa":12464,"Ġubukho":12465,"Ġkumaziko":12466,"Ġungazi":12467,"lisele":12468,"ĠAmadoda":12469,"ĠIinkqubo":12470,"tshatanga":12471,"fakiwe":12472,"ĠISilozi":12473,"okies":12474,"ambuzane":12475,"Ð¿":12476,"Ġmbo":12477,"kus":12478,"ĠiMi":12479,"Ġukusika":12480,"Ġohamba":12481,"bole":12482,"ersi":12483,"Ġkwidolophu":12484,"Ġkwilali":12485,"buchwepheshe":12486,"Ġyaya":12487,"xabela":12488,"Ġngokukhululekileyo":12489,"thutyana":12490,"Ġyanamhlanje":12491,"Ġngezinye":12492,"Ġlemveliso":12493,"ĠMelika":12494,"fati":12495,"cot":12496,"inethi":12497,"Ġ39":12498,"ĠWaphendula":12499,"Umfanekiso":12500,"fanekis":12501,"linear":12502,"ĠNGO":12503,"Real":12504,"anuary":12505,"sindisi":12506,"ĠDownload":12507,"Bona":12508,"ote":12509,"qan":12510,"Ġifana":12511,"Ġkudlala":12512,"ĠIC":12513,"bour":12514,"Ġabathe":12515,"Ġamabandla":12516,"ĠBlythe":12517,"Ġbeba":12518,"Ġlaa":12519,"Ġeliphakathi":12520,"mna":12521,"Ġimiqondiso":12522,"Ġngumzekelo":12523,"Ġnabaqhubi":12524,"irst":12525,"ZIKO":12526,"Hezekile":12527,"Ġphesheya":12528,"Budd":12529,"ĠNdand":12530,"gonyam":12531,"Ġabenzi":12532,"caserin":12533,"uM":12534,"yne":12535,"mamela":12536,"Ġukubuyela":12537,"Ġinama":12538,"ĠIsiVenda":12539,"Ġabafileyo":12540,"ĠMini":12541,"Ġzamanzi":12542,"Ġisiqendu":12543,"Ġolulandelayo":12544,"Ġwoo":12545,"Ġingena":12546,"Ġnabazalwana":12547,"Isixhobo":12548,"ĠRepublic":12549,"keleni":12550,"dakamizwa":12551,"gqithiseleyo":12552,"gquma":12553,"gqoka":12554,"Ġngokwezifiso":12555,"AI":12556,"indlela":12557,"Ġutshintshe":12558,"galela":12559,"Ġaz":12560,"luko":12561,"Ġukuyeka":12562,"Ġbambi":12563,"fakelo":12564,"citho":12565,"ĠYini":12566,"Ġnjengeng":12567,"shiso":12568,"khuhlane":12569,"Ġiming":12570,"ĠBaccarat":12571,"Ġngokobu":12572,"ĠSiye":12573,"Ġwayesazi":12574,"ANE":12575,"Ġungasebenzisa":12576,"Iimpendulo":12577,"ĠIzibane":12578,"ilable":12579,"Bhala":12580,"Je":12581,"Ġnantsi":12582,"zimpu":12583,"Ġathanda":12584,"Ġabone":12585,"vada":12586,"Ġabathanda":12587,"Ġabaprofeti":12588,"Ġiinqwelo":12589,"Ġzokucoca":12590,"ils":12591,"ates":12592,"kwela":12593,"Ġyomthetho":12594,"khathaza":12595,"Ġdownload":12596,"Ġhayibo":12597,"ĠIsiPunjabi":12598,"tshatile":12599,"Ġself":12600,"QALA":12601,"phambukeli":12602,"Ġmbandela":12603,"planethi":12604,"War":12605,"misipha":12606,"},":12607,"Ġlung":12608,"enokuba":12609,"lovu":12610,"Ġukuphazamiseka":12611,"Ġngcembe":12612,"lian":12613,"Ġofanayo":12614,"mics":12615,"Ġsplit":12616,"dodana":12617,"Ġmfanekiso":12618,"ĠMon":12619,"cofa":12620,"pholile":12621,"ĠOK":12622,"Ġnjengenxalenye":12623,"Ġyento":12624,"put":12625,"Paste":12626,"msg":12627,"ĠngesiNgesi":12628,"selwandle":12629,"Thenga":12630,"fikeleleka":12631,"thinjwa":12632,"ffa":12633,"Ġuvuyo":12634,"Ġeyan":12635,"khohla":12636,"zinzulu":12637,"Ġyebhanki":12638,"Ġimigangatho":12639,"Ukusuka":12640,"missions":12641,"phakamise":12642,"Ġngokwesondo":12643,"xhasayo":12644,"vumelekile":12645,"goduka":12646,"Bar":12647,"blo":12648,"ski":12649,"Ġntsholongwane":12650,"ĠIbhokisi":12651,"Ġintshukumo":12652,"Ġkwesisindo":12653,"ĠMc":12654,"fied":12655,"ĠOffice":12656,"Ġlwemi":12657,"ĠHouse":12658,"stant":12659,"Ġngomoya":12660,"ĠYayi":12661,"kelelwe":12662,"Ġobuninzi":12663,"yamezele":12664,"hlanganisana":12665,"bhekiselele":12666,"GE":12667,"km":12668,"iniseka":12669,"kop":12670,"err":12671,"Ġezihambelana":12672,"sage":12673,"Ġabaqeqeshi":12674,"ĠSin":12675,"Ġmzuzu":12676,"ĠCho":12677,"ĠLwe":12678,"Ġndicela":12679,"Ġekutheng":12680,"ĠseN":12681,"mistry":12682,"Ġnemigaqo":12683,"ĠIindawo":12684,"Ngilane":12685,"zimpuzi":12686,"Dan":12687,"Mhlawumbi":12688,"Qinisekisa":12689,"Zwelonke":12690,"ule":12691,"Ġvidiyo":12692,"ĠeF":12693,"sihlalo":12694,"kakhe":12695,"Ġneqabane":12696,"Ġumlawuli":12697,"demo":12698,"Ġsijonge":12699,"Ġyokufa":12700,"Ġyokutshintsha":12701,"Ġisiganeko":12702,"Ġkokufumana":12703,"ongezelelo":12704,"xekweni":12705,"tyebileyo":12706,"Lucas":12707,"2005":12708,"qhotyo":12709,"Ġusisi":12710,"khompyuter":12711,"melene":12712,"Desktop":12713,"Aprili":12714,"Ividiyo":12715,"WU":12716,"Ġuk":12717,"zalwane":12718,"thiya":12719,"Ġbaqonde":12720,"Ġezibandakanya":12721,"sala":12722,"Ġamabala":12723,"Ġyokucoca":12724,"ĠBentley":12725,"ĠCe":12726,"ĠControl":12727,"Ġsemi":12728,"Ġisisi":12729,"Ġbuza":12730,"lwelo":12731,"Ġngamatye":12732,"kistan":12733,"Lowo":12734,"ingubo":12735,"mbhobho":12736,"xubusha":12737,"Europe":12738,"\\\"":12739,"dra":12740,"fy":12741,"ĠuBawo":12742,"bes":12743,"Ġbazama":12744,"ength":12745,"anic":12746,"Ġzale":12747,"ĠPol":12748,"aris":12749,"jamelana":12750,"Ġlokuhlambela":12751,"bunjwa":12752,"ĠzoBukumkani":12753,"Ġkwinkampani":12754,"qhina":12755,"Ġnomthetho":12756,"Ġ5000":12757,"Ġ44":12758,"INGA":12759,"hlaselo":12760,"Ġkubuya":12761,"khunju":12762,"Char":12763,"ĠValley":12764,"thatyathwa":12765,"bina":12766,"lf":12767,"lant":12768,"Ġknow":12769,"Ġkuqinisekisa":12770,"Ġkuthathwa":12771,"lulo":12772,"town":12773,"zinwele":12774,"ĠyeZi":12775,"Ġyaziwa":12776,"sawu":12777,"ĠAsia":12778,"Ġsicinga":12779,"mpulu":12780,"Ġnoma":12781,"Ġkombane":12782,"Ġliku":12783,"ĠTer":12784,"chongwa":12785,"vuke":12786,"ĠNdiyi":12787,"tratweni":12788,"phind":12789,"ondlebe":12790,"lastic":12791,"lahlekileyo":12792,"ĠTraining":12793,"IFA":12794,"Njengokuba":12795,"Ġmsg":12796,"sondeza":12797,"phequluli":12798,"dantsane":12799,"Bur":12800,"plani":12801,"Ġufumene":12802,"Ġurhwebo":12803,"yoKwindla":12804,"Ġngoma":12805,"ĠBAB":12806,"Ġzakudala":12807,"phulwa":12808,"Ġekufumaneni":12809,"vumelani":12810,"Ġonly":12811,"Ġnenani":12812,"Ġ42":12813,"guqulelwa":12814,"Sara":12815,"Ġkwenyanga":12816,"ffff":12817,"ĠzeeN":12818,"Ġukwahlula":12819,"Khawu":12820,"phucule":12821,"asethi":12822,"melodi":12823,"Pat":12824,"Ġhle":12825,"libala":12826,"Ġookumkani":12827,"yiqonda":12828,"Ġintsha":12829,"benzi":12830,"kanuko":12831,"Ġezithandwayo":12832,"ngoko":12833,"Ġezinqabileyo":12834,"Ġwel":12835,"manci":12836,"Ġmachine":12837,"Ġseries":12838,"Ġwenziwe":12839,"ĠMail":12840,"ĠIsiKurdish":12841,"Ġemitsha":12842,"wundi":12843,"ĠFaka":12844,"ptop":12845,"ĠIsiTahiti":12846,"Zapo":12847,"ququzelela":12848,"%,":12849,"Oo":12850,"danda":12851,"epali":12852,"Ġulungele":12853,"Ġuceba":12854,"iselweyo":12855,"Ġkusebenzisa":12856,"Ġkufike":12857,"digital":12858,"beki":12859,"ĠUye":12860,"Ġscreen":12861,"Ġabathathi":12862,"Ġzisebenzisa":12863,"ĠClub":12864,"ĠnoT":12865,"Ġbet":12866,"Ġbeca":12867,"ĠUkusebenza":12868,"pore":12869,"ĠOff":12870,"Ġwokuzalwa":12871,"ĠIsiKongo":12872,"ĠQinisekisa":12873,"ĠRed":12874,"diac":12875,"Coil":12876,"mputha":12877,"?âĢĿ+":12878,"Ġelingundoqo":12879,"Ġfirst":12880,"ritz":12881,"gqubu":12882,"jululwa":12883,"qongophala":12884,"Samoa":12885,"gonyamelo":12886,".âĢĭâĢĶ":12887,"seli":12888,"Ġilandelayo":12889,"Ġiqulethe":12890,"Ġasebenza":12891,"ĠAmen":12892,"Ġbebhola":12893,"memo":12894,"ĠTsha":12895,"bunga":12896,"xhaswe":12897,"ĠNgokutsho":12898,"iddle":12899,"Ġukundi":12900,"ÐµÑĤ":12901,"ĠLife":12902,"ĠIsiPersi":12903,"prise":12904,"ĠLighting":12905,"Shishini":12906,"phaneli":12907,"ciety":12908,"HAYIBHILE":12909,"My":12910,"uya":12911,"injini":12912,"Ġnin":12913,"Ġbade":12914,"ĠUV":12915,"ĠArt":12916,"Ġzevidiyo":12917,"Ġamaphupha":12918,"Ġwema":12919,"Ġbesa":12920,"Ġlaku":12921,"shen":12922,"Ukunga":12923,"Ġlokudlala":12924,"ĠFun":12925,"ĠVIP":12926,"omathotholo":12927,"Ġkwimiba":12928,"ĠIsiNepali":12929,"rger":12930,"Ġtable":12931,"OMG":12932,"tshintshela":12933,"xygen":12934,"eshoni":12935,"Ġbhetele":12936,"Daniyeli":12937,"NUMX":12938,"mfihlo":12939,"Ġbha":12940,"Ġbhanya":12941,"Ġucele":12942,"onk":12943,"Ġasebenze":12944,"Ġacetate":12945,"luk":12946,"ĠNdingu":12947,"ĠKunga":12948,"Ġencode":12949,"ĠAprili":12950,"ĠSil":12951,"Ġkwegazi":12952,"Ġngezo":12953,"ustri":12954,"Ġlokuhlala":12955,"Ġ\");":12956,"Ġbhu":12957,"ĠKuma":12958,"ĠNgokunga":12959,"ult":12960,"Passage":12961,"Sekela":12962,"Ġ70":12963,"ĠkukaYehova":12964,"Ġandizange":12965,"selected":12966,"Enkosi":12967,"Ndandi":12968,"ĠIsiOromo":12969,"tifiketi":12970,"Ġinkangeleko":12971,"hlolisisa":12972,"Ġezingekho":12973,"ĠProduction":12974,"Ġuhlangothi":12975,"Ġkamsinya":12976,"CopyPaste":12977,"BI":12978,"Imveliso":12979,"Net":12980,"zmir":12981,"lusa":12982,"Ġummandla":12983,"ĠAkunjalo":12984,"Ġyokungena":12985,"ĠEzo":12986,"ĠBur":12987,"ĠCan":12988,"ĠLat":12989,"Ġisiqhamo":12990,"ĠWOKU":12991,"pots":12992,"ĠOkun":12993,"ĠFin":12994,"Ġwobomi":12995,"Ġndaya":12996,"Ġkwiimarike":12997,"ĠYama":12998,"ĠAbafundi":12999,"Ġzikarhulumente":13000,"URICom":13001,"Ġenokuthi":13002,"ĠParis":13003,"URIComponent":13004,":+":13005,"iri":13006,"itura":13007,"Ġtestosterone":13008,"Ġegazini":13009,"Ġkurhulumente":13010,"Ġasin":13011,"token":13012,"Ġwaphinda":13013,"ĠUyazi":13014,"bubele":13015,"Ġngokukhuselekileyo":13016,"Ġsifunda":13017,"cilelwe":13018,"ĠcrossRef":13019,"mende":13020,"Ġwamkelekile":13021,"estrogen":13022,"print":13023,"Ġ!=":13024,"crossRef":13025,"Ġkungenjalo":13026,"ĠcalcelSelect":13027,"Ġsteel":13028,"ĠtextSelected":13029,"ĠlockCopyPaste":13030,"addRange":13031,"ĠencodeURIComponent":13032,"selectedPassage":13033,"Heb":13034,"Khala":13035,"Vir":13036,"ĠuHa":13037,"mboni":13038,"mbers":13039,"Ġwagqiba":13040,"Ġbala":13041,"ĠneG":13042,"Ġabathembekileyo":13043,"qatsh":13044,"Ġyu":13045,"Ġyenzeke":13046,"qumbo":13047,"phethwe":13048,"mbamba":13049,"ĠBig":13050,"orge":13051,"Ġisiko":13052,"ELI":13053,"Ġkwiinkonzo":13054,"Ġkwiinkcukacha":13055,"como":13056,"cedise":13057,"dingi":13058,"Iinkcukacha":13059,"Ġprodu":13060,"Ġngobukhulu":13061,"Orlando":13062,"Ado":13063,"SM":13064,"Ġter":13065,"kutha":13066,"elle":13067,"lekileyo":13068,"book":13069,"angen":13070,"Ġababhali":13071,"Ġngothando":13072,"Ġwemka":13073,"ĠLika":13074,"Ġisityumzi":13075,"Ġelim":13076,"Ġzendlela":13077,"ĠStar":13078,"ĠuSamuweli":13079,"Ġiseti":13080,"Ġlunoku":13081,"Ġjust":13082,"qamlezweni":13083,"Zapotec":13084,"Nokuba":13085,"Skype":13086,"foni":13087,"kle":13088,"Ġë":13089,"Ġukhona":13090,"Ġkusithiwa":13091,"mall":13092,"bulele":13093,"ĠAmanye":13094,"Ġkade":13095,"Ġamakhwenkwe":13096,"ĠCA":13097,"Ġnow":13098,"ĠNgum":13099,"qokelele":13100,"Ġakusi":13101,"mpasi":13102,"ootro":13103,"guqule":13104,"Lufefe":13105,"bingelelweni":13106,"trone":13107,"Ġhome":13108,"ĠsikaThixo":13109,"ĠChinese":13110,"Ġokwesi":13111,"munity":13112,"American":13113,"Bun":13114,"Ð±":13115,"zii":13116,"kwabelana":13117,"ĠTy":13118,"gulo":13119,"Ġimizuzwana":13120,"ongami":13121,"qhuma":13122,"Ġkwinani":13123,"Ġintsimi":13124,"Ġkwiinkampani":13125,"130":13126,"Ġwazalwa":13127,"Ġesincinci":13128,"Ġolunzulu":13129,"ĠFix":13130,"funyenweyo":13131,"Feder":13132,"ĠFoundation":13133,"mpostile":13134,"Ġlwangaphakathi":13135,"ĠGirls":13136,"DO":13137,"NYE":13138,"asi":13139,"bbe":13140,"ĠeSi":13141,"galele":13142,"Ġukucoca":13143,"Ġzengqondo":13144,"ory":13145,"Ġesivela":13146,"lulekileyo":13147,"qinisekis":13148,"Ġndenza":13149,"bheham":13150,"Ngeli":13151,"Ġkanjani":13152,"bumfihlo":13153,"Phum":13154,"thenda":13155,"IMi":13156,"Ji":13157,"Nantsi":13158,"noku":13159,"Ġozayo":13160,"cago":13161,"Ġmon":13162,"Ġzegolide":13163,"ĠMunici":13164,"Ġbes":13165,"ĠUkuthengisa":13166,"Ġokuqala":13167,"bhinethi":13168,"Ġnjenges":13169,"wanondlebe":13170,"ilding":13171,"ĠZE":13172,"linge":13173,"khuseli":13174,"verter":13175,"Ġintsimbi":13176,"Haber":13177,"qolowa":13178,"ï¼Į":13179,"Duteronomi":13180,"Ġekhulwini":13181,"PIVX":13182,"pagePix":13183,"ebe":13184,"ethiwekhi":13185,"ĠuPi":13186,"Ġulandele":13187,"war":13188,"Ġukubuza":13189,"Ġsq":13190,"ĠKwelinye":13191,"ĠSisi":13192,"ĠScra":13193,"Ġyokujonga":13194,"Ġyokuhlawula":13195,"kia":13196,"Ġnokukwazi":13197,"Ġnokuvelisa":13198,"ĠUkuphucula":13199,"movie":13200,"Ġimizimba":13201,"Ġzokugqibela":13202,"link":13203,"Ġkumashishini":13204,"Ġukunyusa":13205,"Ġ09":13206,"ĠNgoxa":13207,"Ġkwizixhobo":13208,"ĠBeach":13209,"Ġukuyila":13210,"Ġesisiseko":13211,"qulunqa":13212,"ĠngoLwesihlanu":13213,"yikekayo":13214,"Arhente":13215,"inless":13216,"Ġemp":13217,"Ġukutsala":13218,"Ġukulungelelanisa":13219,"Ġwabeka":13220,"ĠNu":13221,"Ġmfo":13222,"khazi":13223,"cobo":13224,"qoba":13225,"ĠGod":13226,"Ġthese":13227,"Ġdeposit":13228,"Ġpart":13229,"IMA":13230,"Java":13231,"Ġsuper":13232,"zingela":13233,"cocekile":13234,"Efrayim":13235,"Ġelingenammiselo":13236,"Ara":13237,"NO":13238,"Spe":13239,"multimedia":13240,"gaya":13241,"Ġukuhlaselwa":13242,"Ġngxi":13243,"bukele":13244,"Ġezibonisa":13245,"Ġabam":13246,"Ġsihlala":13247,"Ġamabhinqa":13248,"Ġlivela":13249,"Ġngenyameko":13250,"Ġlokucoca":13251,"Ġzomntu":13252,"Ġwokun":13253,"vers":13254,"Ġnabazali":13255,"ĠNgayo":13256,"Isikhokelo":13257,"Ngethuba":13258,"ĠOnke":13259,"ĠServo":13260,"Chaza":13261,"ĠChris":13262,"qhankqalazo":13263,"Å¾":13264,"lobi":13265,"Ġkwifayile":13266,"ĠNam":13267,"tare":13268,"omn":13269,"Ġzeeng":13270,"Ġamakhaya":13271,"Ġamasebe":13272,"Ġamaqanda":13273,"Ġamafutha":13274,"ongwe":13275,"Ġbesenza":13276,"tshaja":13277,"antyi":13278,"Ġizikhokelo":13279,"Ġekukhu":13280,"Ġlokuhamba":13281,"Ġwould":13282,"Ġnabathengi":13283,"Ġakakwazi":13284,"Ġyamazwe":13285,"ĠÐ´":13286,"Ġebudeni":13287,"Ġdigital":13288,"Ġkweendlela":13289,"Ġisofthiwe":13290,"Ekubeni":13291,"ĠJackpot":13292,"Ash":13293,"Office":13294,"cture":13295,"Ġibango":13296,"ĠeCa":13297,"gation":13298,"Ġalishumi":13299,"Ġobalaseleyo":13300,"elekisa":13301,"khokelayo":13302,"ĠUloliwe":13303,"Ġyeso":13304,"phaluka":13305,"themati":13306,"tai":13307,"Ġenkosi":13308,"cedi":13309,"Ġezingcono":13310,"Ġiiwebhusayithi":13311,"bio":13312,"Ġndibona":13313,"ishina":13314,"ĠRes":13315,"Ġingum":13316,"psy":13317,"ason":13318,"Galili":13319,"Reply":13320,"Ġubambe":13321,"qongeni":13322,"Ġekwakheni":13323,"saseCongo":13324,"Ġabenza":13325,"ĠAssociation":13326,"flu":13327,"opa":13328,"yes":13329,"Ġifumana":13330,"Ġkulapho":13331,"gaon":13332,"Ġukutyelela":13333,"ĠIV":13334,"Ġezize":13335,"Ġngokuya":13336,"ĠAKU":13337,"ĠSam":13338,"kwayo":13339,"Ġezinzulu":13340,"ĠLA":13341,"Ġmatch":13342,"ĠUmgangatho":13343,"Ġngumoya":13344,"Ġneentombi":13345,"cingela":13346,"dinge":13347,"dingeka":13348,"play":13349,"sondele":13350,"xakekile":13351,"qwenelekayo":13352,"LI":13353,"Okwangoku":13354,"Wena":13355,"World":13356,"zh":13357,"ÑĪ":13358,"kufuneka":13359,"Ġncam":13360,"Ġiph":13361,"Ġowu":13362,"androgen":13363,"zot":13364,"Ġngaxeshanye":13365,"Ġezingq":13366,"ĠBro":13367,"Ġbehlabathi":13368,"Ġiivenkile":13369,"photo":13370,"Ġesixhenxe":13371,"Ukutya":13372,"waniso":13373,"esuka":13374,"guquguqukayo":13375,"Ġnezilwanyana":13376,"zalwan":13377,"Yoh":13378,"Ġ03":13379,"Ġzezilwanyana":13380,"Ġuqiniseke":13381,"Iza":13382,"Mongameli":13383,"Ostreliya":13384,"Qela":13385,"SH":13386,"Star":13387,"qeni":13388,"Å¡":13389,"Ġnye":13390,"Ġikhosi":13391,"Ġkusenoku":13392,"khungu":13393,"Ġukuthembeka":13394,"Ġwaphendula":13395,"Ġbaqhubeka":13396,"Ġumng":13397,"isodwa":13398,"ĠzeB":13399,"ĠzeC":13400,"Ġamaxhoba":13401,"ĠLady":13402,"mous":13403,"ĠIndoda":13404,"ĠFu":13405,"cua":13406,"xhaka":13407,"Ġngumthetho":13408,"khawuleze":13409,"Ġungen":13410,"Iinkqubo":13411,"Ngokwe":13412,"ĠINDLELA":13413,"ququzeleli":13414,"Ġplayer":13415,"Uze":13416,"dene":13417,"glo":13418,"ĠuLe":13419,"khanda":13420,"omu":13421,"Ġzelanga":13422,"ĠLONTO":13423,"ĠisiNgesi":13424,"ĠUkutya":13425,"ĠWA":13426,"Ġndikwazi":13427,"siness":13428,"Ġolujikelezayo":13429,"Ġuyasi":13430,"oot":13431,"kiswano":13432,"Hey":13433,"Ġyobugcisa":13434,"ĠuMariya":13435,"Ġexperi":13436,"Ġelinesibhozo":13437,"ĠIsiUzbek":13438,"ĠPhambi":13439,"Ġezisibhozo":13440,"yanzelekanga":13441,"trictly":13442,"ender":13443,"Ġukulahlekelwa":13444,"Ġngokuphindaphindiweyo":13445,"Ġlelona":13446,"ĠBlue":13447,"ĠBrazil":13448,"Ġwes":13449,"Ġbethetha":13450,"tshwe":13451,"Ġsale":13452,"Ġesona":13453,"Ġngomn":13454,"Ġyesiqhelo":13455,"Paul":13456,"THO":13457,"ĠMedical":13458,"Ġubawo":13459,"Phando":13460,"ĠNgethuba":13461,"Ġeludongeni":13462,"ĠNjengo":13463,"HOLO":13464,"dliwanondlebe":13465,"!\"":13466,"fle":13467,"msebenzi":13468,"wp":13469,"zhou":13470,"Ġq":13471,"Ġita":13472,"okugqibela":13473,"Ġogqibeleleyo":13474,"Ġwachaza":13475,"Ġumhlala":13476,"Ġmulti":13477,"ĠBroadcast":13478,"phuzu":13479,"Ġmama":13480,"aland":13481,"Ġezisebenzayo":13482,"Ġingcaciso":13483,"ANGA":13484,"Ġnemifanekiso":13485,"Ġkwimithombo":13486,"Ġizandi":13487,"Ġoothixo":13488,"Ġangundoqo":13489,"ĠIsisombululo":13490,"UTY":13491,"Ġabuyele":13492,"THETHO":13493,"zotzil":13494,"Usuku":13495,"Wil":13496,"xisa":13497,"ĠuGa":13498,"Ġuphume":13499,"thongo":13500,"Ġijija":13501,"Ġeva":13502,"Ġext":13503,"Ġejongene":13504,"kholwayo":13505,"Ġyexabiso":13506,"ĠneT":13507,"Ġumthandazo":13508,"kanya":13509,"Ġml":13510,"phetha":13511,"xolelwa":13512,"Ġisiza":13513,"ĠPhe":13514,"Ġekuphuhl":13515,"alisa":13516,"thwale":13517,"Ġneed":13518,"ĠIsiTzotzil":13519,"hlangane":13520,"Ġungo":13521,"Ġyamava":13522,"Ġyamatyala":13523,"Ġday":13524,".âĢĻ+":13525,"ĠeNtsha":13526,"ĠTips":13527,"dliwa":13528,"Ġwanikela":13529,"pthi":13530,"kuyo":13531,"Ġauto":13532,"Ġokhethekileyo":13533,"anal":13534,"Ġkwamehlo":13535,"Ġnala":13536,"title":13537,"Ġeziquka":13538,"Ġlolawulo":13539,"Ġsikhulu":13540,"Ġzemveli":13541,"tyhefu":13542,"xoka":13543,"Ġnokuqonda":13544,"ĠIndia":13545,"Ġngumdlali":13546,"ANDA":13547,"jola":13548,"ĠZiya":13549,"ĠKunge":13550,"James":13551,"ĠIntengiso":13552,"ttle":13553,"Ġiinguqu":13554,"hlambulukileyo":13555,"mbhoxo":13556,"dayimani":13557,"Ġhleze":13558,"'[":13559,"Can":13560,"crea":13561,"crypto":13562,"Ġuben":13563,"yaweni":13564,"Ġukuqalisa":13565,"Ġindlebe":13566,"Ġyorhwebo":13567,"tian":13568,"ĠEstate":13569,"Ġweva":13570,"fikela":13571,"vumel":13572,"Ġnentombi":13573,"ĠUmzobo":13574,"ĠBaza":13575,"hambise":13576,"neuro":13577,"Ġangaphezu":13578,"ĠIsiSango":13579,"ĠYiya":13580,"Ġgay":13581,"ĠExchange":13582,"ĠGermany":13583,"Ã³n":13584,"NS":13585,"Ukanti":13586,"Ġhamba":13587,"Ġufaka":13588,"Ġufike":13589,"Ġewebhu":13590,"Ġkufikelela":13591,"ĠIma":13592,"ĠImoto":13593,"ĠImpendulo":13594,"Ġkathathu":13595,"ĠzeS":13596,"Ġzifumaneka":13597,"Ġliyi":13598,"elwayo":13599,"Map":13600,"lines":13601,"Ġwokudla":13602,"fumaneki":13603,"ĠuMtyholi":13604,"qiqa":13605,"Ġpara":13606,"Ġuzimisele":13607,"Ġootitshala":13608,"FUNEKA":13609,"Ġalumini":13610,"Ekuqaleni":13611,"Khorona":13612,"limala":13613,"bumnandi":13614,"Ġngokubhekisele":13615,"ĠiPad":13616,"QINISEKISO":13617,"SEBENZI":13618,"hilippines":13619,"CP":13620,"Dis":13621,"ico":13622,"lg":13623,"non":13624,"pse":13625,"ÙĨ":13626,"ants":13627,"Ġidolophu":13628,"zimali":13629,"mazantsi":13630,"Ġowo":13631,"khohl":13632,"Ġwabuya":13633,"Ġyabona":13634,"ĠSpin":13635,"Ġzisetyenziswa":13636,"ĠweS":13637,"Ġwexesha":13638,"Ġbese":13639,"biwa":13640,"bonisana":13641,"Ukusebenza":13642,"qhwi":13643,"ĠStars":13644,"ĠIngxaki":13645,"ĠNjengom":13646,"gxininise":13647,"layisenisi":13648,"Ġuhlawule":13649,"ULEK":13650,"Ġzakutshanje":13651,"dlwengula":13652,"Tho":13653,"Wel":13654,"content":13655,"uch":13656,"umbono":13657,"enda":13658,"Ġkufumaneka":13659,"khrasi":13660,"Ġbaphile":13661,"hlabela":13662,"Ġ(\"":13663,"ĠSan":13664,"Ġzan":13665,"Ġamajoni":13666,"ĠUkutshintsha":13667,"Ġesipheleleyo":13668,"chazi":13669,"Ġkwindalo":13670,"Ġiyaqhubeka":13671,"Ġengabonakaliyo":13672,"minikelo":13673,"Ġnemithetho":13674,"wangali":13675,"zisola":13676,"ĠTable":13677,"----":13678,"swekile":13679,"ugust":13680,"Webhusayithi":13681,"dustrial":13682,"Cinga":13683,"ez":13684,"gwele":13685,"gest":13686,"yelo":13687,"yisiweyo":13688,"Ġqua":13689,"intshi":13690,"Ġnis":13691,"Ġipo":13692,"magic":13693,"elektroniki":13694,"Ġnedatha":13695,"Ġneyoku":13696,"xakini":13697,"Ġwezinto":13698,"hlomelo":13699,"hluphe":13700,"Ġsawo":13701,"Ġoluthe":13702,"ĠHall":13703,"enziweyo":13704,"Ġndayi":13705,"kwang":13706,"khangeli":13707,"ĠIsiKwangali":13708,"Ġowathi":13709,"Ġrela":13710,"Ð¾Ð»":13711,"ĠyeeN":13712,"Ġnobubele":13713,"profeta":13714,"tyotyo":13715,"Ġiimfundiso":13716,"lÄ±":13717,"qine":13718,"vane":13719,"Ġgqi":13720,"Ġdolophu":13721,"kuthe":13722,"enry":13723,"Ġiise":13724,"ĠiSa":13725,"Ġala":13726,"Ġathetha":13727,"Ġukufuna":13728,"Ġwabuyela":13729,"Ġkwixabiso":13730,"mitter":13731,"Ġzemidlalo":13732,"Ġlizwi":13733,"wila":13734,"Ġsaza":13735,"ekariya":13736,"ĠRoulette":13737,"rystal":13738,"Kubalulekile":13739,"Ġnim":13740,"onwaba":13741,"Ġisaziso":13742,"KHUS":13743,"Kwiminyaka":13744,"Ġonokuthi":13745,"ACT":13746,"Ġeziyimfuneko":13747,"Ġvir":13748,"Ġifomu":13749,"JON":13750,"Mini":13751,"Ru":13752,"TR":13753,"Xeko":13754,"qileyo":13755,"smart":13756,"Ġkulwa":13757,"Ġinhibi":13758,"Ġwamnika":13759,"phamb":13760,"kanini":13761,"caweni":13762,"mpondo":13763,"mpompo":13764,"Ġwell":13765,"Ġemtshatweni":13766,"Ġimithwalo":13767,"got":13768,"Ġnithe":13769,"zalwe":13770,"Ġ600":13771,"Ġizabelo":13772,"Ġthan":13773,"ĠXA":13774,"ttery":13775,"Ġfiber":13776,"ĠChristmas":13777,"Kholeji":13778,"Ġyonyango":13779,"Ġelect":13780,"lungelelaniswa":13781,"Qaphela":13782,"CG":13783,"uter":13784,"Ġuqoqosho":13785,"Ġivu":13786,"Ġegqibeleleyo":13787,"Ġukukhulisa":13788,"lila":13789,"Ġwalu":13790,"Ġwabe":13791,"Ġbar":13792,"Ġsy":13793,"Ġabakwi":13794,"Ġkwevidiyo":13795,"Ġsithe":13796,"Ġnoxolo":13797,"Ġabang":13798,"Ġlazo":13799,"ĠTwitter":13800,"bhata":13801,"Ġoluya":13802,"Ngxelo":13803,"hlawulelwa":13804,"cingi":13805,"ĠEnter":13806,"Ġngobuchule":13807,"ĠNdin":13808,"Sebenzi":13809,"phazamise":13810,"Ġapps":13811,"chnical":13812,"Mnga":13813,"UE":13814,"ato":13815,"Ã±":13816,"Ġmbono":13817,"eller":13818,"issue":13819,"lows":13820,"Ġwadala":13821,"Ġwacela":13822,"Ġwadibana":13823,"ĠUshiye":13824,"bukhali":13825,"Ġneyona":13826,"ĠKanjalo":13827,"ĠAmanzi":13828,"Ġzedijithali":13829,"Ġyokulwa":13830,"Ġwant":13831,"ĠLLC":13832,"Ġnjengendawo":13833,"Ġekubon":13834,"jethi":13835,"guquleli":13836,"khanka":13837,"Ġendinga":13838,"Ġebusika":13839,"Ġhad":13840,"Watermark":13841,"Ġoyithandayo":13842,"Ġmnyama":13843,"tyhola":13844,"fudumala":13845,"Lungisa":13846,"Cwangciso":13847,"layibrari":13848,"ĠâĦ¢":13849,"Riphabli":13850,"??":13851,"yle":13852,"Ø±":13853,"isaneni":13854,"Ġkumb":13855,"Ġngun":13856,"ĠyeVidiyo":13857,"Ġyako":13858,"ĠIsiSamoa":13859,"Ġabasa":13860,"Ġlong":13861,"Ġsibonisa":13862,"ĠMal":13863,"Ġiikhamera":13864,"ĠUkuzi":13865,"color":13866,"Ġekuda":13867,"eholide":13868,"Ukuzi":13869,"cuba":13870,"zukisa":13871,"Ġubuya":13872,"Ġbangama":13873,"ĠVac":13874,"Ġukunxibelelana":13875,"Ġnesibindi":13876,"Ġyabasebenzi":13877,"Ġiziseko":13878,"Ġnangaphandle":13879,"Ġiyeza":13880,"Ġiminikelo":13881,"ĠuYona":13882,"tsiba":13883,"Ġomncinane":13884,"Ġwanika":13885,"dongwe":13886,"Ġbitcoin":13887,"khangayo":13888,"ĠIsiBicol":13889,"MI":13890,"Umbala":13891,"iki":13892,"test":13893,"elwanga":13894,"Ġntsuku":13895,"baleka":13896,"Ġibhodi":13897,"Ġaphakamileyo":13898,"Ġukubulala":13899,"Ġukufezekisa":13900,"Ġoon":13901,"Ġkwand":13902,"Ġyeyo":13903,"Ġnempahla":13904,"cated":13905,"rig":13906,"bic":13907,"cott":13908,"Ġmazi":13909,"Ġisis":13910,"ĠZininzi":13911,"Ġukunyamezela":13912,"khathalela":13913,"EKISO":13914,"ontle":13915,"ĠSolutions":13916,"KHONA":13917,"qhubekeka":13918,"Ġphofu":13919,"qhenqa":13920,"tsonko":13921,"kru":13922,"spi":13923,"enko":13924,"Ġiphulo":13925,"Ġirekhodi":13926,"Ġyecala":13927,"tionary":13928,"omileyo":13929,"Ġezimnyama":13930,"Ġsizini":13931,"kiya":13932,"hlin":13933,"Ġnokugcinwa":13934,"field":13935,"chum":13936,"Ġsemali":13937,"yuse":13938,"Ġuyavuma":13939,"illy":13940,"Ð½Ð¾":13941,"ĠIsiNdonga":13942,"Ġkuyilo":13943,"lungelelaniso":13944,"Ġbill":13945,"Ġangamashumi":13946,"ĠakwaSirayeli":13947,"IYunivesithi":13948,"ND":13949,"NJ":13950,"Ùħ":13951,"ĠeQ":13952,"Ġefumaneka":13953,"Ġukufakwa":13954,"Ġkwano":13955,"Ġwawun":13956,"Ġnaman":13957,"Ġnese":13958,"hlaku":13959,"Ġngabantwana":13960,"omini":13961,"omtsalane":13962,"Ġezithi":13963,"real":13964,"Ġzemfundo":13965,"Ġisikhumba":13966,"manyano":13967,"ĠNgendlela":13968,"duli":13969,"Ġlokuphila":13970,"chasa":13971,"thandazela":13972,"mpapasho":13973,"lyn":13974,"news":13975,"Ġ65":13976,"Ġulwaphulo":13977,"Ġsheet":13978,"rhoxiswa":13979,"Ġumbhobho":13980,"FO":13981,"lato":13982,"Ġileta":13983,"Ġkuphando":13984,"boleka":13985,"tsu":13986,"omsebenzi":13987,"hir":13988,"Ġenje":13989,"Ġabaphulaphuli":13990,"Ġyokucinga":13991,"Ġyokuthumela":13992,"Ġisithembiso":13993,"Ġekufund":13994,"Ġimilenze":13995,"Ġziyakwazi":13996,"krazula":13997,"etrofit":13998,"Ġlobushushu":13999,"ĠuYise":14000,"Ġtips":14001,"logical":14002,"Euro":14003,"SMPTE":14004,"Ñĸ":14005,"ĠÑĤ":14006,"Ġebhaliweyo":14007,"ĠIbe":14008,"Ġngokuhambelana":14009,"sat":14010,"tshinga":14011,"ĠUkulungiswa":14012,"ĠInkxaso":14013,"Inqaku":14014,"Ġkwinkonzo":14015,"Ġngumsindo":14016,"ĠSign":14017,"Ġkwizikolo":14018,"Ġazikho":14019,"Ġmedia":14020,"ĠChampi":14021,"UTM":14022,"ĠIsiSwati":14023,"Ġkwelase":14024,"Aluminium":14025,"ppi":14026,"qing":14027,"Ġishumi":14028,"Ġub":14029,"Ġuthabathe":14030,"ths":14031,"Ġukuphela":14032,"ululo":14033,"Ġabaselula":14034,"Ġyangempela":14035,"Ġezingcwele":14036,"ĠMil":14037,"tshiswe":14038,"ĠKubonakala":14039,"Ġwendlu":14040,"ped":14041,"gundoqo":14042,"Ġnobusuku":14043,"Iinkonzo":14044,"ritish":14045,"Ġkwisakhiwo":14046,"ĠGerman":14047,"culty":14048,"rhoxisa":14049,"thakazel":14050,"Kwen":14051,"Wall":14052,"olu":14053,"wis":14054,"wum":14055,"wise":14056,"Ġizulu":14057,"Ġkwangoku":14058,"eseli":14059,"oman":14060,"tech":14061,"ĠSp":14062,"Ġsiganeko":14063,"Ġnowa":14064,"ĠPub":14065,"Ġekuphucu":14066,"chasi":14067,"Ġimfuno":14068,"tshoyo":14069,"Kufakwe":14070,"graphic":14071,"Bay":14072,"Ġmost":14073,"ĠlikaYesu":14074,"Ġngobuso":14075,"Yaye":14076,"ĠNorth":14077,"astern":14078,"zabalazo":14079,"Hindi":14080,"hin":14081,"melela":14082,"mvumi":14083,"ymara":14084,"Ġvu":14085,"Ġuvela":14086,"Ġixhomekeke":14087,"Ġkufakwa":14088,"Ġbambalwa":14089,"hlahla":14090,"Ġlenza":14091,"Ġzexesha":14092,"phuculo":14093,"fihle":14094,"Ġimimandla":14095,"Ġbela":14096,"Ġyiloo":14097,"kwethu":14098,"Ġlwalo":14099,"Ġ46":14100,"Ġyenkomo":14101,"Umgaqo":14102,"Ġengaphantsi":14103,"Live":14104,"Ġlwenkqubo":14105,"ĠbukaYehova":14106,"Ġenika":14107,"Ġukubukeka":14108,"khiqizi":14109,"Thatha":14110,"phengululi":14111,"Epreli":14112,"Hz":14113,"kÃ©":14114,"Ġnong":14115,"Ġushiye":14116,"Ġukhumbule":14117,"Ġigosa":14118,"Ġbasenoku":14119,"Ġngokutsho":14120,"Ġenzulu":14121,"tyeli":14122,"ĠUkusasazwa":14123,"colileyo":14124,"ĠHi":14125,"xhaphaza":14126,"verse":14127,"Ġneenkampani":14128,"Ġlesithathu":14129,"ÐµÑĢ":14130,"Ð°Ð»":14131,"ched":14132,"ĠNgomhla":14133,"Ġinclu":14134,"losofi":14135,"Ġezisemgangathweni":14136,"MO":14137,"NE":14138,"Ãº":14139,"Ġuphi":14140,"thers":14141,"Ġephilayo":14142,"Ġkwazi":14143,"Ġyephondo":14144,"Ġseng":14145,"ĠKronike":14146,"rathi":14147,"Ġezindala":14148,"Ġlilungu":14149,"para":14150,"ĠFS":14151,"ĠDvd":14152,"Ġkumxholo":14153,"INA":14154,"lism":14155,"eriya":14156,"Ġbekuya":14157,"ĠIsiGun":14158,"ãĥ¼ãĤ":14159,"Apo":14160,"Lor":14161,"miswa":14162,"ÙĬ":14163,"Ġque":14164,"Ġudibanise":14165,"baxa":14166,"yebo":14167,"zibini":14168,"gain":14169,"Ġakwi":14170,"Ġafter":14171,"wevu":14172,"libale":14173,"Ġyeselula":14174,"tiMnga":14175,"Ġngokungena":14176,"Ġabahle":14177,"Ġkwemisebenzi":14178,"Ġzezinye":14179,"ĠET":14180,"mpula":14181,"Ġabanini":14182,"Ġisidima":14183,"Ġokuthile":14184,"ĠDoll":14185,"ĠJanuary":14186,"Umdlalo":14187,"gcawu":14188,"Ġwazama":14189,"Ġwesizwe":14190,"Kwimeko":14191,"Ġhow":14192,"reenland":14193,"chengeni":14194,"shington":14195,"ĠOKANYE":14196,"RAD":14197,"akukho":14198,"fonti":14199,"qhayi":14200,"sc":14201,"spam":14202,"von":14203,"Ġubonakala":14204,"Ġibala":14205,"Ġidlala":14206,"Ġikhangela":14207,"Ġkul":14208,"ĠyeMveliso":14209,"mid":14210,"Ġnethuba":14211,"Ġumlenze":14212,"Ġabambalwa":14213,"reji":14214,"Ġmyalelo":14215,"Ġziint":14216,"Ġles":14217,"thobha":14218,"kie":14219,"bonele":14220,"bhalise":14221,"bhon":14222,"ĠFrench":14223,"Ġukunyanga":14224,"Ndicinga":14225,"meleki":14226,"ĠSase":14227,"Ġnobukhulu":14228,"Ġkwezopolitiko":14229,"plex":14230,"Ġsamapolisa":14231,"bhiliyoni":14232,"lukwano":14233,"Er":14234,"Oracle":14235,"PI":14236,"ece":14237,
[...]
